{
  "version": "1.0",
  "truncation": null,
  "padding": null,
  "added_tokens": [],
  "normalizer": null,
  "pre_tokenizer": {
    "type": "Whitespace"
  },
  "post_processor": null,
  "decoder": null,
  "model": {
    "type": "BPE",
    "dropout": null,
    "unk_token": null,
    "continuing_subword_prefix": null,
    "end_of_word_suffix": null,
    "fuse_unk": false,
    "byte_fallback": false,
    "ignore_merges": false,
    "vocab": {
      "!": 0,
      "\"": 1,
      "%": 2,
      "'": 3,
      "(": 4,
      ")": 5,
      ",": 6,
      "-": 7,
      ".": 8,
      "/": 9,
      "1": 10,
      ":": 11,
      ";": 12,
      "?": 13,
      "[": 14,
      "]": 15,
      "a": 16,
      "c": 17,
      "d": 18,
      "e": 19,
      "f": 20,
      "g": 21,
      "h": 22,
      "i": 23,
      "j": 24,
      "k": 25,
      "l": 26,
      "m": 27,
      "n": 28,
      "o": 29,
      "p": 30,
      "r": 31,
      "s": 32,
      "t": 33,
      "u": 34,
      "v": 35,
      "w": 36,
      "x": 37,
      "y": 38,
      "।": 39,
      "ঁ": 40,
      "ং": 41,
      "ঃ": 42,
      "অ": 43,
      "আ": 44,
      "ই": 45,
      "ঈ": 46,
      "উ": 47,
      "ঊ": 48,
      "ঋ": 49,
      "এ": 50,
      "ঐ": 51,
      "ও": 52,
      "ঔ": 53,
      "ক": 54,
      "খ": 55,
      "গ": 56,
      "ঘ": 57,
      "ঙ": 58,
      "চ": 59,
      "ছ": 60,
      "জ": 61,
      "ঝ": 62,
      "ঞ": 63,
      "ট": 64,
      "ঠ": 65,
      "ড": 66,
      "ঢ": 67,
      "ণ": 68,
      "ত": 69,
      "থ": 70,
      "দ": 71,
      "ধ": 72,
      "ন": 73,
      "প": 74,
      "ফ": 75,
      "ব": 76,
      "ভ": 77,
      "ম": 78,
      "য": 79,
      "র": 80,
      "ল": 81,
      "শ": 82,
      "ষ": 83,
      "স": 84,
      "হ": 85,
      "়": 86,
      "া": 87,
      "ি": 88,
      "ী": 89,
      "ু": 90,
      "ূ": 91,
      "ৃ": 92,
      "ে": 93,
      "ৈ": 94,
      "ো": 95,
      "ৌ": 96,
      "্": 97,
      "ৎ": 98,
      "০": 99,
      "১": 100,
      "২": 101,
      "৩": 102,
      "৪": 103,
      "৫": 104,
      "৬": 105,
      "৭": 106,
      "৮": 107,
      "৯": 108,
      "√": 109,
      "য়": 110,
      "ার": 111,
      "ের": 112,
      "্র": 113,
      "্য": 114,
      "ান": 115,
      "কর": 116,
      "েন": 117,
      "য়ে": 118,
      "নি": 119,
      "কে": 120,
      "্ত": 121,
      "না": 122,
      "বা": 123,
      "তে": 124,
      "বে": 125,
      "বি": 126,
      "ছে": 127,
      "লে": 128,
      "কা": 129,
      "মা": 130,
      "তি": 131,
      "তা": 132,
      "প্র": 133,
      "লা": 134,
      "ড়": 135,
      "রা": 136,
      "দে": 137,
      "মি": 138,
      "টি": 139,
      "নে": 140,
      "দি": 141,
      "টা": 142,
      "র্": 143,
      "স্": 144,
      "সে": 145,
      "কি": 146,
      "ায়": 147,
      "দের": 148,
      "ছি": 149,
      "পর": 150,
      "সা": 151,
      "ক্": 152,
      "্যা": 153,
      "ভা": 154,
      "থা": 155,
      "লো": 156,
      "এক": 157,
      "পা": 158,
      "করে": 159,
      "জন": 160,
      "য়া": 161,
      "কার": 162,
      "ন্": 163,
      "ক্ষ": 164,
      "তো": 165,
      "ুর": 166,
      "ন্ত": 167,
      "মার": 168,
      "বল": 169,
      "সম": 170,
      "হা": 171,
      "গে": 172,
      "বার": 173,
      "শি": 174,
      "লি": 175,
      "রে": 176,
      "তার": 177,
      "ষ্": 178,
      "কো": 179,
      "পার": 180,
      "যা": 181,
      "িত": 182,
      "থে": 183,
      "মে": 184,
      "হয়ে": 185,
      "আমি": 186,
      "হয়": 187,
      "সি": 188,
      "মান": 189,
      "আর": 190,
      "ছিল": 191,
      "শে": 192,
      "চ্": 193,
      "তিনি": 194,
      "দ্": 195,
      "তু": 196,
      "দা": 197,
      "চা": 198,
      "দু": 199,
      "িক": 200,
      "খা": 201,
      "জান": 202,
      "এই": 203,
      "খন": 204,
      "্ব": 205,
      "ক্ত": 206,
      "খে": 207,
      "ঙ্": 208,
      "য়ার": 209,
      "হবে": 210,
      "জা": 211,
      "থেকে": 212,
      "সব": 213,
      "ছেন": 214,
      "নের": 215,
      "আমা": 216,
      "আমার": 217,
      "যে": 218,
      "িয়ে": 219,
      "করা": 220,
      "ওয়া": 221,
      "জে": 222,
      "মু": 223,
      "দেশ": 224,
      "ব্য": 225,
      "ত্র": 226,
      "ানে": 227,
      "পরি": 228,
      "ছু": 229,
      "োগ": 230,
      "ভি": 231,
      "আছে": 232,
      "স্ত": 233,
      "জন্য": 234,
      "গ্র": 235,
      "জি": 236,
      "সং": 237,
      "স্থ": 238,
      "ড়া": 239,
      "অন": 240,
      "সু": 241,
      "কথা": 242,
      "গু": 243,
      "কোন": 244,
      "ডি": 245,
      "চে": 246,
      "কী": 247,
      "্প": 248,
      "নিয়ে": 249,
      "করতে": 250,
      "লের": 251,
      "গা": 252,
      "টে": 253,
      "শা": 254,
      "ধ্য": 255,
      "প্রতি": 256,
      "ির": 257,
      "বো": 258,
      "শু": 259,
      "হয়েছে": 260,
      "বলে": 261,
      "এটা": 262,
      "ছা": 263,
      "নার": 264,
      "ীর": 265,
      "্ম": 266,
      "েন্": 267,
      "আম": 268,
      "খু": 269,
      "হি": 270,
      "কিছু": 271,
      "দ্ধ": 272,
      "মন": 273,
      "দিয়ে": 274,
      "পে": 275,
      "সর": 276,
      "করেন": 277,
      "আপ": 278,
      "ড়ে": 279,
      "ীয়": 280,
      "আমাদের": 281,
      "আস": 282,
      "দিন": 283,
      "এর": 284,
      "কাজ": 285,
      "সময়": 286,
      "ন্ত্র": 287,
      "যোগ": 288,
      "চি": 289,
      "অনে": 290,
      "বর": 291,
      "ক্র": 292,
      "চ্ছে": 293,
      "পি": 294,
      "ুল": 295,
      "এখন": 296,
      "বলেন": 297,
      "ধান": 298,
      "যায়": 299,
      "আমরা": 300,
      "দেখ": 301,
      "শ্": 302,
      "খানে": 303,
      "ন্তু": 304,
      "অব": 305,
      "ট্র": 306,
      "কম": 307,
      "নির্": 308,
      "শেষ": 309,
      "অনেক": 310,
      "তুমি": 311,
      "লেন": 312,
      "নয়": 313,
      "লাম": 314,
      "কিন্তু": 315,
      "চার": 316,
      "মনে": 317,
      "ভালো": 318,
      "সঙ্": 319,
      "পুর": 320,
      "কোনো": 321,
      "োর": 322,
      "ড়ি": 323,
      "বাং": 324,
      "থাক": 325,
      "ষ্ঠ": 326,
      "বং": 327,
      "রি": 328,
      "ভাবে": 329,
      "নেই": 330,
      "উপ": 331,
      "এবং": 332,
      "ন্দ": 333,
      "বু": 334,
      "সহ": 335,
      "একটি": 336,
      "শিক্ষ": 337,
      "ন্ধ": 338,
      "বাংলা": 339,
      "ওয়ার": 340,
      "সরকার": 341,
      "্ড": 342,
      "সঙ্গে": 343,
      "মো": 344,
      "রো": 345,
      "মধ্য": 346,
      "হার": 347,
      "তাদের": 348,
      "ক্তি": 349,
      "স্য": 350,
      "ুরু": 351,
      "গুলো": 352,
      "তাঁ": 353,
      "ুষ": 354,
      "য়ের": 355,
      "একটা": 356,
      "ছিলেন": 357,
      "চিত": 358,
      "জ্": 359,
      "জার": 360,
      "ঞ্": 361,
      "টার": 362,
      "মন্ত্র": 363,
      "পু": 364,
      "যু": 365,
      "ব্যা": 366,
      "সম্": 367,
      "কের": 368,
      "বাই": 369,
      "মধ্যে": 370,
      "দেশের": 371,
      "অনু": 372,
      "বাস": 373,
      "করি": 374,
      "পারে": 375,
      "ত্য": 376,
      "ত্ত": 377,
      "ঠিক": 378,
      "তারা": 379,
      "বছ": 380,
      "মানুষ": 381,
      "লার": 382,
      "হলে": 383,
      "বন্ধ": 384,
      "ান্ত": 385,
      "তোমার": 386,
      "দ্র": 387,
      "ল্প": 388,
      "্যান": 389,
      "কর্ম": 390,
      "ফি": 391,
      "কেন": 392,
      "বড়": 393,
      "কু": 394,
      "চল": 395,
      "গত": 396,
      "ঢা": 397,
      "বিষ": 398,
      "বেন": 399,
      "শ্ব": 400,
      "োট": 401,
      "বেশ": 402,
      "ব্যব": 403,
      "মী": 404,
      "বছর": 405,
      "হচ্ছে": 406,
      "টু": 407,
      "লী": 408,
      "ধার": 409,
      "গো": 410,
      "ভার": 411,
      "জী": 412,
      "ল্": 413,
      "দেখা": 414,
      "নী": 415,
      "সো": 416,
      "সাথে": 417,
      "শুরু": 418,
      "এসে": 419,
      "র্থ": 420,
      "প্রধান": 421,
      "সার": 422,
      "খুব": 423,
      "নাম": 424,
      "ন্ন": 425,
      "আগে": 426,
      "প্ত": 427,
      "বিশ্ব": 428,
      "ানি": 429,
      "্যাল": 430,
      "ফে": 431,
      "কাল": 432,
      "দল": 433,
      "বিদ": 434,
      "প্রথ": 435,
      "সের": 436,
      "ঙ্গ": 437,
      "আই": 438,
      "স্থা": 439,
      "মন্ত্রী": 440,
      "ঢাকা": 441,
      "জের": 442,
      "অভি": 443,
      "রু": 444,
      "দিকে": 445,
      "এখানে": 446,
      "মের": 447,
      "ক্ষে": 448,
      "টির": 449,
      "গিয়ে": 450,
      "ধি": 451,
      "স্বা": 452,
      "ণা": 453,
      "জীব": 454,
      "টো": 455,
      "ানা": 456,
      "দুই": 457,
      "কাছে": 458,
      "গেছে": 459,
      "ঘট": 460,
      "তের": 461,
      "ানের": 462,
      "করার": 463,
      "তীয়": 464,
      "শী": 465,
      "চাই": 466,
      "ষ্ট": 467,
      "আমাকে": 468,
      "গ্রা": 469,
      "তাই": 470,
      "ধু": 471,
      "মতো": 472,
      "জ্ঞ": 473,
      "সদ": 474,
      "হত": 475,
      "প্রা": 476,
      "কারণ": 477,
      "প্রথম": 478,
      "রাজ": 479,
      "সেই": 480,
      "শ্র": 481,
      "পরে": 482,
      "বৃ": 483,
      "য়েছে": 484,
      "বাবা": 485,
      "অন্য": 486,
      "আজ": 487,
      "উদ্": 488,
      "ঠে": 489,
      "পতি": 490,
      "ডা": 491,
      "পূ": 492,
      "পড়": 493,
      "বাদ": 494,
      "তাকে": 495,
      "সমা": 496,
      "বেশি": 497,
      "দেশে": 498,
      "স্ব": 499,
      "নির্বা": 500,
      "প্": 501,
      "তিন": 502,
      "ভাব": 503,
      "গের": 504,
      "ধী": 505,
      "ানো": 506,
      "রের": 507,
      "বাড়ি": 508,
      "ভাই": 509,
      "তবে": 510,
      "হে": 511,
      "হলো": 512,
      "য়েন্": 513,
      "কৃ": 514,
      "এন": 515,
      "পর্য": 516,
      "চলে": 517,
      "সেন": 518,
      "য়ো": 519,
      "রাখ": 520,
      "তুন": 521,
      "হো": 522,
      "নায়": 523,
      "যাবে": 524,
      "গ্রহ": 525,
      "দেওয়া": 526,
      "বর্ত": 527,
      "স্যার": 528,
      "তাঁর": 529,
      "চাল": 530,
      "আপনার": 531,
      "ংশ": 532,
      "নতুন": 533,
      "ফা": 534,
      "বই": 535,
      "ছোট": 536,
      "ভে": 537,
      "ধর": 538,
      "পড়ে": 539,
      "এমন": 540,
      "গর": 541,
      "শো": 542,
      "ারা": 543,
      "সম্প": 544,
      "ক্রি": 545,
      "বের": 546,
      "তখন": 547,
      "ব্": 548,
      "কাশ": 549,
      "হাস": 550,
      "আরও": 551,
      "গণ": 552,
      "দী": 553,
      "নিউ": 554,
      "ম্ব": 555,
      "রয়েছে": 556,
      "সবাই": 557,
      "করেছে": 558,
      "ব্র": 559,
      "ঠা": 560,
      "শন": 561,
      "তিক": 562,
      "আপনি": 563,
      "দিতে": 564,
      "ধা": 565,
      "দেখে": 566,
      "র্ণ": 567,
      "ভিন্ন": 568,
      "লাগ": 569,
      "লায়": 570,
      "টাকা": 571,
      "ূল": 572,
      "নিয়": 573,
      "থাকে": 574,
      "হন": 575,
      "লিশ": 576,
      "চু": 577,
      "তির": 578,
      "ক্ষা": 579,
      "লোক": 580,
      "ওই": 581,
      "জানান": 582,
      "থায়": 583,
      "একজন": 584,
      "্থ": 585,
      "রাষ্": 586,
      "স্ট": 587,
      "রাষ্ট্র": 588,
      "আবার": 589,
      "ত্ব": 590,
      "সূ": 591,
      "বিদ্যাল": 592,
      "ইউ": 593,
      "কেউ": 594,
      "ফোর": 595,
      "করো": 596,
      "শিক্ষা": 597,
      "দায়": 598,
      "হু": 599,
      "হতে": 600,
      "ছাড়া": 601,
      "দার": 602,
      "রণ": 603,
      "পারি": 604,
      "ইস": 605,
      "ুন": 606,
      "করছে": 607,
      "নির্বাচ": 608,
      "ভব": 609,
      "চেয়ে": 610,
      "পুলিশ": 611,
      "আহ": 612,
      "এস": 613,
      "যান": 614,
      "করবে": 615,
      "সেটা": 616,
      "বলা": 617,
      "শুধু": 618,
      "সী": 619,
      "করেছেন": 620,
      "মুখ": 621,
      "আরে": 622,
      "দর": 623,
      "আন": 624,
      "ীদের": 625,
      "বিডি": 626,
      "ষ্টি": 627,
      "য়েন্টি": 628,
      "মূল": 629,
      "হই": 630,
      "তোমা": 631,
      "হাসি": 632,
      "বিভিন্ন": 633,
      "ডট": 634,
      "উত্ত": 635,
      "কখন": 636,
      "একটু": 637,
      "হাজার": 638,
      "যেতে": 639,
      "ধারণ": 640,
      "নিউজ": 641,
      "অধি": 642,
      "ষ্টা": 643,
      "ডটকম": 644,
      "আলো": 645,
      "উন্": 646,
      "টের": 647,
      "বিএন": 648,
      "শেখ": 649,
      "দুর্": 650,
      "প্রতিষ্ঠ": 651,
      "ছাত্র": 652,
      "বিডিনিউজ": 653,
      "দেন": 654,
      "য়েন্টিফোর": 655,
      "বিষয়": 656,
      "ন্দর": 657,
      "নাই": 658,
      "তৈ": 659,
      "দ্য": 660,
      "পো": 661,
      "যদি": 662,
      "লন": 663,
      "য়েক": 664,
      "রহ": 665,
      "নিজে": 666,
      "স্থান": 667,
      "পর্যন্ত": 668,
      "য়োজন": 669,
      "হী": 670,
      "করছি": 671,
      "মিক": 672,
      "জানা": 673,
      "বুঝ": 674,
      "অংশ": 675,
      "এম": 676,
      "দলের": 677,
      "ফু": 678,
      "ভূ": 679,
      "বাড়": 680,
      "হিসে": 681,
      "এসব": 682,
      "কয়েক": 683,
      "কর্ত": 684,
      "পাঠ": 685,
      "দাও": 686,
      "অর্থ": 687,
      "ফো": 688,
      "প্রকাশ": 689,
      "জানিয়ে": 690,
      "ডে": 691,
      "শ্য": 692,
      "দেখতে": 693,
      "টোয়েন্টিফোর": 694,
      "হিসেবে": 695,
      "কায়": 696,
      "কালে": 697,
      "প্রধানমন্ত্রী": 698,
      "খান": 699,
      "ছবি": 700,
      "জায়": 701,
      "ধরে": 702,
      "ফল": 703,
      "ম্যা": 704,
      "বাংলাদেশ": 705,
      "ওকে": 706,
      "খো": 707,
      "বিশেষ": 708,
      "গেল": 709,
      "মুক্তি": 710,
      "কল": 711,
      "ম্": 712,
      "কত": 713,
      "লু": 714,
      "আওয়া": 715,
      "তৃ": 716,
      "ার্থ": 717,
      "মাত্র": 718,
      "বলতে": 719,
      "মানে": 720,
      "বাংলাদেশের": 721,
      "অনুষ্ঠ": 722,
      "উৎ": 723,
      "দূ": 724,
      "মতা": 725,
      "মাধ্য": 726,
      "রাজন": 727,
      "যাও": 728,
      "সুন্দর": 729,
      "কমি": 730,
      "জু": 731,
      "মৃ": 732,
      "ছেলে": 733,
      "সাধারণ": 734,
      "ভাষ": 735,
      "গ্রহণ": 736,
      "ওর": 737,
      "মত": 738,
      "দিক": 739,
      "পাদ": 740,
      "েন্দ্র": 741,
      "বন্ধু": 742,
      "ইসলাম": 743,
      "সদস্য": 744,
      "বী": 745,
      "নিজের": 746,
      "লেখ": 747,
      "যুক্ত": 748,
      "ধরনের": 749,
      "হ্যা": 750,
      "প্রি": 751,
      "প্রে": 752,
      "ড়িয়ে": 753,
      "গঠ": 754,
      "দাঁ": 755,
      "রহমান": 756,
      "দর্": 757,
      "পারেন": 758,
      "মেয়ে": 759,
      "ঘটনা": 760,
      "ম্বর": 761,
      "অর্": 762,
      "প্রশ্": 763,
      "মানুষের": 764,
      "ঁচ": 765,
      "ধর্": 766,
      "করলে": 767,
      "দাবি": 768,
      "জীবন": 769,
      "দো": 770,
      "ভর": 771,
      "ভয়": 772,
      "্ট": 773,
      "পরী": 774,
      "হয়নি": 775,
      "চ্ছা": 776,
      "পের": 777,
      "ুত": 778,
      "ান্": 779,
      "ক্স": 780,
      "ব্যবস্থা": 781,
      "সম্পর্": 782,
      "আওয়ামী": 783,
      "আব": 784,
      "ত্যা": 785,
      "বৈ": 786,
      "বেদ": 787,
      "কোথায়": 788,
      "চ্ছি": 789,
      "ণ্ড": 790,
      "পৌ": 791,
      "যেন": 792,
      "বিষয়ে": 793,
      "ঘা": 794,
      "ঠি": 795,
      "সভা": 796,
      "মাণ": 797,
      "সরকারি": 798,
      "সরকারের": 799,
      "বিশ্ববিদ্যাল": 800,
      "কারণে": 801,
      "তৈরি": 802,
      "এতে": 803,
      "চনা": 804,
      "পদ": 805,
      "নেতা": 806,
      "খেলা": 807,
      "আপনা": 808,
      "ফিরে": 809,
      "উচিত": 810,
      "বস": 811,
      "মর": 812,
      "প্রায়": 813,
      "সেখানে": 814,
      "থাকবে": 815,
      "পরা": 816,
      "সত্য": 817,
      "দেয়": 818,
      "করেছি": 819,
      "মারা": 820,
      "বলি": 821,
      "কখনো": 822,
      "এলা": 823,
      "তাহলে": 824,
      "লাই": 825,
      "র্ব": 826,
      "সালে": 827,
      "গামী": 828,
      "পেয়ে": 829,
      "ঞ্চ": 830,
      "যুদ্ধ": 831,
      "এবার": 832,
      "ত্": 833,
      "থ্য": 834,
      "ৈতিক": 835,
      "নিশ্": 836,
      "বির": 837,
      "চেষ্টা": 838,
      "একা": 839,
      "বক্ত": 840,
      "িতে": 841,
      "হাম": 842,
      "জাতীয়": 843,
      "ত্রে": 844,
      "্যান্ড": 845,
      "তোমাকে": 846,
      "ওপর": 847,
      "ঘো": 848,
      "নানা": 849,
      "মহ": 850,
      "হাতে": 851,
      "পূর্ণ": 852,
      "কেন্দ্র": 853,
      "জয়": 854,
      "মাম": 855,
      "র্ষ": 856,
      "পাতা": 857,
      "জেলা": 858,
      "বোধ": 859,
      "চিত্র": 860,
      "সাং": 861,
      "রেখে": 862,
      "খালে": 863,
      "খ্যা": 864,
      "গল্প": 865,
      "ঘু": 866,
      "চো": 867,
      "ন্য": 868,
      "শহ": 869,
      "হাত": 870,
      "শ্বাস": 871,
      "মাধ্যমে": 872,
      "এটি": 873,
      "গুরু": 874,
      "নো": 875,
      "করব": 876,
      "বিচার": 877,
      "যাত্র": 878,
      "কলে": 879,
      "তথ্য": 880,
      "থি": 881,
      "বিক": 882,
      "প্রয়োজন": 883,
      "টিতে": 884,
      "পক্ষ": 885,
      "েনে": 886,
      "বিরো": 887,
      "ভাগ": 888,
      "শিশু": 889,
      "জিয়া": 890,
      "স্থায়": 891,
      "ছো": 892,
      "একই": 893,
      "মার্": 894,
      "আরো": 895,
      "েন্ট": 896,
      "বয়": 897,
      "ীরা": 898,
      "কেট": 899,
      "আইন": 900,
      "মৃত্য": 901,
      "পানি": 902,
      "বলো": 903,
      "হওয়ার": 904,
      "নিতে": 905,
      "পাওয়া": 906,
      "িত্ব": 907,
      "তুলে": 908,
      "চিন্ত": 909,
      "উত্তর": 910,
      "ক্যা": 911,
      "যখন": 912,
      "ুয়ার": 913,
      "সামনে": 914,
      "হোসেন": 915,
      "অ্যা": 916,
      "এত": 917,
      "সন্ত": 918,
      "নিক": 919,
      "বায়": 920,
      "অবশ্য": 921,
      "আয়": 922,
      "আসা": 923,
      "উঠ": 924,
      "পান": 925,
      "করবেন": 926,
      "নির": 927,
      "ল্লা": 928,
      "খালেদা": 929,
      "জল": 930,
      "ভিত": 931,
      "স্যা": 932,
      "্যে": 933,
      "নামে": 934,
      "বাঁ": 935,
      "বাজার": 936,
      "সাহা": 937,
      "কিছুই": 938,
      "সম্ভব": 939,
      "আগামী": 940,
      "উঠে": 941,
      "পথ": 942,
      "ভু": 943,
      "কেমন": 944,
      "সাই": 945,
      "ক্ষণ": 946,
      "পরিচাল": 947,
      "আসলে": 948,
      "পৌঁ": 949,
      "রকম": 950,
      "ানোর": 951,
      "তায়": 952,
      "প্রস্ত": 953,
      "রাতে": 954,
      "শিল্প": 955,
      "জানি": 956,
      "ব্যবহার": 957,
      "বাড়িতে": 958,
      "হ্যাঁ": 959,
      "খি": 960,
      "তী": 961,
      "ময়": 962,
      "নাকি": 963,
      "রাত": 964,
      "বারের": 965,
      "যাচ্ছে": 966,
      "গুলি": 967,
      "ঘরে": 968,
      "ষণা": 969,
      "স্ক": 970,
      "বিএনপি": 971,
      "প্রশ্ন": 972,
      "দশ": 973,
      "ধে": 974,
      "দিনের": 975,
      "বললেন": 976,
      "শেষে": 977,
      "ধীন": 978,
      "বক্তব্য": 979,
      "তম": 980,
      "পির": 981,
      "ম্প": 982,
      "সন্": 983,
      "হের": 984,
      "পাই": 985,
      "লিয়ে": 986,
      "যাই": 987,
      "জানতে": 988,
      "চিকি": 989,
      "এখনো": 990,
      "আসে": 991,
      "তেন": 992,
      "য্য": 993,
      "লতে": 994,
      "সমস্যা": 995,
      "স্ত্র": 996,
      "শিক্ষার্থ": 997,
      "ক্ষেত্রে": 998,
      "গ্রাম": 999
    },
    "merges": [
      [
        "য",
        "়"
      ],
      [
        "া",
        "র"
      ],
      [
        "ে",
        "র"
      ],
      [
        "্",
        "র"
      ],
      [
        "্",
        "য"
      ],
      [
        "া",
        "ন"
      ],
      [
        "ক",
        "র"
      ],
      [
        "ে",
        "ন"
      ],
      [
        "য়",
        "ে"
      ],
      [
        "ন",
        "ি"
      ],
      [
        "ক",
        "ে"
      ],
      [
        "্",
        "ত"
      ],
      [
        "ন",
        "া"
      ],
      [
        "ব",
        "া"
      ],
      [
        "ত",
        "ে"
      ],
      [
        "ব",
        "ে"
      ],
      [
        "ব",
        "ি"
      ],
      [
        "ছ",
        "ে"
      ],
      [
        "ল",
        "ে"
      ],
      [
        "ক",
        "া"
      ],
      [
        "ম",
        "া"
      ],
      [
        "ত",
        "ি"
      ],
      [
        "ত",
        "া"
      ],
      [
        "প",
        "্র"
      ],
      [
        "ল",
        "া"
      ],
      [
        "ড",
        "়"
      ],
      [
        "র",
        "া"
      ],
      [
        "দ",
        "ে"
      ],
      [
        "ম",
        "ি"
      ],
      [
        "ট",
        "ি"
      ],
      [
        "ন",
        "ে"
      ],
      [
        "দ",
        "ি"
      ],
      [
        "ট",
        "া"
      ],
      [
        "র",
        "্"
      ],
      [
        "স",
        "্"
      ],
      [
        "স",
        "ে"
      ],
      [
        "ক",
        "ি"
      ],
      [
        "া",
        "য়"
      ],
      [
        "দ",
        "ের"
      ],
      [
        "ছ",
        "ি"
      ],
      [
        "প",
        "র"
      ],
      [
        "স",
        "া"
      ],
      [
        "ক",
        "্"
      ],
      [
        "্য",
        "া"
      ],
      [
        "ভ",
        "া"
      ],
      [
        "থ",
        "া"
      ],
      [
        "ল",
        "ো"
      ],
      [
        "এ",
        "ক"
      ],
      [
        "প",
        "া"
      ],
      [
        "কর",
        "ে"
      ],
      [
        "জ",
        "ন"
      ],
      [
        "য়",
        "া"
      ],
      [
        "ক",
        "ার"
      ],
      [
        "ন",
        "্"
      ],
      [
        "ক্",
        "ষ"
      ],
      [
        "ত",
        "ো"
      ],
      [
        "ু",
        "র"
      ],
      [
        "ন",
        "্ত"
      ],
      [
        "ম",
        "ার"
      ],
      [
        "ব",
        "ল"
      ],
      [
        "স",
        "ম"
      ],
      [
        "হ",
        "া"
      ],
      [
        "গ",
        "ে"
      ],
      [
        "ব",
        "ার"
      ],
      [
        "শ",
        "ি"
      ],
      [
        "ল",
        "ি"
      ],
      [
        "র",
        "ে"
      ],
      [
        "ত",
        "ার"
      ],
      [
        "ষ",
        "্"
      ],
      [
        "ক",
        "ো"
      ],
      [
        "প",
        "ার"
      ],
      [
        "য",
        "া"
      ],
      [
        "ি",
        "ত"
      ],
      [
        "থ",
        "ে"
      ],
      [
        "ম",
        "ে"
      ],
      [
        "হ",
        "য়ে"
      ],
      [
        "আ",
        "মি"
      ],
      [
        "হ",
        "য়"
      ],
      [
        "স",
        "ি"
      ],
      [
        "ম",
        "ান"
      ],
      [
        "আ",
        "র"
      ],
      [
        "ছি",
        "ল"
      ],
      [
        "শ",
        "ে"
      ],
      [
        "চ",
        "্"
      ],
      [
        "তি",
        "নি"
      ],
      [
        "দ",
        "্"
      ],
      [
        "ত",
        "ু"
      ],
      [
        "দ",
        "া"
      ],
      [
        "চ",
        "া"
      ],
      [
        "দ",
        "ু"
      ],
      [
        "ি",
        "ক"
      ],
      [
        "খ",
        "া"
      ],
      [
        "জ",
        "ান"
      ],
      [
        "এ",
        "ই"
      ],
      [
        "খ",
        "ন"
      ],
      [
        "্",
        "ব"
      ],
      [
        "ক",
        "্ত"
      ],
      [
        "খ",
        "ে"
      ],
      [
        "ঙ",
        "্"
      ],
      [
        "য়",
        "ার"
      ],
      [
        "হ",
        "বে"
      ],
      [
        "জ",
        "া"
      ],
      [
        "থে",
        "কে"
      ],
      [
        "স",
        "ব"
      ],
      [
        "ছ",
        "েন"
      ],
      [
        "ন",
        "ের"
      ],
      [
        "আ",
        "মা"
      ],
      [
        "আ",
        "মার"
      ],
      [
        "য",
        "ে"
      ],
      [
        "ি",
        "য়ে"
      ],
      [
        "কর",
        "া"
      ],
      [
        "ও",
        "য়া"
      ],
      [
        "জ",
        "ে"
      ],
      [
        "ম",
        "ু"
      ],
      [
        "দে",
        "শ"
      ],
      [
        "ব",
        "্য"
      ],
      [
        "ত",
        "্র"
      ],
      [
        "ান",
        "ে"
      ],
      [
        "পর",
        "ি"
      ],
      [
        "ছ",
        "ু"
      ],
      [
        "ো",
        "গ"
      ],
      [
        "ভ",
        "ি"
      ],
      [
        "আ",
        "ছে"
      ],
      [
        "স",
        "্ত"
      ],
      [
        "জন",
        "্য"
      ],
      [
        "গ",
        "্র"
      ],
      [
        "জ",
        "ি"
      ],
      [
        "স",
        "ং"
      ],
      [
        "স্",
        "থ"
      ],
      [
        "ড়",
        "া"
      ],
      [
        "অ",
        "ন"
      ],
      [
        "স",
        "ু"
      ],
      [
        "ক",
        "থা"
      ],
      [
        "গ",
        "ু"
      ],
      [
        "কো",
        "ন"
      ],
      [
        "ড",
        "ি"
      ],
      [
        "চ",
        "ে"
      ],
      [
        "ক",
        "ী"
      ],
      [
        "্",
        "প"
      ],
      [
        "নি",
        "য়ে"
      ],
      [
        "কর",
        "তে"
      ],
      [
        "ল",
        "ের"
      ],
      [
        "গ",
        "া"
      ],
      [
        "ট",
        "ে"
      ],
      [
        "শ",
        "া"
      ],
      [
        "ধ",
        "্য"
      ],
      [
        "প্র",
        "তি"
      ],
      [
        "ি",
        "র"
      ],
      [
        "ব",
        "ো"
      ],
      [
        "শ",
        "ু"
      ],
      [
        "হয়ে",
        "ছে"
      ],
      [
        "ব",
        "লে"
      ],
      [
        "এ",
        "টা"
      ],
      [
        "ছ",
        "া"
      ],
      [
        "ন",
        "ার"
      ],
      [
        "ী",
        "র"
      ],
      [
        "্",
        "ম"
      ],
      [
        "েন",
        "্"
      ],
      [
        "আ",
        "ম"
      ],
      [
        "খ",
        "ু"
      ],
      [
        "হ",
        "ি"
      ],
      [
        "কি",
        "ছু"
      ],
      [
        "দ্",
        "ধ"
      ],
      [
        "ম",
        "ন"
      ],
      [
        "দি",
        "য়ে"
      ],
      [
        "প",
        "ে"
      ],
      [
        "স",
        "র"
      ],
      [
        "কর",
        "েন"
      ],
      [
        "আ",
        "প"
      ],
      [
        "ড়",
        "ে"
      ],
      [
        "ী",
        "য়"
      ],
      [
        "আমা",
        "দের"
      ],
      [
        "আ",
        "স"
      ],
      [
        "দি",
        "ন"
      ],
      [
        "এ",
        "র"
      ],
      [
        "কা",
        "জ"
      ],
      [
        "সম",
        "য়"
      ],
      [
        "ন্ত",
        "্র"
      ],
      [
        "য",
        "োগ"
      ],
      [
        "চ",
        "ি"
      ],
      [
        "অ",
        "নে"
      ],
      [
        "ব",
        "র"
      ],
      [
        "ক",
        "্র"
      ],
      [
        "চ্",
        "ছে"
      ],
      [
        "প",
        "ি"
      ],
      [
        "ু",
        "ল"
      ],
      [
        "এ",
        "খন"
      ],
      [
        "বল",
        "েন"
      ],
      [
        "ধ",
        "ান"
      ],
      [
        "য",
        "ায়"
      ],
      [
        "আম",
        "রা"
      ],
      [
        "দে",
        "খ"
      ],
      [
        "শ",
        "্"
      ],
      [
        "খ",
        "ানে"
      ],
      [
        "ন্ত",
        "ু"
      ],
      [
        "অ",
        "ব"
      ],
      [
        "ট",
        "্র"
      ],
      [
        "ক",
        "ম"
      ],
      [
        "নি",
        "র্"
      ],
      [
        "শে",
        "ষ"
      ],
      [
        "অনে",
        "ক"
      ],
      [
        "তু",
        "মি"
      ],
      [
        "ল",
        "েন"
      ],
      [
        "ন",
        "য়"
      ],
      [
        "লা",
        "ম"
      ],
      [
        "কি",
        "ন্তু"
      ],
      [
        "চ",
        "ার"
      ],
      [
        "ম",
        "নে"
      ],
      [
        "ভা",
        "লো"
      ],
      [
        "স",
        "ঙ্"
      ],
      [
        "প",
        "ুর"
      ],
      [
        "কোন",
        "ো"
      ],
      [
        "ো",
        "র"
      ],
      [
        "ড়",
        "ি"
      ],
      [
        "বা",
        "ং"
      ],
      [
        "থা",
        "ক"
      ],
      [
        "ষ্",
        "ঠ"
      ],
      [
        "ব",
        "ং"
      ],
      [
        "র",
        "ি"
      ],
      [
        "ভা",
        "বে"
      ],
      [
        "নে",
        "ই"
      ],
      [
        "উ",
        "প"
      ],
      [
        "এ",
        "বং"
      ],
      [
        "ন্",
        "দ"
      ],
      [
        "ব",
        "ু"
      ],
      [
        "স",
        "হ"
      ],
      [
        "এক",
        "টি"
      ],
      [
        "শি",
        "ক্ষ"
      ],
      [
        "ন্",
        "ধ"
      ],
      [
        "বাং",
        "লা"
      ],
      [
        "ও",
        "য়ার"
      ],
      [
        "সর",
        "কার"
      ],
      [
        "্",
        "ড"
      ],
      [
        "সঙ্",
        "গে"
      ],
      [
        "ম",
        "ো"
      ],
      [
        "র",
        "ো"
      ],
      [
        "ম",
        "ধ্য"
      ],
      [
        "হ",
        "ার"
      ],
      [
        "তা",
        "দের"
      ],
      [
        "ক্ত",
        "ি"
      ],
      [
        "স",
        "্য"
      ],
      [
        "ুর",
        "ু"
      ],
      [
        "গু",
        "লো"
      ],
      [
        "তা",
        "ঁ"
      ],
      [
        "ু",
        "ষ"
      ],
      [
        "য়",
        "ের"
      ],
      [
        "এক",
        "টা"
      ],
      [
        "ছিল",
        "েন"
      ],
      [
        "চ",
        "িত"
      ],
      [
        "জ",
        "্"
      ],
      [
        "জ",
        "ার"
      ],
      [
        "ঞ",
        "্"
      ],
      [
        "ট",
        "ার"
      ],
      [
        "ম",
        "ন্ত্র"
      ],
      [
        "প",
        "ু"
      ],
      [
        "য",
        "ু"
      ],
      [
        "ব",
        "্যা"
      ],
      [
        "সম",
        "্"
      ],
      [
        "ক",
        "ের"
      ],
      [
        "বা",
        "ই"
      ],
      [
        "মধ্য",
        "ে"
      ],
      [
        "দেশ",
        "ের"
      ],
      [
        "অন",
        "ু"
      ],
      [
        "বা",
        "স"
      ],
      [
        "কর",
        "ি"
      ],
      [
        "পার",
        "ে"
      ],
      [
        "ত",
        "্য"
      ],
      [
        "ত",
        "্ত"
      ],
      [
        "ঠ",
        "িক"
      ],
      [
        "তার",
        "া"
      ],
      [
        "ব",
        "ছ"
      ],
      [
        "মান",
        "ুষ"
      ],
      [
        "ল",
        "ার"
      ],
      [
        "হ",
        "লে"
      ],
      [
        "ব",
        "ন্ধ"
      ],
      [
        "ান",
        "্ত"
      ],
      [
        "তো",
        "মার"
      ],
      [
        "দ",
        "্র"
      ],
      [
        "ল",
        "্প"
      ],
      [
        "্য",
        "ান"
      ],
      [
        "কর",
        "্ম"
      ],
      [
        "ফ",
        "ি"
      ],
      [
        "ক",
        "েন"
      ],
      [
        "ব",
        "ড়"
      ],
      [
        "ক",
        "ু"
      ],
      [
        "চ",
        "ল"
      ],
      [
        "গ",
        "ত"
      ],
      [
        "ঢ",
        "া"
      ],
      [
        "বি",
        "ষ"
      ],
      [
        "ব",
        "েন"
      ],
      [
        "শ",
        "্ব"
      ],
      [
        "ো",
        "ট"
      ],
      [
        "বে",
        "শ"
      ],
      [
        "ব্য",
        "ব"
      ],
      [
        "ম",
        "ী"
      ],
      [
        "বছ",
        "র"
      ],
      [
        "হ",
        "চ্ছে"
      ],
      [
        "ট",
        "ু"
      ],
      [
        "ল",
        "ী"
      ],
      [
        "ধ",
        "ার"
      ],
      [
        "গ",
        "ো"
      ],
      [
        "ভ",
        "ার"
      ],
      [
        "জ",
        "ী"
      ],
      [
        "ল",
        "্"
      ],
      [
        "দে",
        "খা"
      ],
      [
        "ন",
        "ী"
      ],
      [
        "স",
        "ো"
      ],
      [
        "সা",
        "থে"
      ],
      [
        "শ",
        "ুরু"
      ],
      [
        "এ",
        "সে"
      ],
      [
        "র্",
        "থ"
      ],
      [
        "প্র",
        "ধান"
      ],
      [
        "স",
        "ার"
      ],
      [
        "খু",
        "ব"
      ],
      [
        "না",
        "ম"
      ],
      [
        "ন্",
        "ন"
      ],
      [
        "আ",
        "গে"
      ],
      [
        "প",
        "্ত"
      ],
      [
        "বি",
        "শ্ব"
      ],
      [
        "ান",
        "ি"
      ],
      [
        "্যা",
        "ল"
      ],
      [
        "ফ",
        "ে"
      ],
      [
        "কা",
        "ল"
      ],
      [
        "দ",
        "ল"
      ],
      [
        "বি",
        "দ"
      ],
      [
        "প্র",
        "থ"
      ],
      [
        "স",
        "ের"
      ],
      [
        "ঙ্",
        "গ"
      ],
      [
        "আ",
        "ই"
      ],
      [
        "স্",
        "থা"
      ],
      [
        "মন্ত্র",
        "ী"
      ],
      [
        "ঢা",
        "কা"
      ],
      [
        "জ",
        "ের"
      ],
      [
        "অ",
        "ভি"
      ],
      [
        "র",
        "ু"
      ],
      [
        "দি",
        "কে"
      ],
      [
        "এ",
        "খানে"
      ],
      [
        "ম",
        "ের"
      ],
      [
        "ক্ষ",
        "ে"
      ],
      [
        "টি",
        "র"
      ],
      [
        "গ",
        "িয়ে"
      ],
      [
        "ধ",
        "ি"
      ],
      [
        "স্",
        "বা"
      ],
      [
        "ণ",
        "া"
      ],
      [
        "জী",
        "ব"
      ],
      [
        "ট",
        "ো"
      ],
      [
        "ান",
        "া"
      ],
      [
        "দু",
        "ই"
      ],
      [
        "কা",
        "ছে"
      ],
      [
        "গে",
        "ছে"
      ],
      [
        "ঘ",
        "ট"
      ],
      [
        "ত",
        "ের"
      ],
      [
        "ান",
        "ের"
      ],
      [
        "কর",
        "ার"
      ],
      [
        "ত",
        "ীয়"
      ],
      [
        "শ",
        "ী"
      ],
      [
        "চা",
        "ই"
      ],
      [
        "ষ্",
        "ট"
      ],
      [
        "আমা",
        "কে"
      ],
      [
        "গ্র",
        "া"
      ],
      [
        "তা",
        "ই"
      ],
      [
        "ধ",
        "ু"
      ],
      [
        "ম",
        "তো"
      ],
      [
        "জ্",
        "ঞ"
      ],
      [
        "স",
        "দ"
      ],
      [
        "হ",
        "ত"
      ],
      [
        "প্র",
        "া"
      ],
      [
        "কার",
        "ণ"
      ],
      [
        "প্রথ",
        "ম"
      ],
      [
        "রা",
        "জ"
      ],
      [
        "সে",
        "ই"
      ],
      [
        "শ",
        "্র"
      ],
      [
        "পর",
        "ে"
      ],
      [
        "ব",
        "ৃ"
      ],
      [
        "য়ে",
        "ছে"
      ],
      [
        "বা",
        "বা"
      ],
      [
        "অন",
        "্য"
      ],
      [
        "আ",
        "জ"
      ],
      [
        "উ",
        "দ্"
      ],
      [
        "ঠ",
        "ে"
      ],
      [
        "প",
        "তি"
      ],
      [
        "ড",
        "া"
      ],
      [
        "প",
        "ূ"
      ],
      [
        "প",
        "ড়"
      ],
      [
        "বা",
        "দ"
      ],
      [
        "তা",
        "কে"
      ],
      [
        "স",
        "মা"
      ],
      [
        "বে",
        "শি"
      ],
      [
        "দে",
        "শে"
      ],
      [
        "স্",
        "ব"
      ],
      [
        "নির্",
        "বা"
      ],
      [
        "প",
        "্"
      ],
      [
        "তি",
        "ন"
      ],
      [
        "ভা",
        "ব"
      ],
      [
        "গ",
        "ের"
      ],
      [
        "ধ",
        "ী"
      ],
      [
        "ান",
        "ো"
      ],
      [
        "র",
        "ের"
      ],
      [
        "বা",
        "ড়ি"
      ],
      [
        "ভা",
        "ই"
      ],
      [
        "ত",
        "বে"
      ],
      [
        "হ",
        "ে"
      ],
      [
        "হ",
        "লো"
      ],
      [
        "য়",
        "েন্"
      ],
      [
        "ক",
        "ৃ"
      ],
      [
        "এ",
        "ন"
      ],
      [
        "পর",
        "্য"
      ],
      [
        "চ",
        "লে"
      ],
      [
        "স",
        "েন"
      ],
      [
        "য়",
        "ো"
      ],
      [
        "রা",
        "খ"
      ],
      [
        "তু",
        "ন"
      ],
      [
        "হ",
        "ো"
      ],
      [
        "না",
        "য়"
      ],
      [
        "যা",
        "বে"
      ],
      [
        "গ্র",
        "হ"
      ],
      [
        "দে",
        "ওয়া"
      ],
      [
        "বর",
        "্ত"
      ],
      [
        "স্য",
        "ার"
      ],
      [
        "তাঁ",
        "র"
      ],
      [
        "চা",
        "ল"
      ],
      [
        "আপ",
        "নার"
      ],
      [
        "ং",
        "শ"
      ],
      [
        "ন",
        "তুন"
      ],
      [
        "ফ",
        "া"
      ],
      [
        "ব",
        "ই"
      ],
      [
        "ছ",
        "োট"
      ],
      [
        "ভ",
        "ে"
      ],
      [
        "ধ",
        "র"
      ],
      [
        "প",
        "ড়ে"
      ],
      [
        "এ",
        "মন"
      ],
      [
        "গ",
        "র"
      ],
      [
        "শ",
        "ো"
      ],
      [
        "ার",
        "া"
      ],
      [
        "সম",
        "্প"
      ],
      [
        "ক্র",
        "ি"
      ],
      [
        "ব",
        "ের"
      ],
      [
        "ত",
        "খন"
      ],
      [
        "ব",
        "্"
      ],
      [
        "কা",
        "শ"
      ],
      [
        "হা",
        "স"
      ],
      [
        "আর",
        "ও"
      ],
      [
        "গ",
        "ণ"
      ],
      [
        "দ",
        "ী"
      ],
      [
        "নি",
        "উ"
      ],
      [
        "ম",
        "্ব"
      ],
      [
        "র",
        "য়েছে"
      ],
      [
        "স",
        "বাই"
      ],
      [
        "করে",
        "ছে"
      ],
      [
        "ব",
        "্র"
      ],
      [
        "ঠ",
        "া"
      ],
      [
        "শ",
        "ন"
      ],
      [
        "তি",
        "ক"
      ],
      [
        "আপ",
        "নি"
      ],
      [
        "দি",
        "তে"
      ],
      [
        "ধ",
        "া"
      ],
      [
        "দে",
        "খে"
      ],
      [
        "র্",
        "ণ"
      ],
      [
        "ভি",
        "ন্ন"
      ],
      [
        "লা",
        "গ"
      ],
      [
        "লা",
        "য়"
      ],
      [
        "টা",
        "কা"
      ],
      [
        "ূ",
        "ল"
      ],
      [
        "নি",
        "য়"
      ],
      [
        "থা",
        "কে"
      ],
      [
        "হ",
        "ন"
      ],
      [
        "লি",
        "শ"
      ],
      [
        "চ",
        "ু"
      ],
      [
        "তি",
        "র"
      ],
      [
        "ক্ষ",
        "া"
      ],
      [
        "লো",
        "ক"
      ],
      [
        "ও",
        "ই"
      ],
      [
        "জান",
        "ান"
      ],
      [
        "থ",
        "ায়"
      ],
      [
        "এক",
        "জন"
      ],
      [
        "্",
        "থ"
      ],
      [
        "রা",
        "ষ্"
      ],
      [
        "স্",
        "ট"
      ],
      [
        "রাষ্",
        "ট্র"
      ],
      [
        "আ",
        "বার"
      ],
      [
        "ত",
        "্ব"
      ],
      [
        "স",
        "ূ"
      ],
      [
        "বিদ",
        "্যাল"
      ],
      [
        "ই",
        "উ"
      ],
      [
        "কে",
        "উ"
      ],
      [
        "ফ",
        "োর"
      ],
      [
        "কর",
        "ো"
      ],
      [
        "শিক্ষ",
        "া"
      ],
      [
        "দ",
        "ায়"
      ],
      [
        "হ",
        "ু"
      ],
      [
        "হ",
        "তে"
      ],
      [
        "ছা",
        "ড়া"
      ],
      [
        "দ",
        "ার"
      ],
      [
        "র",
        "ণ"
      ],
      [
        "পার",
        "ি"
      ],
      [
        "ই",
        "স"
      ],
      [
        "ু",
        "ন"
      ],
      [
        "কর",
        "ছে"
      ],
      [
        "নির্বা",
        "চ"
      ],
      [
        "ভ",
        "ব"
      ],
      [
        "চে",
        "য়ে"
      ],
      [
        "পু",
        "লিশ"
      ],
      [
        "আ",
        "হ"
      ],
      [
        "এ",
        "স"
      ],
      [
        "য",
        "ান"
      ],
      [
        "কর",
        "বে"
      ],
      [
        "সে",
        "টা"
      ],
      [
        "ব",
        "লা"
      ],
      [
        "শু",
        "ধু"
      ],
      [
        "স",
        "ী"
      ],
      [
        "করে",
        "ছেন"
      ],
      [
        "মু",
        "খ"
      ],
      [
        "আ",
        "রে"
      ],
      [
        "দ",
        "র"
      ],
      [
        "আ",
        "ন"
      ],
      [
        "ী",
        "দের"
      ],
      [
        "বি",
        "ডি"
      ],
      [
        "ষ্",
        "টি"
      ],
      [
        "য়েন্",
        "টি"
      ],
      [
        "ম",
        "ূল"
      ],
      [
        "হ",
        "ই"
      ],
      [
        "তো",
        "মা"
      ],
      [
        "হা",
        "সি"
      ],
      [
        "বি",
        "ভিন্ন"
      ],
      [
        "ড",
        "ট"
      ],
      [
        "উ",
        "ত্ত"
      ],
      [
        "ক",
        "খন"
      ],
      [
        "এক",
        "টু"
      ],
      [
        "হা",
        "জার"
      ],
      [
        "যে",
        "তে"
      ],
      [
        "ধার",
        "ণ"
      ],
      [
        "নিউ",
        "জ"
      ],
      [
        "অ",
        "ধি"
      ],
      [
        "ষ্",
        "টা"
      ],
      [
        "ডট",
        "কম"
      ],
      [
        "আ",
        "লো"
      ],
      [
        "উ",
        "ন্"
      ],
      [
        "ট",
        "ের"
      ],
      [
        "বি",
        "এন"
      ],
      [
        "শে",
        "খ"
      ],
      [
        "দু",
        "র্"
      ],
      [
        "প্রতি",
        "ষ্ঠ"
      ],
      [
        "ছা",
        "ত্র"
      ],
      [
        "বিডি",
        "নিউজ"
      ],
      [
        "দ",
        "েন"
      ],
      [
        "য়েন্টি",
        "ফোর"
      ],
      [
        "বিষ",
        "য়"
      ],
      [
        "ন্দ",
        "র"
      ],
      [
        "না",
        "ই"
      ],
      [
        "ত",
        "ৈ"
      ],
      [
        "দ",
        "্য"
      ],
      [
        "প",
        "ো"
      ],
      [
        "য",
        "দি"
      ],
      [
        "ল",
        "ন"
      ],
      [
        "য়ে",
        "ক"
      ],
      [
        "র",
        "হ"
      ],
      [
        "নি",
        "জে"
      ],
      [
        "স্থ",
        "ান"
      ],
      [
        "পর্য",
        "ন্ত"
      ],
      [
        "য়ো",
        "জন"
      ],
      [
        "হ",
        "ী"
      ],
      [
        "কর",
        "ছি"
      ],
      [
        "মি",
        "ক"
      ],
      [
        "জান",
        "া"
      ],
      [
        "বু",
        "ঝ"
      ],
      [
        "অ",
        "ংশ"
      ],
      [
        "এ",
        "ম"
      ],
      [
        "দ",
        "লের"
      ],
      [
        "ফ",
        "ু"
      ],
      [
        "ভ",
        "ূ"
      ],
      [
        "বা",
        "ড়"
      ],
      [
        "হি",
        "সে"
      ],
      [
        "এ",
        "সব"
      ],
      [
        "ক",
        "য়েক"
      ],
      [
        "কর",
        "্ত"
      ],
      [
        "পা",
        "ঠ"
      ],
      [
        "দা",
        "ও"
      ],
      [
        "অ",
        "র্থ"
      ],
      [
        "ফ",
        "ো"
      ],
      [
        "প্র",
        "কাশ"
      ],
      [
        "জান",
        "িয়ে"
      ],
      [
        "ড",
        "ে"
      ],
      [
        "শ",
        "্য"
      ],
      [
        "দেখ",
        "তে"
      ],
      [
        "টো",
        "য়েন্টিফোর"
      ],
      [
        "হিসে",
        "বে"
      ],
      [
        "কা",
        "য়"
      ],
      [
        "কা",
        "লে"
      ],
      [
        "প্রধান",
        "মন্ত্রী"
      ],
      [
        "খ",
        "ান"
      ],
      [
        "ছ",
        "বি"
      ],
      [
        "জ",
        "ায়"
      ],
      [
        "ধ",
        "রে"
      ],
      [
        "ফ",
        "ল"
      ],
      [
        "ম",
        "্যা"
      ],
      [
        "বাংলা",
        "দেশ"
      ],
      [
        "ও",
        "কে"
      ],
      [
        "খ",
        "ো"
      ],
      [
        "বি",
        "শেষ"
      ],
      [
        "গে",
        "ল"
      ],
      [
        "মু",
        "ক্তি"
      ],
      [
        "ক",
        "ল"
      ],
      [
        "ম",
        "্"
      ],
      [
        "ক",
        "ত"
      ],
      [
        "ল",
        "ু"
      ],
      [
        "আ",
        "ওয়া"
      ],
      [
        "ত",
        "ৃ"
      ],
      [
        "ার",
        "্থ"
      ],
      [
        "মা",
        "ত্র"
      ],
      [
        "বল",
        "তে"
      ],
      [
        "মান",
        "ে"
      ],
      [
        "বাংলা",
        "দেশের"
      ],
      [
        "অনু",
        "ষ্ঠ"
      ],
      [
        "উ",
        "ৎ"
      ],
      [
        "দ",
        "ূ"
      ],
      [
        "ম",
        "তা"
      ],
      [
        "মা",
        "ধ্য"
      ],
      [
        "রা",
        "জন"
      ],
      [
        "যা",
        "ও"
      ],
      [
        "সু",
        "ন্দর"
      ],
      [
        "ক",
        "মি"
      ],
      [
        "জ",
        "ু"
      ],
      [
        "ম",
        "ৃ"
      ],
      [
        "ছে",
        "লে"
      ],
      [
        "সা",
        "ধারণ"
      ],
      [
        "ভা",
        "ষ"
      ],
      [
        "গ্রহ",
        "ণ"
      ],
      [
        "ও",
        "র"
      ],
      [
        "ম",
        "ত"
      ],
      [
        "দি",
        "ক"
      ],
      [
        "পা",
        "দ"
      ],
      [
        "েন্",
        "দ্র"
      ],
      [
        "বন্ধ",
        "ু"
      ],
      [
        "ইস",
        "লাম"
      ],
      [
        "সদ",
        "স্য"
      ],
      [
        "ব",
        "ী"
      ],
      [
        "নি",
        "জের"
      ],
      [
        "লে",
        "খ"
      ],
      [
        "যু",
        "ক্ত"
      ],
      [
        "ধর",
        "নের"
      ],
      [
        "হ",
        "্যা"
      ],
      [
        "প্র",
        "ি"
      ],
      [
        "প্র",
        "ে"
      ],
      [
        "ড়",
        "িয়ে"
      ],
      [
        "গ",
        "ঠ"
      ],
      [
        "দা",
        "ঁ"
      ],
      [
        "রহ",
        "মান"
      ],
      [
        "দ",
        "র্"
      ],
      [
        "পার",
        "েন"
      ],
      [
        "মে",
        "য়ে"
      ],
      [
        "ঘট",
        "না"
      ],
      [
        "ম্ব",
        "র"
      ],
      [
        "অ",
        "র্"
      ],
      [
        "প্র",
        "শ্"
      ],
      [
        "মানুষ",
        "ের"
      ],
      [
        "ঁ",
        "চ"
      ],
      [
        "ধ",
        "র্"
      ],
      [
        "কর",
        "লে"
      ],
      [
        "দা",
        "বি"
      ],
      [
        "জীব",
        "ন"
      ],
      [
        "দ",
        "ো"
      ],
      [
        "ভ",
        "র"
      ],
      [
        "ভ",
        "য়"
      ],
      [
        "্",
        "ট"
      ],
      [
        "পর",
        "ী"
      ],
      [
        "হয়",
        "নি"
      ],
      [
        "চ্",
        "ছা"
      ],
      [
        "প",
        "ের"
      ],
      [
        "ু",
        "ত"
      ],
      [
        "ান",
        "্"
      ],
      [
        "ক্",
        "স"
      ],
      [
        "ব্যব",
        "স্থা"
      ],
      [
        "সম্প",
        "র্"
      ],
      [
        "আওয়া",
        "মী"
      ],
      [
        "আ",
        "ব"
      ],
      [
        "ত",
        "্যা"
      ],
      [
        "ব",
        "ৈ"
      ],
      [
        "বে",
        "দ"
      ],
      [
        "কো",
        "থায়"
      ],
      [
        "চ্",
        "ছি"
      ],
      [
        "ণ",
        "্ড"
      ],
      [
        "প",
        "ৌ"
      ],
      [
        "য",
        "েন"
      ],
      [
        "বিষ",
        "য়ে"
      ],
      [
        "ঘ",
        "া"
      ],
      [
        "ঠ",
        "ি"
      ],
      [
        "স",
        "ভা"
      ],
      [
        "মা",
        "ণ"
      ],
      [
        "সরকার",
        "ি"
      ],
      [
        "সরকার",
        "ের"
      ],
      [
        "বিশ্ব",
        "বিদ্যাল"
      ],
      [
        "কারণ",
        "ে"
      ],
      [
        "তৈ",
        "রি"
      ],
      [
        "এ",
        "তে"
      ],
      [
        "চ",
        "না"
      ],
      [
        "প",
        "দ"
      ],
      [
        "নে",
        "তা"
      ],
      [
        "খে",
        "লা"
      ],
      [
        "আপ",
        "না"
      ],
      [
        "ফি",
        "রে"
      ],
      [
        "উ",
        "চিত"
      ],
      [
        "ব",
        "স"
      ],
      [
        "ম",
        "র"
      ],
      [
        "প্র",
        "ায়"
      ],
      [
        "সে",
        "খানে"
      ],
      [
        "থাক",
        "বে"
      ],
      [
        "প",
        "রা"
      ],
      [
        "স",
        "ত্য"
      ],
      [
        "দে",
        "য়"
      ],
      [
        "করে",
        "ছি"
      ],
      [
        "মার",
        "া"
      ],
      [
        "বল",
        "ি"
      ],
      [
        "কখন",
        "ো"
      ],
      [
        "এ",
        "লা"
      ],
      [
        "তা",
        "হলে"
      ],
      [
        "লা",
        "ই"
      ],
      [
        "র্",
        "ব"
      ],
      [
        "সা",
        "লে"
      ],
      [
        "গা",
        "মী"
      ],
      [
        "পে",
        "য়ে"
      ],
      [
        "ঞ্",
        "চ"
      ],
      [
        "যু",
        "দ্ধ"
      ],
      [
        "এ",
        "বার"
      ],
      [
        "ত",
        "্"
      ],
      [
        "থ",
        "্য"
      ],
      [
        "ৈ",
        "তিক"
      ],
      [
        "নি",
        "শ্"
      ],
      [
        "বি",
        "র"
      ],
      [
        "চে",
        "ষ্টা"
      ],
      [
        "এ",
        "কা"
      ],
      [
        "ব",
        "ক্ত"
      ],
      [
        "ি",
        "তে"
      ],
      [
        "হা",
        "ম"
      ],
      [
        "জা",
        "তীয়"
      ],
      [
        "ত্র",
        "ে"
      ],
      [
        "্যান",
        "্ড"
      ],
      [
        "তোমা",
        "কে"
      ],
      [
        "ও",
        "পর"
      ],
      [
        "ঘ",
        "ো"
      ],
      [
        "ন",
        "ানা"
      ],
      [
        "ম",
        "হ"
      ],
      [
        "হা",
        "তে"
      ],
      [
        "পূ",
        "র্ণ"
      ],
      [
        "ক",
        "েন্দ্র"
      ],
      [
        "জ",
        "য়"
      ],
      [
        "মা",
        "ম"
      ],
      [
        "র্",
        "ষ"
      ],
      [
        "পা",
        "তা"
      ],
      [
        "জে",
        "লা"
      ],
      [
        "বো",
        "ধ"
      ],
      [
        "চিত",
        "্র"
      ],
      [
        "সা",
        "ং"
      ],
      [
        "রে",
        "খে"
      ],
      [
        "খা",
        "লে"
      ],
      [
        "খ",
        "্যা"
      ],
      [
        "গ",
        "ল্প"
      ],
      [
        "ঘ",
        "ু"
      ],
      [
        "চ",
        "ো"
      ],
      [
        "ন",
        "্য"
      ],
      [
        "শ",
        "হ"
      ],
      [
        "হা",
        "ত"
      ],
      [
        "শ্",
        "বাস"
      ],
      [
        "মাধ্য",
        "মে"
      ],
      [
        "এ",
        "টি"
      ],
      [
        "গ",
        "ুরু"
      ],
      [
        "ন",
        "ো"
      ],
      [
        "কর",
        "ব"
      ],
      [
        "বি",
        "চার"
      ],
      [
        "যা",
        "ত্র"
      ],
      [
        "ক",
        "লে"
      ],
      [
        "ত",
        "থ্য"
      ],
      [
        "থ",
        "ি"
      ],
      [
        "বি",
        "ক"
      ],
      [
        "প্র",
        "য়োজন"
      ],
      [
        "টি",
        "তে"
      ],
      [
        "প",
        "ক্ষ"
      ],
      [
        "েন",
        "ে"
      ],
      [
        "বি",
        "রো"
      ],
      [
        "ভা",
        "গ"
      ],
      [
        "শি",
        "শু"
      ],
      [
        "জি",
        "য়া"
      ],
      [
        "স্থ",
        "ায়"
      ],
      [
        "ছ",
        "ো"
      ],
      [
        "এক",
        "ই"
      ],
      [
        "মার",
        "্"
      ],
      [
        "আর",
        "ো"
      ],
      [
        "েন্",
        "ট"
      ],
      [
        "ব",
        "য়"
      ],
      [
        "ী",
        "রা"
      ],
      [
        "কে",
        "ট"
      ],
      [
        "আই",
        "ন"
      ],
      [
        "মৃ",
        "ত্য"
      ],
      [
        "প",
        "ানি"
      ],
      [
        "ব",
        "লো"
      ],
      [
        "হ",
        "ওয়ার"
      ],
      [
        "নি",
        "তে"
      ],
      [
        "পা",
        "ওয়া"
      ],
      [
        "িত",
        "্ব"
      ],
      [
        "তু",
        "লে"
      ],
      [
        "চি",
        "ন্ত"
      ],
      [
        "উত্ত",
        "র"
      ],
      [
        "ক",
        "্যা"
      ],
      [
        "য",
        "খন"
      ],
      [
        "ু",
        "য়ার"
      ],
      [
        "সা",
        "মনে"
      ],
      [
        "হো",
        "সেন"
      ],
      [
        "অ",
        "্যা"
      ],
      [
        "এ",
        "ত"
      ],
      [
        "স",
        "ন্ত"
      ],
      [
        "নি",
        "ক"
      ],
      [
        "বা",
        "য়"
      ],
      [
        "অব",
        "শ্য"
      ],
      [
        "আ",
        "য়"
      ],
      [
        "আ",
        "সা"
      ],
      [
        "উ",
        "ঠ"
      ],
      [
        "প",
        "ান"
      ],
      [
        "কর",
        "বেন"
      ],
      [
        "নি",
        "র"
      ],
      [
        "ল্",
        "লা"
      ],
      [
        "খালে",
        "দা"
      ],
      [
        "জ",
        "ল"
      ],
      [
        "ভ",
        "িত"
      ],
      [
        "স",
        "্যা"
      ],
      [
        "্য",
        "ে"
      ],
      [
        "না",
        "মে"
      ],
      [
        "বা",
        "ঁ"
      ],
      [
        "বা",
        "জার"
      ],
      [
        "সা",
        "হা"
      ],
      [
        "কিছু",
        "ই"
      ],
      [
        "সম্",
        "ভব"
      ],
      [
        "আ",
        "গামী"
      ],
      [
        "উ",
        "ঠে"
      ],
      [
        "প",
        "থ"
      ],
      [
        "ভ",
        "ু"
      ],
      [
        "কে",
        "মন"
      ],
      [
        "সা",
        "ই"
      ],
      [
        "ক্ষ",
        "ণ"
      ],
      [
        "পরি",
        "চাল"
      ],
      [
        "আস",
        "লে"
      ],
      [
        "পৌ",
        "ঁ"
      ],
      [
        "র",
        "কম"
      ],
      [
        "ান",
        "োর"
      ],
      [
        "তা",
        "য়"
      ],
      [
        "প্র",
        "স্ত"
      ],
      [
        "রা",
        "তে"
      ],
      [
        "শি",
        "ল্প"
      ],
      [
        "জান",
        "ি"
      ],
      [
        "ব্যব",
        "হার"
      ],
      [
        "বাড়ি",
        "তে"
      ],
      [
        "হ্যা",
        "ঁ"
      ],
      [
        "খ",
        "ি"
      ],
      [
        "ত",
        "ী"
      ],
      [
        "ম",
        "য়"
      ],
      [
        "না",
        "কি"
      ],
      [
        "রা",
        "ত"
      ],
      [
        "বার",
        "ের"
      ],
      [
        "যা",
        "চ্ছে"
      ],
      [
        "গু",
        "লি"
      ],
      [
        "ঘ",
        "রে"
      ],
      [
        "ষ",
        "ণা"
      ],
      [
        "স্",
        "ক"
      ],
      [
        "বিএন",
        "পি"
      ],
      [
        "প্রশ্",
        "ন"
      ],
      [
        "দ",
        "শ"
      ],
      [
        "ধ",
        "ে"
      ],
      [
        "দি",
        "নের"
      ],
      [
        "বল",
        "লেন"
      ],
      [
        "শেষ",
        "ে"
      ],
      [
        "ধী",
        "ন"
      ],
      [
        "বক্ত",
        "ব্য"
      ],
      [
        "ত",
        "ম"
      ],
      [
        "প",
        "ির"
      ],
      [
        "ম",
        "্প"
      ],
      [
        "স",
        "ন্"
      ],
      [
        "হ",
        "ের"
      ],
      [
        "পা",
        "ই"
      ],
      [
        "লি",
        "য়ে"
      ],
      [
        "যা",
        "ই"
      ],
      [
        "জান",
        "তে"
      ],
      [
        "চি",
        "কি"
      ],
      [
        "এখন",
        "ো"
      ],
      [
        "আ",
        "সে"
      ],
      [
        "ত",
        "েন"
      ],
      [
        "য",
        "্য"
      ],
      [
        "ল",
        "তে"
      ],
      [
        "সম",
        "স্যা"
      ],
      [
        "স্ত",
        "্র"
      ],
      [
        "শিক্ষ",
        "ার্থ"
      ],
      [
        "ক্ষে",
        "ত্রে"
      ],
      [
        "গ্রা",
        "ম"
      ]
    ]
  }
}