{
  "version": "1.0",
  "truncation": null,
  "padding": null,
  "added_tokens": [],
  "normalizer": null,
  "pre_tokenizer": {
    "type": "Metaspace",
    "replacement": "▁",
    "prepend_scheme": "always",
    "split": true
  },
  "post_processor": null,
  "decoder": {
    "type": "Metaspace",
    "replacement": "▁",
    "prepend_scheme": "always",
    "split": true
  },
  "model": {
    "type": "BPE",
    "dropout": null,
    "unk_token": null,
    "continuing_subword_prefix": null,
    "end_of_word_suffix": null,
    "fuse_unk": false,
    "byte_fallback": false,
    "ignore_merges": false,
    "vocab": {
      "\n": 0,
      "!": 1,
      "\"": 2,
      "%": 3,
      "'": 4,
      "(": 5,
      ")": 6,
      ",": 7,
      "-": 8,
      ".": 9,
      "/": 10,
      "1": 11,
      ":": 12,
      ";": 13,
      "?": 14,
      "[": 15,
      "]": 16,
      "a": 17,
      "c": 18,
      "d": 19,
      "e": 20,
      "f": 21,
      "g": 22,
      "h": 23,
      "i": 24,
      "j": 25,
      "k": 26,
      "l": 27,
      "m": 28,
      "n": 29,
      "o": 30,
      "p": 31,
      "r": 32,
      "s": 33,
      "t": 34,
      "u": 35,
      "v": 36,
      "w": 37,
      "x": 38,
      "y": 39,
      "।": 40,
      "ঁ": 41,
      "ং": 42,
      "ঃ": 43,
      "অ": 44,
      "আ": 45,
      "ই": 46,
      "ঈ": 47,
      "উ": 48,
      "ঊ": 49,
      "ঋ": 50,
      "এ": 51,
      "ঐ": 52,
      "ও": 53,
      "ঔ": 54,
      "ক": 55,
      "খ": 56,
      "গ": 57,
      "ঘ": 58,
      "ঙ": 59,
      "চ": 60,
      "ছ": 61,
      "জ": 62,
      "ঝ": 63,
      "ঞ": 64,
      "ট": 65,
      "ঠ": 66,
      "ড": 67,
      "ঢ": 68,
      "ণ": 69,
      "ত": 70,
      "থ": 71,
      "দ": 72,
      "ধ": 73,
      "ন": 74,
      "প": 75,
      "ফ": 76,
      "ব": 77,
      "ভ": 78,
      "ম": 79,
      "য": 80,
      "র": 81,
      "ল": 82,
      "শ": 83,
      "ষ": 84,
      "স": 85,
      "হ": 86,
      "়": 87,
      "া": 88,
      "ি": 89,
      "ী": 90,
      "ু": 91,
      "ূ": 92,
      "ৃ": 93,
      "ে": 94,
      "ৈ": 95,
      "ো": 96,
      "ৌ": 97,
      "্": 98,
      "ৎ": 99,
      "০": 100,
      "১": 101,
      "২": 102,
      "৩": 103,
      "৪": 104,
      "৫": 105,
      "৬": 106,
      "৭": 107,
      "৮": 108,
      "৯": 109,
      "√": 110,
      "▁": 111,
      "য়": 112,
      "▁ক": 113,
      "ার": 114,
      "▁ব": 115,
      "।\n": 116,
      "▁স": 117,
      "▁আ": 118,
      "▁প": 119,
      "ের": 120,
      "▁ন": 121,
      "▁এ": 122,
      "্র": 123,
      "্য": 124,
      "▁ত": 125,
      "ান": 126,
      "▁হ": 127,
      "▁দ": 128,
      "▁ম": 129,
      "▁কর": 130,
      "েন": 131,
      "য়ে": 132,
      "্ত": 133,
      "কে": 134,
      "▁অ": 135,
      "তে": 136,
      "▁জ": 137,
      "িন": 138,
      "ছে": 139,
      "▁য": 140,
      "লে": 141,
      "বে": 142,
      "▁শ": 143,
      "ায়": 144,
      "▁আম": 145,
      "▁না": 146,
      "▁র": 147,
      "ড়": 148,
      "লা": 149,
      "▁গ": 150,
      "▁চ": 151,
      "▁প্র": 152,
      "িক": 153,
      "াল": 154,
      "টি": 155,
      "▁বি": 156,
      "র্": 157,
      "▁ও": 158,
      "টা": 159,
      "▁ভ": 160,
      "▁নি": 161,
      "▁বা": 162,
      "দের": 163,
      "ছি": 164,
      "বা": 165,
      "▁দে": 166,
      "▁এক": 167,
      "▁উ": 168,
      "াম": 169,
      "থা": 170,
      "▁খ": 171,
      "িত": 172,
      "▁করে": 173,
      "▁তা": 174,
      "?\n": 175,
      "তি": 176,
      "রা": 177,
      "নে": 178,
      "▁পর": 179,
      "্ষ": 180,
      "াজ": 181,
      "ুর": 182,
      "্যা": 183,
      "▁সম": 184,
      "ন্": 185,
      "ুল": 186,
      "িয়ে": 187,
      "য়া": 188,
      "্ব": 189,
      "িনি": 190,
      "▁সে": 191,
      "▁বল": 192,
      "াত": 193,
      "্ট": 194,
      "ির": 195,
      "▁ফ": 196,
      "বার": 197,
      "কা": 198,
      "▁সা": 199,
      "থে": 200,
      "▁হয়ে": 201,
      "▁আর": 202,
      "ছে।\n": 203,
      "▁তো": 204,
      "▁হয়": 205,
      "ছিল": 206,
      "▁কি": 207,
      "▁পা": 208,
      "▁যা": 209,
      "কার": 210,
      "▁কো": 211,
      "▁আমি": 212,
      "াস": 213,
      "েশ": 214,
      "ন্য": 215,
      "চ্": 216,
      "ন্ত": 217,
      "▁তার": 218,
      "স্": 219,
      "▁তিনি": 220,
      "▁না।\n": 221,
      "▁পার": 222,
      "▁ছ": 223,
      "না": 224,
      "েন।\n": 225,
      "▁দেখ": 226,
      "▁ই": 227,
      "নি": 228,
      "গে": 229,
      "েল": 230,
      "▁নে": 231,
      "খন": 232,
      "বি": 233,
      "ানে": 234,
      "▁এই": 235,
      "▁ঘ": 236,
      "ক্ত": 237,
      "াই": 238,
      "ক্ষ": 239,
      "ঙ্": 240,
      "▁ধ": 241,
      "য়ার": 242,
      "▁হবে": 243,
      "ষ্": 244,
      "▁জান": 245,
      "▁ল": 246,
      "সে": 247,
      "▁মা": 248,
      "ুম": 249,
      "্প": 250,
      "দ্": 251,
      "▁থে": 252,
      "▁থেকে": 253,
      "ভা": 254,
      "রে": 255,
      "▁আমার": 256,
      "▁থা": 257,
      "▁ড": 258,
      "▁কা": 259,
      "▁আমা": 260,
      "▁যে": 261,
      "নের": 262,
      "▁দু": 263,
      "▁আস": 264,
      "োগ": 265,
      "▁স্": 266,
      "▁ট": 267,
      "ুন": 268,
      "▁করা": 269,
      "▁ছিল": 270,
      "▁দি": 271,
      "তা": 272,
      "▁জন্য": 273,
      "ছে\n": 274,
      "▁কথা": 275,
      "▁পরি": 276,
      "্ম": 277,
      "▁করতে": 278,
      "▁কোন": 279,
      "ছেন": 280,
      "▁নিয়ে": 281,
      "ো।\n": 282,
      "মা": 283,
      "▁কী": 284,
      "ধ্য": 285,
      "ছু": 286,
      "ীর": 287,
      "▁লা": 288,
      "▁কাজ": 289,
      "▁এটা": 290,
      "োর": 291,
      "▁সং": 292,
      "িল": 293,
      "ওয়া": 294,
      "▁বলে": 295,
      "▁উপ": 296,
      "▁আপ": 297,
      "দ্ধ": 298,
      "!\n": 299,
      "জন": 300,
      "▁রা": 301,
      "স্ত": 302,
      "▁দিয়ে": 303,
      "ীয়": 304,
      "ড়ে": 305,
      "▁প্রতি": 306,
      "দেশ": 307,
      "ারা": 308,
      "ড়া": 309,
      "▁আমাদের": 310,
      "▁কে": 311,
      "িন্ত": 312,
      "▁বিশ": 313,
      "▁ব্য": 314,
      "▁সব": 315,
      "ন্ত্র": 316,
      "▁কিছু": 317,
      "ন্দ": 318,
      "▁অনে": 319,
      "▁এর": 320,
      "▁মু": 321,
      "▁অব": 322,
      "িশ": 323,
      "▁মান": 324,
      "লো": 325,
      "ালো": 326,
      "▁থাক": 327,
      "▁সু": 328,
      "▁এখন": 329,
      "রকার": 330,
      "▁শে": 331,
      "মে": 332,
      "▁কার": 333,
      "▁বলেন": 334,
      "▁আমরা": 335,
      "▁সময়": 336,
      "▁দেশ": 337,
      "স্থ": 338,
      "▁খু": 339,
      "খানে": 340,
      "▁তুম": 341,
      "▁অনেক": 342,
      "লাম": 343,
      "▁তুমি": 344,
      "েয়ে": 345,
      "▁দা": 346,
      "মার": 347,
      "দি": 348,
      "্ন": 349,
      "িক্ষ": 350,
      "▁কিন্ত": 351,
      "▁কিন্তু": 352,
      "্ড": 353,
      "▁রাজ": 354,
      "ই।\n": 355,
      "মন": 356,
      "কি": 357,
      "ষ্ট": 358,
      "▁যায়": 359,
      "ড়ি": 360,
      "▁নির্": 361,
      "ষ্ঠ": 362,
      "ধান": 363,
      "▁অন": 364,
      "ুরু": 365,
      "ছি।\n": 366,
      "▁ভালো": 367,
      "▁এব": 368,
      "▁বাং": 369,
      "ঙ্গে": 370,
      "▁এবং": 371,
      "জে": 372,
      "▁একটি": 373,
      "▁কোনো": 374,
      "ন্ধ": 375,
      "র্ত": 376,
      "াপ": 377,
      "িয়া": 378,
      "্চ": 379,
      "▁গে": 380,
      "মান": 381,
      "▁ভা": 382,
      "তো": 383,
      "াত্র": 384,
      "োট": 385,
      "▁ঠ": 386,
      "ভাবে": 387,
      "গুল": 388,
      "▁তাঁ": 389,
      "▁কেন": 390,
      "ওয়ার": 391,
      "▁একটা": 392,
      "রি": 393,
      "▁বে": 394,
      "▁বাংলা": 395,
      "ক্তি": 396,
      "নার": 397,
      "▁সরকার": 398,
      "▁ঢ": 399,
      "▁দিন": 400,
      "▁আছে": 401,
      "▁শিক্ষ": 402,
      "▁সঙ্গে": 403,
      "▁মধ্য": 404,
      "বে।\n": 405,
      "▁বেশ": 406,
      "▁শু": 407,
      "ুষ": 408,
      "সি": 409,
      "▁গ্র": 410,
      "▁তাদের": 411,
      "ৃত": 412,
      "▁করেন": 413,
      "য়ের": 414,
      "যোগ": 415,
      "গ্র": 416,
      "দ্য": 417,
      "ঙ্গ": 418,
      "▁মনে": 419,
      "▁খা": 420,
      "▁দল": 421,
      "▁ব্যা": 422,
      "▁মানুষ": 423,
      "ার্": 424,
      "াক": 425,
      "টে": 426,
      "োধ": 427,
      "▁মে": 428,
      "্দ": 429,
      "ান্ত": 430,
      "▁মধ্যে": 431,
      "▁তোমার": 432,
      "পর": 433,
      "দিন": 434,
      "▁হবে।\n": 435,
      "খে": 436,
      "াহ": 437,
      "▁হচ্": 438,
      "▁বাংলাদেশ": 439,
      "▁বছ": 440,
      "রের": 441,
      "ি।\n": 442,
      "▁বড়": 443,
      "▁জন": 444,
      "▁আছে।\n": 445,
      "▁নয়": 446,
      "ভি": 447,
      "▁তারা": 448,
      "▁ঠিক": 449,
      "্যান": 450,
      "ত্র": 451,
      "কের": 452,
      "গুলো": 453,
      "কম": 454,
      "▁অনু": 455,
      "ত্ত": 456,
      "্রি": 457,
      "থম": 458,
      "▁শেষ": 459,
      "ীব": 460,
      "▁চল": 461,
      "▁ক্ষ": 462,
      "চিত": 463,
      "▁কম": 464,
      "▁টা": 465,
      "▁শুরু": 466,
      "▁এসে": 467,
      "▁দেখা": 468,
      "াদ": 469,
      "▁হাস": 470,
      "▁ব্যব": 471,
      "▁খুব": 472,
      "▁আগে": 473,
      "▁হয়।\n": 474,
      "▁সম্প": 475,
      "▁সহ": 476,
      "▁প্রধান": 477,
      "লি": 478,
      "োক": 479,
      "▁বিষ": 480,
      "▁সি": 481,
      "বাদ": 482,
      "ও।\n": 483,
      "োন": 484,
      "র্থ": 485,
      "▁সাথে": 486,
      "▁বিশ্ব": 487,
      "জ্": 488,
      "সা": 489,
      "▁রাখ": 490,
      "্যার": 491,
      "▁হা": 492,
      "▁বু": 493,
      "▁মো": 494,
      "রণ": 495,
      "ারে": 496,
      "▁পারে": 497,
      "পুর": 498,
      "ানি": 499,
      "▁হয়েছে": 500,
      "ন্ত্রী": 501,
      "সব": 502,
      "▁মহ": 503,
      "▁কর্ম": 504,
      "দা": 505,
      "ানের": 506,
      "▁অন্য": 507,
      "াকা": 508,
      "▁করব": 509,
      "টির": 510,
      "▁এখানে": 511,
      "▁চে": 512,
      "▁রে": 513,
      "ল্প": 514,
      "জি": 515,
      "▁নাম": 516,
      "ামী": 517,
      "▁বন্ধ": 518,
      "▁দুই": 519,
      "ংশ": 520,
      "বাস": 521,
      "ক্র": 522,
      "চার": 523,
      "হার": 524,
      "ানা": 525,
      "েন\n": 526,
      "বাই": 527,
      "কাল": 528,
      "▁না,": 529,
      "স্থা": 530,
      "ডি": 531,
      "ীন": 532,
      "▁করার": 533,
      "▁যু": 534,
      "▁ছে": 535,
      "▁আমাকে": 536,
      "▁সাম": 537,
      "▁আগ": 538,
      "ভিন": 539,
      "▁আজ": 540,
      "▁খে": 541,
      "▁অধ": 542,
      "▁চাই": 543,
      "▁হয়\n": 544,
      "ব্য": 545,
      "▁গা": 546,
      "কাশ": 547,
      "প্ত": 548,
      "▁কাছে": 549,
      "▁কারণ": 550,
      "ওয়": 551,
      "▁হি": 552,
      "চে": 553,
      "নী": 554,
      "্স": 555,
      "▁গত": 556,
      "পি": 557,
      "হা": 558,
      "ত্য": 559,
      "▁প্রথম": 560,
      "য়েন": 561,
      "▁মি": 562,
      "▁তাই": 563,
      "শি": 564,
      "▁অপ": 565,
      "▁রয়ে": 566,
      "▁স্বা": 567,
      "▁হলে": 568,
      "▁সেই": 569,
      "▁নেই।\n": 570,
      "িতে": 571,
      "ূর্": 572,
      "▁হয়েছে\n": 573,
      "ুক": 574,
      "▁ঢাকা": 575,
      "▁তবে": 576,
      "▁না\n": 577,
      "ুলে": 578,
      "জের": 579,
      "লেন": 580,
      "▁আহ": 581,
      "ানো": 582,
      "▁বাবা": 583,
      "ঠে": 584,
      "স্ট": 585,
      "ারণ": 586,
      "▁আব": 587,
      "▁নির্বা": 588,
      "▁বছর": 589,
      "প্র": 590,
      "য়ো": 591,
      "▁সো": 592,
      "▁গো": 593,
      "▁তিন": 594,
      "▁লাগ": 595,
      "▁ডি": 596,
      "থায়": 597,
      "▁বির": 598,
      "▁দেওয়া": 599,
      "▁তাঁর": 600,
      "▁তাকে": 601,
      "▁করেন।\n": 602,
      "▁পর্য": 603,
      "তুন": 604,
      "লেখ": 605,
      "▁দেশের": 606,
      "ছা": 607,
      "জা": 608,
      "লের": 609,
      "▁ঘট": 610,
      "ম্ব": 611,
      "▁নতুন": 612,
      "▁জীব": 613,
      "▁ভাই": 614,
      "▁আই": 615,
      "▁পড়ে": 616,
      "▁প্রশ": 617,
      "▁ছোট": 618,
      "ল।\n": 619,
      "▁এমন": 620,
      "▁মতো": 621,
      "▁তখন": 622,
      "▁নেই": 623,
      "টার": 624,
      "ঞ্": 625,
      "পতি": 626,
      "মন্ত্রী": 627,
      "▁আরও": 628,
      "▁লি": 629,
      "▁হচ্ছে": 630,
      "তিক": 631,
      "▁বই": 632,
      "▁স্যার": 633,
      "▁চা": 634,
      "▁বাড়ি": 635,
      "জ্ঞ": 636,
      "ঞ্চ": 637,
      "শে": 638,
      "▁ভার": 639,
      "েক": 640,
      "্লা": 641,
      "▁স্ব": 642,
      "▁হবে\n": 643,
      "ত্যা": 644,
      "ষণ": 645,
      "▁দেখে": 646,
      "▁আপনি": 647,
      "্টি": 648,
      "▁ধর": 649,
      "টু": 650,
      "▁অভি": 651,
      "▁চলে": 652,
      "ূল": 653,
      "▁পড়": 654,
      "▁থাকে": 655,
      "▁দিতে": 656,
      "ুত": 657,
      "▁আশ": 658,
      "▁গেল": 659,
      "এন": 660,
      "লার": 661,
      "▁আল": 662,
      "▁টি": 663,
      "▁রো": 664,
      "ঁচ": 665,
      "স্য": 666,
      "▁সবাই": 667,
      "▁পি": 668,
      "▁না?\n": 669,
      "▁চার": 670,
      "▁ওই": 671,
      "▁করে।\n": 672,
      "▁জানান": 673,
      "▁আপনার": 674,
      "▁বেশি": 675,
      "▁ফির": 676,
      "▁যায়।\n": 677,
      "উজ": 678,
      "ধু": 679,
      "ষ্ট্র": 680,
      "▁আবার": 681,
      "▁হলো": 682,
      "দ্যাল": 683,
      "▁টাকা": 684,
      "▁পুল": 685,
      "▁যোগ": 686,
      "র্ম": 687,
      "ছেন।\n": 688,
      "তার": 689,
      "▁মাস": 690,
      "▁পরে": 691,
      "▁১": 692,
      "▁হতে": 693,
      "▁প্রকাশ": 694,
      "র্শ": 695,
      "ভাব": 696,
      "▁কেউ": 697,
      "ীগ": 698,
      "ীদের": 699,
      "▁সদ": 700,
      "▁পে": 701,
      "▁হাজ": 702,
      "বেশ": 703,
      "ছেন\n": 704,
      "▁পুলিশ": 705,
      "▁বৃ": 706,
      "পা": 707,
      "বল": 708,
      "▁গিয়ে": 709,
      "ন্ন": 710,
      "তের": 711,
      "ফোর": 712,
      "▁একজন": 713,
      "▁দিকে": 714,
      "িকা": 715,
      "▁ফে": 716,
      "▁স্থ": 717,
      "ভিন্ন": 718,
      "▁ঝ": 719,
      "▁বলা": 720,
      "▁অংশ": 721,
      "▁সেটা": 722,
      "▁ছা": 723,
      "মি": 724,
      "ক্ষে": 725,
      "বর": 726,
      "▁শ্র": 727,
      "ালের": 728,
      "য়েন্টি": 729,
      "▁নির্বাচ": 730,
      "শ্চ": 731,
      "িব": 732,
      "▁শেখ": 733,
      "পার": 734,
      "▁আন": 735,
      "েন্ট": 736,
      "িকার": 737,
      "▁বিভিন্ন": 738,
      "ক্ষা": 739,
      "▁রহ": 740,
      "্ল": 741,
      "▁একটু": 742,
      "▁যেতে": 743,
      "▁শুধু": 744,
      "ূর্ণ": 745,
      "টকম": 746,
      "সের": 747,
      "িনা": 748,
      "▁বিড": 749,
      "▁উত্ত": 750,
      "▁পাঠ": 751,
      "▁কখন": 752,
      "▁বো": 753,
      "▁আলো": 754,
      "▁হই": 755,
      "▁বিএন": 756,
      "িনিউজ": 757,
      "▁যাচ্": 758,
      "ষ্টা": 759,
      "▁বিডিনিউজ": 760,
      "সম": 761,
      "▁চাল": 762,
      "তির": 763,
      "য়েন্টিফোর": 764,
      "গা": 765,
      "▁মাম": 766,
      "াতা": 767,
      "ষ্টি": 768,
      "▁হাজার": 769,
      "বো": 770,
      "সহ": 771,
      "▁ডটকম": 772,
      "ার্থ": 773,
      "নায়": 774,
      "▁সম্ম": 775,
      "▁তোমা": 776,
      "▁ছাত্র": 777,
      "▁ইউ": 778,
      "ন্দর": 779,
      "▁নয়।\n": 780,
      "দে": 781,
      "▁জি": 782,
      "▁ইস": 783,
      "ব।\n": 784,
      "▁বস": 785,
      "▁তৈ": 786,
      "য়েক": 787,
      "▁নিজে": 788,
      "ধারণ": 789,
      "▁যদি": 790,
      "▁খেল": 791,
      "▁লোক": 792,
      "▁স্ক": 793,
      "▁পর্যন্ত": 794,
      "▁পুর": 795,
      "▁করি": 796,
      "য়োজন": 797,
      "বেন": 798,
      "▁টো": 799,
      "▁হিসে": 800,
      "শ্য": 801,
      "▁শহ": 802,
      "▁জানিয়ে": 803,
      "▁দুর্": 804,
      "গ্রহ": 805,
      "▁বিষয়": 806,
      "▁বুঝ": 807,
      "ুদ্ধ": 808,
      "▁কয়েক": 809,
      "▁দেখতে": 810,
      "▁এসব": 811,
      "▁যান": 812,
      "বাহ": 813,
      "▁ট্র": 814,
      "▁প্রতিষ্ঠ": 815,
      "▁টোয়েন্টিফোর": 816,
      "▁হিসেবে": 817,
      "▁পেয়ে": 818,
      "▁মত": 819,
      "▁ধরে": 820,
      "▁ছিল।\n": 821,
      "ড়িয়ে": 822,
      "▁যাবে": 823,
      "স্থিত": 824,
      "▁অর্": 825,
      "▁প্রা": 826,
      "▁ওকে": 827,
      "▁মুক্তি": 828,
      "▁প্রধানমন্ত্রী": 829,
      "▁আওয়": 830,
      "▁মন": 831,
      "▁বলতে": 832,
      "▁হয়েছে।\n": 833,
      "▁ইসলাম": 834,
      "গর": 835,
      "▁উৎ": 836,
      "▁শিক্ষা": 837,
      "▁বাংলাদেশের": 838,
      "▁অনুষ্ঠ": 839,
      "▁২": 840,
      "▁ভে": 841,
      "▁তাহ": 842,
      "▁সুন্দর": 843,
      "্দ্র": 844,
      "▁ছেলে": 845,
      "েষ": 846,
      "▁\"": 847,
      "▁পাল": 848,
      "▁বিশেষ": 849,
      "দ্র": 850,
      "বর্ত": 851,
      "▁বের": 852,
      "▁স্ট": 853,
      "▁জে": 854,
      "▁ছু": 855,
      "জার": 856,
      "▁নিজের": 857,
      "▁দেয়": 858,
      "চ্চ": 859,
      "▁দলের": 860,
      "▁হন": 861,
      "▁লীগ": 862,
      "▁গ্রাম": 863,
      "▁আদ": 864,
      "ঞ্জ": 865,
      "▁সদস্য": 866,
      "▁রহমান": 867,
      "ণ্ড": 868,
      "▁লেখ": 869,
      "▁অর্থ": 870,
      "▁শী": 871,
      "▁শিশ": 872,
      "▁উদ্": 873,
      "লাম।\n": 874,
      "ম্বর": 875,
      "্বাস": 876,
      "▁মার": 877,
      "▁ওর": 878,
      "▁নেতা": 879,
      "▁দাঁ": 880,
      "এস": 881,
      "টের": 882,
      "▁দ্ব": 883,
      "▁করলে": 884,
      "▁ছবি": 885,
      "▁পরিচ": 886,
      "▁মানুষের": 887,
      "ত্ব": 888,
      "োস": 889,
      "▁থ": 890,
      "িনে": 891,
      "▁গণ": 892,
      "▁হয়নি": 893,
      "বিদ্যাল": 894,
      "▁ধরনের": 895,
      "মু": 896,
      "▁বাড়": 897,
      "▁দেশে": 898,
      "▁আওয়ামী": 899,
      "ীল": 900,
      "▁কত": 901,
      "▁ম্যা": 902,
      "ালি": 903,
      "▁পৌ": 904,
      "▁জাত": 905,
      "▁কোথায়": 906,
      "▁বিষয়ে": 907,
      "ভব": 908,
      "সং": 909,
      "ুণ": 910,
      "য়ন": 911,
      "▁মেয়ে": 912,
      "িতা": 913,
      "▁কার্য": 914,
      "▁সরকারের": 915,
      "▁বিশ্ববিদ্যাল": 916,
      "▁কারণে": 917,
      "▁তৈরি": 918,
      "▁বৈ": 919,
      "▁যেন": 920,
      "ায়।\n": 921,
      "মাণ": 922,
      "▁আপনা": 923,
      "▁করেন\n": 924,
      "▁সম্পর্": 925,
      "▁খেলা": 926,
      "▁ফিরে": 927,
      "ফি": 928,
      "▁প্রায়": 929,
      "▁উচিত": 930,
      "▁সেখানে": 931,
      "▁অবস্থ": 932,
      "▁দাবি": 933,
      "্যান্ড": 934,
      "চনা": 935,
      "▁এতে": 936,
      "▁হাত": 937,
      "▁মাধ্য": 938,
      "▁কেন?\n": 939,
      "ুই": 940,
      "েরে": 941,
      "▁এলা": 942,
      "▁করবে": 943,
      "বেদ": 944,
      "▁বাস": 945,
      "িত্ব": 946,
      "▁সালে": 947,
      "▁সাধারণ": 948,
      "▁কখনো": 949,
      "ৈতিক": 950,
      "▁সত্য": 951,
      "▁এবার": 952,
      "▁হল": 953,
      "▁দায়": 954,
      "▁মৃত": 955,
      "▁জা": 956,
      "▁গুল": 957,
      "▁পরী": 958,
      "কালে": 959,
      "▁তাহলে": 960,
      "থ্য": 961,
      "মিক": 962,
      "▁(": 963,
      "▁নার": 964,
      "িকি": 965,
      "▁বাই": 966,
      "▁উন্ন": 967,
      "▁সম্": 968,
      "চ্ছা": 969,
      "▁তোমাকে": 970,
      "▁জাতীয়": 971,
      "ীরা": 972,
      "▁বক্ত": 973,
      "▁মূল": 974,
      "▁ওপর": 975,
      "▁খো": 976,
      "▁মুখ": 977,
      "▁আছে?\n": 978,
      "▁ব্যবস্থা": 979,
      "ধা": 980,
      "শা": 981,
      "▁নানা": 982,
      "▁হ্যা": 983,
      "▁চু": 984,
      "▁নিয়": 985,
      "ন্ত্রণ": 986,
      "▁জীবন": 987,
      "▁দূ": 988,
      "▁উঠ": 989,
      "▁ভাব": 990,
      "▁খালে": 991,
      "ত্রে": 992,
      "▁চেষ্টা": 993,
      "▁রেখে": 994,
      "দী": 995,
      "▁বার": 996,
      "▁হোস": 997,
      "েনে": 998,
      "▁জায়": 999,
      "্যাপ": 1000,
      "ুন।\n": 1001,
      "পে": 1002,
      "▁'": 1003,
      "▁পারে।\n": 1004,
      "োল": 1005,
      "্লি": 1006,
      "্যাম": 1007,
      "▁শি": 1008,
      "▁গুরু": 1009,
      "▁জানা": 1010,
      "ুট": 1011,
      "▁সক": 1012,
      "▁তথ্য": 1013,
      "▁হার": 1014,
      "▁গল্প": 1015,
      "▁চো": 1016,
      "টিতে": 1017,
      "▁ভয়": 1018,
      "▁সাং": 1019,
      "ূচ": 1020,
      "▁রি": 1021,
      "▁রাত": 1022,
      "র্ষ": 1023,
      "▁আরো": 1024,
      "▁রাষ্ট্র": 1025,
      "▁হাতে": 1026,
      "ুয়ার": 1027,
      "▁এটি": 1028,
      "▁প্রে": 1029,
      "▁প্রয়োজন": 1030,
      "▁উত্তর": 1031,
      "কর": 1032,
      "হত": 1033,
      "▁কু": 1034,
      "▁সন্ত": 1035,
      "▁তুলে": 1036,
      "কেট": 1037,
      "▁প্রক": 1038,
      "▁একই": 1039,
      "▁সমস": 1040,
      "▁পাশ": 1041,
      "▁পাওয়া": 1042,
      "▁ঘো": 1043,
      "দিকে": 1044,
      "▁আইন": 1045,
      "▁মাধ্যমে": 1046,
      "▁হওয়ার": 1047,
      "েনা": 1048,
      "▁যখন": 1049,
      "▁চেয়ে": 1050,
      "▁করেছে": 1051,
      "▁পারি": 1052,
      "▁সামনে": 1053,
      "▁মৃত্য": 1054,
      "ট্র": 1055,
      "েরা": 1056,
      "ানোর": 1057,
      "▁ডা": 1058,
      "▁গেছে": 1059,
      "▁গেছে।\n": 1060,
      "নীতি": 1061,
      "▁ছাড়া": 1062,
      "খ্যা": 1063,
      "ণের": 1064,
      "বির": 1065,
      "▁আয়": 1066,
      "▁এত": 1067,
      "▁অস": 1068,
      "▁অবশ্য": 1069,
      "▁কেন্দ্র": 1070,
      "▁খালেদা": 1071,
      "নৈতিক": 1072,
      "▁সর্": 1073,
      "▁বিচার": 1074,
      "▁নিশ্চ": 1075,
      "ন্ড": 1076,
      "ন্ম": 1077,
      "▁শিশু": 1078,
      "বো।\n": 1079,
      "যু": 1080,
      "য্য": 1081,
      "হে": 1082,
      "▁সভা": 1083,
      "▁পু": 1084,
      "▁পানি": 1085,
      "▁ভূ": 1086,
      "▁উঠে": 1087,
      "▁সাহা": 1088,
      "▁আসলে": 1089,
      "▁কেমন": 1090,
      "▁আগামী": 1091,
      "▁প্রশ্ন": 1092,
      "▁পৌঁ": 1093,
      "তু": 1094,
      "দার": 1095,
      "ফল": 1096,
      "সার": 1097,
      "েই": 1098,
      "্বা": 1099,
      "▁সকাল": 1100,
      "▁ভি": 1101,
      "িল্প": 1102,
      "▁বন্ধু": 1103,
      "▁যুক্ত": 1104,
      "▁করছি": 1105,
      "তেই": 1106,
      "▁আরে": 1107,
      "▁ভাষ": 1108,
      "কায়": 1109,
      "বন্ধ": 1110,
      "রত": 1111,
      "ো?\n": 1112,
      "▁আত": 1113,
      "▁যাত্র": 1114,
      "▁নাকি": 1115,
      "▁প্রস্ত": 1116,
      "ছিল।\n": 1117,
      "▁তিনি\n": 1118,
      "▁পারেন": 1119,
      "েলার": 1120,
      "▁সরকারি": 1121,
      "▁বিএনপি": 1122,
      "▁হোসেন": 1123,
      "▁তে": 1124,
      "▁না!\n": 1125,
      "▁একা": 1126,
      "বারের": 1127,
      "াস্ত": 1128,
      "▁নেত": 1129,
      "▁পরিচাল": 1130,
      "▁বক্তব্য": 1131,
      "▁হ্যাঁ": 1132,
      "ধীন": 1133,
      "িদ": 1134,
      "্বে": 1135,
      "▁ঐ": 1136,
      "▁বিক": 1137,
      "▁চি": 1138,
      "চ্ছে": 1139,
      "▁জানতে": 1140,
      "▁ব্যাপ": 1141,
      "▁ক্ষে": 1142,
      "ষণা": 1143,
      "ুদ্ধে": 1144,
      "▁বহ": 1145,
      "▁আসে": 1146,
      "▁মারা": 1147,
      "▁নামে": 1148,
      "▁বিপ": 1149,
      "▁ভুল": 1150,
      "▁উল": 1151,
      "ছিলেন": 1152,
      "▁ঘরে": 1153,
      "ক্ষণ": 1154,
      "▁দাও।\n": 1155,
      "িকিৎ": 1156,
      "কর্ত": 1157,
      "▁বয়": 1158,
      "▁পদ": 1159,
      "্যে": 1160,
      "▁করো": 1161,
      "▁কর।\n": 1162,
      "ায়ের": 1163,
      "▁চিকিৎ": 1164,
      "▁নিতে": 1165,
      "িত্র": 1166,
      "▁ছিলেন": 1167,
      "▁এখনো": 1168,
      "▁শিক্ষার্থ": 1169,
      "▁বাড়িতে": 1170,
      "▁বাইরে": 1171,
      "▁সমস্যা": 1172,
      "▁সাহায্য": 1173,
      "এম": 1174,
      "পূর্ণ": 1175,
      "লেন।\n": 1176,
      "▁সালের": 1177,
      "▁আট": 1178,
      "▁এস": 1179,
      "▁দরকার": 1180,
      "▁শুন": 1181,
      "▁চিন্ত": 1182,
      "▁কিছুই": 1183,
      "ীতে": 1184,
      "▁ক্রি": 1185,
      "▁পান": 1186,
      "▁জিয়া": 1187,
      "▁ধর্ম": 1188,
      "ভাগ": 1189,
      "▁থাকতে": 1190,
      "কিস্ত": 1191,
      "▁গেলে": 1192,
      "▁ব্যবহার": 1193,
      "▁কর্মকর্ত": 1194,
      "▁স্থান": 1195,
      "পির": 1196,
      "ভার": 1197,
      "▁মানে": 1198,
      "ড়াই": 1199,
      "র্জ": 1200,
      "র্ড": 1201,
      "▁ওরা": 1202,
      "▁বললেন": 1203,
      "▁ফেল": 1204,
      "▁পাকিস্ত": 1205,
      "▁ইতি": 1206,
      "▁কী?\n": 1207,
      "▁লাখ": 1208,
      "▁ব্যক্তি": 1209,
      "গ্রাম": 1210,
      "▁বছরের": 1211,
      "চিত্র": 1212,
      "▁হাসিনা": 1213,
      "▁নির্বাচন": 1214,
      "\"\n": 1215,
      "▁দাম": 1216,
      "▁উদ": 1217,
      "▁করে\n": 1218,
      "▁করেছেন": 1219,
      "ুরে": 1220,
      "▁পাখ": 1221,
      "▁কোটি": 1222,
      "▁মাঝ": 1223,
      "▁বিশ্বাস": 1224,
      "াপা": 1225,
      "▁জনগ": 1226,
      "▁গাড়ি": 1227,
      "ক্স": 1228,
      "গত": 1229,
      "ূপ": 1230,
      "▁ব্র": 1231,
      "▁বর্ত": 1232,
      "▁পৃ": 1233,
      "▁সমাজ": 1234,
      "▁হাসপ": 1235,
      "▁বিরোধ": 1236,
      "▁গেল।\n": 1237,
      "তায়": 1238,
      "▁কল": 1239,
      "্যের": 1240,
      "▁দশ": 1241,
      "▁জল": 1242,
      "▁রকম": 1243,
      "▁খান": 1244,
      "ছিলেন।\n": 1245,
      "▁জানি": 1246,
      "▁লো": 1247,
      "▁লাগে": 1248,
      "▁সংস": 1249,
      "ঙ্গল": 1250,
      "▁ক্ষম": 1251,
      "▁গাছ": 1252,
      "ঠা": 1253,
      "ীত": 1254,
      "ো,": 1255,
      "▁ক্র": 1256,
      "▁সৃ": 1257,
      "▁মাত্র": 1258,
      "▁জন্ম": 1259,
      "ায়ী": 1260,
      "▁সমা": 1261,
      "▁রাতে": 1262,
      "▁সবচ": 1263,
      "▁চেয়ার": 1264,
      "▁ঘটনা": 1265,
      "▁পুরো": 1266,
      "ংস": 1267,
      "বু": 1268,
      "িয়": 1269,
      "ৃতি": 1270,
      "▁লে": 1271,
      "▁এগ": 1272,
      "▁মাল": 1273,
      "▁করো।\n": 1274,
      "▁রান": 1275,
      "▁দেওয়ার": 1276,
      "রাষ্ট্র": 1277,
      "ুলের": 1278,
      "▁পাঁচ": 1279,
      "▁সুযোগ": 1280,
      "▁শিক্ষক": 1281,
      "▁বিরুদ্ধে": 1282,
      "▁সম্ভব": 1283,
      "মের": 1284,
      "শন": 1285,
      "োপ": 1286,
      "▁সবার": 1287,
      "▁সিনে": 1288,
      "▁পো": 1289,
      "▁মিল": 1290,
      "▁যাবে।\n": 1291,
      "▁ঘুম": 1292,
      "▁থাকবে": 1293,
      "গুলোর": 1294,
      "▁ব্যাং": 1295,
      "▁শেষে": 1296,
      "▁সিদ্ধ": 1297,
      "▁রয়েছে": 1298,
      "▁ভারত": 1299,
      "▁ফেলে": 1300,
      "▁সম্মেল": 1301,
      "▁প্রতিষ্ঠান": 1302,
      "▁দায়িত্ব": 1303,
      "▁গুরুত্ব": 1304,
      "▁ক্ষেত্রে": 1305,
      "▁সবচেয়ে": 1306,
      "তন": 1307,
      "ল,": 1308,
      "লায়": 1309,
      "▁কাল": 1310,
      "▁পথ": 1311,
      "▁হত্যা": 1312,
      "▁জাম": 1313,
      "▁শনি": 1314,
      "▁চাক": 1315,
      "▁ভিত": 1316,
      "▁খবর": 1317,
      "▁ফোন": 1318,
      "জনের": 1319,
      "বায়": 1320,
      "াযোগ": 1321,
      "োয়া": 1322,
      "▁বসে": 1323,
      "▁সকালে": 1324,
      "▁নাই।\n": 1325,
      "▁ওদের": 1326,
      "▁বাঁ": 1327,
      "▁দুঃ": 1328,
      "▁পরিবেশ": 1329,
      "▁সংবাদ": 1330,
      "▁গ্রহ": 1331,
      "▁কমি": 1332,
      "▁অধিকার": 1333,
      "▁গতকাল": 1334,
      "▁সম্পর্কে": 1335,
      "দর্শ": 1336,
      "া।\n": 1337,
      "▁।\n": 1338,
      "▁ছি": 1339,
      "▁কলে": 1340,
      "▁অ্যা": 1341,
      "▁জু": 1342,
      "চ্ছ": 1343,
      "▁দুটি": 1344,
      "▁এরপর": 1345,
      "▁থাকলে": 1346,
      "▁খুঁ": 1347,
      "▁সম্পাদ": 1348,
      "▁রয়েছে।\n": 1349,
      "▁আদাল": 1350,
      "▁দ্বিত": 1351,
      "▁সিদ্ধান্ত": 1352,
      "▁শনিবার": 1353,
      "ঠন": 1354,
      "সূচ": 1355,
      "হাম": 1356,
      "▁সারা": 1357,
      "▁মঙ্গল": 1358,
      "▁যত": 1359,
      "▁শর": 1360,
      "▁ওটা": 1361,
      "▁আরেক": 1362,
      "স্ক": 1363,
      "▁কীভাবে": 1364,
      "▁অবস্থা": 1365,
      "▁ব্যাপার": 1366,
      "বাদিক": 1367,
      "▁স্যার।\n": 1368,
      "▁যোগাযোগ": 1369,
      "▁আপনাকে": 1370,
      "▁সাংবাদিক": 1371,
      "ুয়ারি": 1372,
      "▁মৃত্যু": 1373,
      "আই": 1374,
      "ক।\n": 1375,
      "তম": 1376,
      "রম": 1377,
      "▁কঠ": 1378,
      "▁সর": 1379,
      "▁হাম": 1380,
      "▁দৃ": 1381,
      "▁করছে": 1382,
      "▁শো": 1383,
      "▁উই": 1384,
      "▁উদ্য": 1385,
      "▁খারা": 1386,
      "▁ছয়": 1387,
      "▁মেট্র": 1388,
      "▁যুদ্ধ": 1389,
      "▁স্বাধীন": 1390,
      "▁বৃহ": 1391,
      "▁গুলি": 1392,
      "ভে": 1393,
      "য়াল": 1394,
      "▁অভিন": 1395,
      "ামি": 1396,
      "▁সময়ে": 1397,
      "▁থাকা": 1398,
      "▁কর্মসূচ": 1399,
      "▁করবেন": 1400,
      "্লাহ": 1401,
      "▁জেলা": 1402,
      "▁চোখ": 1403,
      "▁দ্বিতীয়": 1404,
      "▁খারাপ": 1405,
      "চিব": 1406,
      "তাম": 1407,
      "ব্র": 1408,
      "▁দী": 1409,
      "▁দ্র": 1410,
      "▁মিনি": 1411,
      "▁অন্ত": 1412,
      "▁যারা": 1413,
      "▁শান্ত": 1414,
      "▁বিয়ে": 1415,
      "▁ভাল": 1416,
      "▁যেমন": 1417,
      "▁বেঁ": 1418,
      "▁থাকে।\n": 1419,
      "▁আনন্দ": 1420,
      "সী": 1421,
      "াঁ": 1422,
      "▁আক্র": 1423,
      "▁নির": 1424,
      "▁করেছি": 1425,
      "ুরি": 1426,
      "▁তোর": 1427,
      "▁যাওয়ার": 1428,
      "▁কোথা": 1429,
      "স্কার": 1430,
      "▁ছিলেন।\n": 1431,
      "▁মহান": 1432,
      "▁ছেড়ে": 1433,
      "▁জায়গা": 1434,
      "▁ঘোষণা": 1435,
      "যো": 1436,
      "াতে": 1437,
      "▁সড়": 1438,
      "▁এম": 1439,
      "▁হওয়া": 1440,
      "▁শিল্প": 1441,
      "রাপ": 1442,
      "কারী": 1443,
      "ষ্কার": 1444,
      "িল,": 1445,
      "▁রাজনৈতিক": 1446,
      "ছাড়া": 1447,
      "▁বিএনপির": 1448,
      "▁পৃথ": 1449,
      "▁মঙ্গলবার": 1450,
      "ব্দ": 1451,
      "ম্প": 1452,
      "▁বর": 1453,
      "▁সূ": 1454,
      "▁হোক": 1455,
      "▁মৌ": 1456,
      "▁অতি": 1457,
      "▁জয়": 1458,
      "▁রু": 1459,
      "▁রোগ": 1460,
      "▁ভর্ত": 1461,
      "▁নিজ": 1462,
      "রাধ": 1463,
      "▁যাওয়া": 1464,
      "▁যাও।\n": 1465,
      "াসে": 1466,
      "▁তারপর": 1467,
      "নি।\n": 1468,
      "▁লক্ষ": 1469,
      "▁থেকেই": 1470,
      "▁আসতে": 1471,
      "▁পরিস্থিত": 1472,
      "▁খাবার": 1473,
      "▁হচ্ছে।\n": 1474,
      "▁লীগের": 1475,
      "▁আত্ম": 1476,
      "▁ব্যাপারে": 1477,
      "▁এগিয়ে": 1478,
      "▁সম্পাদক": 1479,
      "জিত": 1480,
      "টো": 1481,
      "ফা": 1482,
      "বের": 1483,
      "্লেখ": 1484,
      "▁কৃ": 1485,
      "▁তুই": 1486,
      "▁নিরাপ": 1487,
      "▁যাই": 1488,
      "▁ইং": 1489,
      "▁নেওয়া": 1490,
      "▁কাউ": 1491,
      "▁পরিবর্ত": 1492,
      "▁রাজা": 1493,
      "▁বেড়ে": 1494,
      "▁খেতে": 1495,
      "▁সোম": 1496,
      "▁অভিযোগ": 1497,
      "▁রোব": 1498,
      "বেদন": 1499,
      "▁উল্লেখ": 1500,
      "▁গ্রহণ": 1501,
      "ক্ট": 1502,
      "খান": 1503,
      "চের": 1504,
      "দান": 1505,
      "দায়": 1506,
      "দুল": 1507,
      "ধি": 1508,
      "ারি": 1509,
      "ারের": 1510,
      "▁দো": 1511,
      "▁গান": 1512,
      "▁বিজ্ঞ": 1513,
      "র্ঘ": 1514,
      "▁বাহ": 1515,
      "স্পতি": 1516,
      "▁কাপ": 1517,
      "▁যায়\n": 1518,
      "▁তাঁদের": 1519,
      "▁দিনের": 1520,
      "▁খুবই": 1521,
      "▁সহজ": 1522,
      "▁২০": 1523,
      "▁বিশ্ববিদ্যালয়ের": 1524,
      "▁বৃহস্পতি": 1525,
      "ট্ট": 1526,
      "হ,": 1527,
      "ীকে": 1528,
      "▁পড়া": 1529,
      "▁এভাবে": 1530,
      "▁এছাড়া": 1531,
      "▁হে": 1532,
      "▁ফুট": 1533,
      "দ্দ": 1534,
      "▁আগের": 1535,
      "▁আহ্ব": 1536,
      "▁আশা": 1537,
      "▁জিজ্ঞ": 1538,
      "▁ছুটি": 1539,
      "▁থান": 1540,
      "▁দুঃখ": 1541,
      "▁বৃহস্পতিবার": 1542,
      "।\"\n": 1543,
      "কর্ম": 1544,
      "বান": 1545,
      "ী\n": 1546,
      "▁কহ": 1547,
      "▁কমে": 1548,
      "▁স্প": 1549,
      "▁আচ্ছা": 1550,
      "্যাল": 1551,
      "▁করি।\n": 1552,
      "লাই": 1553,
      "▁গু": 1554,
      "▁নিচে": 1555,
      "▁বাস্ত": 1556,
      "▁যাও": 1557,
      "▁ঘটে": 1558,
      "▁গ্রে": 1559,
      "▁বিশ্বকা": 1560,
      "▁রাখতে": 1561,
      "▁অপে": 1562,
      "▁মামলা": 1563,
      "▁উদ্ব": 1564,
      "▁পৃথিব": 1565,
      "দন্ত": 1566,
      "ধুর": 1567,
      "বী": 1568,
      "যায়ী": 1569,
      "▁বঙ্গ": 1570,
      "▁সৈ": 1571,
      "▁সেনা": 1572,
      "▁নদী": 1573,
      "▁একে": 1574,
      "▁দক্ষ": 1575,
      "কেল": 1576,
      "▁জাহ": 1577,
      "▁শাহ": 1578,
      "▁চৌ": 1579,
      "র্ক": 1580,
      "▁বাচ্চ": 1581,
      "▁ফলে": 1582,
      "▁কি?\n": 1583,
      "▁পাশে": 1584,
      "েলায়": 1585,
      "▁মাহ": 1586,
      "▁যেখানে": 1587,
      "▁কাজে": 1588,
      "▁খুশি": 1589,
      "▁দাও": 1590,
      "▁রাজধান": 1591,
      "▁উৎসব": 1592,
      "▁পালন": 1593,
      "▁অবশ্যই": 1594,
      "▁রোববার": 1595,
      "চল": 1596,
      "মিত": 1597,
      "রুল": 1598,
      "ি\n": 1599,
      "্টা": 1600,
      "▁স্ত": 1601,
      "▁দেন": 1602,
      "▁কর্ত": 1603,
      "▁করছে।\n": 1604,
      "▁নাই": 1605,
      "▁সাই": 1606,
      "▁হয়তো": 1607,
      "▁পারবে": 1608,
      "▁ডে": 1609,
      "দেশে": 1610,
      "▁তাঁরা": 1611,
      "▁সহায়": 1612,
      "▁নেই\n": 1613,
      "▁ইউনি": 1614,
      "▁নেতৃত": 1615,
      "▁বললেন,": 1616,
      "▁দ্রুত": 1617,
      "শীল": 1618,
      "▁আন্দ": 1619,
      "▁গড়ে": 1620,
      "▁পর্যা": 1621,
      "▁ফল": 1622,
      "নি\n": 1623,
      "▁ধান": 1624,
      "্মদ": 1625,
      "▁লাভ": 1626,
      "▁উপজ": 1627,
      "▁উপস্থিত": 1628,
      "স্থ্য": 1629,
      "▁অনুযায়ী": 1630,
      "্রিয়": 1631,
      "▁১৯": 1632,
      "▁পরীক্ষ": 1633,
      "▁চুপ": 1634,
      "▁নিশ্চিত": 1635,
      "▁চিন্তা": 1636,
      "▁কর্মকর্তা": 1637,
      "▁বিরোধী": 1638,
      "▁মেট্রো": 1639,
      "▁কোথাও": 1640,
      "▁কৃষ": 1641,
      "▁উদ্বোধ": 1642,
      "খা": 1643,
      "জীব": 1644,
      "▁কাম": 1645,
      "▁বান": 1646,
      "▁তর": 1647,
      "▁তাল": 1648,
      "▁করছি।\n": 1649,
      "▁করবে।\n": 1650,
      "▁রাস্ত": 1651,
      "▁বিদ্যাল": 1652,
      "▁পাই": 1653,
      "▁পার্": 1654,
      "▁মাঠে": 1655,
      "▁উপর": 1656,
      "িশন": 1657,
      "▁তাঁকে": 1658,
      "▁আলোচনা": 1659,
      "গ্রহণ": 1660,
      "▁পাশাপা": 1661,
      "▁সর্ব": 1662,
      "▁পাখি": 1663,
      "ঠি": 1664,
      "িণ": 1665,
      "ুদ": 1666,
      "োর্": 1667,
      "▁৩": 1668,
      "▁সাত": 1669,
      "▁হুম": 1670,
      "▁মন্ত্রণ": 1671,
      "▁করছ": 1672,
      "িনার": 1673,
      "ায়ক": 1674,
      "▁চায়": 1675,
      "▁ভোট": 1676,
      "▁একবার": 1677,
      "▁করেছে\n": 1678,
      "াতার": 1679,
      "▁সাহ": 1680,
      "▁সংগ": 1681,
      "▁রাজনীতি": 1682,
      "▁ঢাক": 1683,
      "▁দিনে": 1684,
      "▁হচ্ছে\n": 1685,
      "প্তাহ": 1686,
      "▁হলেও": 1687,
      "▁আহমে": 1688,
      "▁তিনটি": 1689,
      "▁ডিসে": 1690,
      "▁ভাই।\n": 1691,
      "সময়": 1692,
      "▁অনুষ্ঠানে": 1693,
      "▁পরীক্ষা": 1694,
      "▁সিনেমা": 1695,
      "ট্টগ্রাম": 1696,
      "▁পাশাপাশি": 1697,
      "গের": 1698,
      "বহ": 1699,
      "বেন।\n": 1700,
      "ভূ": 1701,
      "রোধ": 1702,
      "স্ব": 1703,
      "▁কব": 1704,
      "▁বদ": 1705,
      "▁বোন": 1706,
      "▁তুল": 1707,
      "কেই": 1708,
      "▁জিনি": 1709,
      "▁শা": 1710,
      "▁রেল": 1711,
      "▁প্রত্য": 1712,
      "▁উদ্ধ": 1713,
      "▁তাতে": 1714,
      "চ্চিত্র": 1715,
      "▁ইন্": 1716,
      "▁কাছ": 1717,
      "▁কথা।\n": 1718,
      "দ্ধা": 1719,
      "ন্ত্রীর": 1720,
      "▁শুনে": 1721,
      "▁চলচ্চিত্র": 1722,
      "▁বুধ": 1723,
      "▁করব।\n": 1724,
      "ক্রবার": 1725,
      "ডিও": 1726,
      "ওয়ায়": 1727,
      "▁মাসে": 1728,
      "▁নিজেদের": 1729,
      "▁গণত": 1730,
      "▁বৈঠ": 1731,
      "▁অবস্থায়": 1732,
      "▁হ্যাঁ,": 1733,
      "▁গুরুত্বপূর্ণ": 1734,
      "▁সোমবার": 1735,
      "▁আন্দোল": 1736,
      "▁মন্ত্রণাল": 1737,
      "টক": 1738,
      "পের": 1739,
      "পক্ষ": 1740,
      "ষে": 1741,
      "সল": 1742,
      "ৎকার": 1743,
      "য়ান": 1744,
      "▁ক্লা": 1745,
      "▁বিন": 1746,
      "▁আন্ত": 1747,
      "▁আকাশ": 1748,
      "▁অফি": 1749,
      "▁জানে": 1750,
      "বেক": 1751,
      "▁চান": 1752,
      "▁ওহ,": 1753,
      "▁নি।\n": 1754,
      "▁মাথা": 1755,
      "▁দুপুর": 1756,
      "▁ছিলেন\n": 1757,
      "▁দিল": 1758,
      "▁এখনও": 1759,
      "কিছু": 1760,
      "থমিক": 1761,
      "▁হিসা": 1762,
      "▁লিখ": 1763,
      "▁বুঝতে": 1764,
      "▁হন।\n": 1765,
      "▁কার্যাল": 1766,
      "▁সভাপতি": 1767,
      "িম": 1768,
      "▁ঈ": 1769,
      "▁কষ্ট": 1770,
      "▁সার": 1771,
      "▁পছ": 1772,
      "▁পক্ষ": 1773,
      "▁দর": 1774,
      "▁মোট": 1775,
      "▁করত": 1776,
      "▁রঙ": 1777,
      "▁চলা": 1778,
      "▁বাকি": 1779,
      "্যাস": 1780,
      "্টে": 1781,
      "▁তোম": 1782,
      "েলি": 1783,
      "▁হবে?\n": 1784,
      "▁দিচ্": 1785,
      "▁বলেছেন": 1786,
      "▁মুখে": 1787,
      "▁নির্দেশ": 1788,
      "▁ভাগ": 1789,
      "▁খাদ্য": 1790,
      "▁বাংলাদেশে": 1791,
      "▁আগেই": 1792,
      "▁চাই।\n": 1793,
      "▁চাইলে": 1794,
      "▁স্বপ": 1795,
      "▁ফেব্র": 1796,
      "াতালে": 1797,
      "▁প্রাথমিক": 1798,
      "▁এলাকায়": 1799,
      "▁উন্নয়ন": 1800,
      "▁পরিচালক": 1801,
      "▁মাঝে": 1802,
      "▁হাসপাতালে": 1803,
      "▁সৃষ্টি": 1804,
      "▁দীর্ঘ": 1805,
      "▁আচ্ছা,": 1806,
      "জনে": 1807,
      "মণ": 1808,
      "মর": 1809,
      "শ্ব": 1810,
      "সর": 1811,
      "িউ": 1812,
      "ুঁ": 1813,
      "▁ঋ": 1814,
      "▁সাজ": 1815,
      "▁পক্ষে": 1816,
      "ান্য": 1817,
      "▁মন্ত্রী": 1818,
      "▁গবে": 1819,
      "▁চলো": 1820,
      "টিং": 1821,
      "▁নিহত": 1822,
      "▁দেয়া": 1823,
      "▁করেছেন।\n": 1824,
      "িনি।\n": 1825,
      "▁হয়েছিল": 1826,
      "▁টে": 1827,
      "▁এটাই": 1828,
      "▁শুক্রবার": 1829,
      "জ্জ": 1830,
      "▁হাঁ": 1831,
      "▁রয়েছে\n": 1832,
      "▁লিখে": 1833,
      "▁ভারতের": 1834,
      "▁শ্রে": 1835,
      "▁স্কুলে": 1836,
      "▁ভেত": 1837,
      "▁গ্রামের": 1838,
      "▁লেখা": 1839,
      "▁ইতিহ": 1840,
      "▁সংসদ": 1841,
      "▁গ্রেপ্ত": 1842,
      "▁চৌধুর": 1843,
      "▁আহমেদ": 1844,
      "▁বুধবার": 1845,
      "ঘট": 1846,
      "ধে": 1847,
      "মানে": 1848,
      "রো": 1849,
      "্ঞ": 1850,
      "য়াম": 1851,
      "▁সী": 1852,
      "▁এনে": 1853,
      "▁তদন্ত": 1854,
      "▁অভ": 1855,
      "িনী": 1856,
      "▁শতা": 1857,
      "▁চট্টগ্রাম": 1858,
      "▁প্রিয়": 1859,
      "িকল্প": 1860,
      "▁বিভাগ": 1861,
      "▁করেছি।\n": 1862,
      "▁হয়,": 1863,
      "ক্তির": 1864,
      "▁বলেন,": 1865,
      "াপ্ত": 1866,
      "▁নয়\n": 1867,
      "▁ক্ষতি": 1868,
      "▁রাখা": 1869,
      "▁মোহাম": 1870,
      "▁মহাস": 1871,
      "▁স্বাস্থ্য": 1872,
      "▁ঘটনায়": 1873,
      "▁বোঝ": 1874,
      "▁প্রাণ": 1875,
      "▁গ্রামে": 1876,
      "▁নারী": 1877,
      "▁সন্তান": 1878,
      "▁যুক্তরাষ্ট্র": 1879,
      "▁বহু": 1880,
      "▁স্থানীয়": 1881,
      "▁খুঁজে": 1882,
      "▁সাংবাদিকদের": 1883,
      "▁ভর্তি": 1884,
      "▁আহ্বান": 1885,
      "ধার": 1886,
      "পত্র": 1887,
      "ম্যান": 1888,
      "ল্যান্ড": 1889,
      "শী": 1890,
      "াকার": 1891,
      "ুকে": 1892,
      "▁পথে": 1893,
      "ান্ড": 1894,
      "▁মজা": 1895,
      "▁অঞ্চ": 1896,
      "লেই": 1897,
      "▁রং": 1898,
      "▁চর": 1899,
      "▁চাপ": 1900,
      "▁প্রভাব": 1901,
      "িকভাবে": 1902,
      "▁বিমান": 1903,
      "▁বাদ": 1904,
      "▁সমর্থ": 1905,
      "▁সাবেক": 1906,
      "▁তো।\n": 1907,
      "▁যাতে": 1908,
      "▁ধারণ": 1909,
      "▁থাকার": 1910,
      "▁কাঠ": 1911,
      "▁আসা": 1912,
      "▁সুবি": 1913,
      "▁আহত": 1914,
      "▁যান।\n": 1915,
      "▁হয়নি।\n": 1916,
      "▁আপনাদের": 1917,
      "▁অবস্থান": 1918,
      "▁সকল": 1919,
      "▁অসু": 1920,
      "যুক্তি": 1921,
      "▁তেমন": 1922,
      "▁কঠিন": 1923,
      "▁পরিবর্তন": 1924,
      "ক্": 1925,
      "চরণ": 1926,
      "দল": 1927,
      "ভীর": 1928,
      "মাত্র": 1929,
      "শ্র": 1930,
      "াব": 1931,
      "িজ": 1932,
      "োনা": 1933,
      "▁আফ": 1934,
      "▁আয়োজন": 1935,
      "▁পেশ": 1936,
      "▁পূর্": 1937,
      "▁করছে\n": 1938,
      "▁শব্দ": 1939,
      "িকের": 1940,
      "টাই": 1941,
      "▁পরিকল্প": 1942,
      "▁বলো।\n": 1943,
      "ন্তব্য": 1944,
      "▁ঘণ": 1945,
      "▁টার": 1946,
      "▁পরিবারের": 1947,
      "▁লাই": 1948,
      "স্ত্র": 1949,
      "▁অনুম": 1950,
      "▁আছে,": 1951,
      "▁দলীয়": 1952,
      "▁অপরাধ": 1953,
      "▁পেছ": 1954,
      "▁ডটকমকে": 1955,
      "▁স্কুল": 1956,
      "▁বিষয়টি": 1957,
      "▁কয়েকটি": 1958,
      "▁ট্রেন": 1959,
      "▁হয়নি\n": 1960,
      "মুখ": 1961,
      "▁সত্যি": 1962,
      "্যাম্প": 1963,
      "▁আরে,": 1964,
      "▁শ্রেণ": 1965,
      "েস": 1966,
      "▁সন্": 1967,
      "▁আলা": 1968,
      "▁আছে\n": 1969,
      "▁প্লি": 1970,
      "েন,": 1971,
      "ায়\n": 1972,
      "▁নাও।\n": 1973,
      "▁নাগর": 1974,
      "▁চম": 1975,
      "▁প্রত": 1976,
      "িতার": 1977,
      "▁করেছে।\n": 1978,
      "▁বলার": 1979,
      "▁তো?\n": 1980,
      "াসা": 1981,
      "েশন": 1982,
      "দ্ধি": 1983,
      "▁সবকিছু": 1984,
      "▁গেছে\n": 1985,
      "▁বেলা": 1986,
      "▁গোল": 1987,
      "▁দাঁড়া": 1988,
      "▁হলো।\n": 1989,
      "▁মূল্য": 1990,
      "▁নিরাপত্ত": 1991,
      "▁দক্ষিণ": 1992,
      "▁ডিসেম্বর": 1993,
      "▁জিনিস": 1994,
      "▁উদ্ধার": 1995,
      "▁প্লিজ": 1996,
      "ক্য": 1997,
      "ডে": 1998,
      "বন": 1999
    },
    "merges": [
      [
        "য",
        "়"
      ],
      [
        "▁",
        "ক"
      ],
      [
        "া",
        "র"
      ],
      [
        "▁",
        "ব"
      ],
      [
        "।",
        "\n"
      ],
      [
        "▁",
        "স"
      ],
      [
        "▁",
        "আ"
      ],
      [
        "▁",
        "প"
      ],
      [
        "ে",
        "র"
      ],
      [
        "▁",
        "ন"
      ],
      [
        "▁",
        "এ"
      ],
      [
        "্",
        "র"
      ],
      [
        "্",
        "য"
      ],
      [
        "▁",
        "ত"
      ],
      [
        "া",
        "ন"
      ],
      [
        "▁",
        "হ"
      ],
      [
        "▁",
        "দ"
      ],
      [
        "▁",
        "ম"
      ],
      [
        "▁ক",
        "র"
      ],
      [
        "ে",
        "ন"
      ],
      [
        "য়",
        "ে"
      ],
      [
        "্",
        "ত"
      ],
      [
        "ক",
        "ে"
      ],
      [
        "▁",
        "অ"
      ],
      [
        "ত",
        "ে"
      ],
      [
        "▁",
        "জ"
      ],
      [
        "ি",
        "ন"
      ],
      [
        "ছ",
        "ে"
      ],
      [
        "▁",
        "য"
      ],
      [
        "ল",
        "ে"
      ],
      [
        "ব",
        "ে"
      ],
      [
        "▁",
        "শ"
      ],
      [
        "া",
        "য়"
      ],
      [
        "▁আ",
        "ম"
      ],
      [
        "▁ন",
        "া"
      ],
      [
        "▁",
        "র"
      ],
      [
        "ড",
        "়"
      ],
      [
        "ল",
        "া"
      ],
      [
        "▁",
        "গ"
      ],
      [
        "▁",
        "চ"
      ],
      [
        "▁প",
        "্র"
      ],
      [
        "ি",
        "ক"
      ],
      [
        "া",
        "ল"
      ],
      [
        "ট",
        "ি"
      ],
      [
        "▁ব",
        "ি"
      ],
      [
        "র",
        "্"
      ],
      [
        "▁",
        "ও"
      ],
      [
        "ট",
        "া"
      ],
      [
        "▁",
        "ভ"
      ],
      [
        "▁ন",
        "ি"
      ],
      [
        "▁ব",
        "া"
      ],
      [
        "দ",
        "ের"
      ],
      [
        "ছ",
        "ি"
      ],
      [
        "ব",
        "া"
      ],
      [
        "▁দ",
        "ে"
      ],
      [
        "▁এ",
        "ক"
      ],
      [
        "▁",
        "উ"
      ],
      [
        "া",
        "ম"
      ],
      [
        "থ",
        "া"
      ],
      [
        "▁",
        "খ"
      ],
      [
        "ি",
        "ত"
      ],
      [
        "▁কর",
        "ে"
      ],
      [
        "▁ত",
        "া"
      ],
      [
        "?",
        "\n"
      ],
      [
        "ত",
        "ি"
      ],
      [
        "র",
        "া"
      ],
      [
        "ন",
        "ে"
      ],
      [
        "▁প",
        "র"
      ],
      [
        "্",
        "ষ"
      ],
      [
        "া",
        "জ"
      ],
      [
        "ু",
        "র"
      ],
      [
        "্য",
        "া"
      ],
      [
        "▁স",
        "ম"
      ],
      [
        "ন",
        "্"
      ],
      [
        "ু",
        "ল"
      ],
      [
        "ি",
        "য়ে"
      ],
      [
        "য়",
        "া"
      ],
      [
        "্",
        "ব"
      ],
      [
        "িন",
        "ি"
      ],
      [
        "▁স",
        "ে"
      ],
      [
        "▁ব",
        "ল"
      ],
      [
        "া",
        "ত"
      ],
      [
        "্",
        "ট"
      ],
      [
        "ি",
        "র"
      ],
      [
        "▁",
        "ফ"
      ],
      [
        "ব",
        "ার"
      ],
      [
        "ক",
        "া"
      ],
      [
        "▁স",
        "া"
      ],
      [
        "থ",
        "ে"
      ],
      [
        "▁হ",
        "য়ে"
      ],
      [
        "▁আ",
        "র"
      ],
      [
        "ছে",
        "।\n"
      ],
      [
        "▁ত",
        "ো"
      ],
      [
        "▁হ",
        "য়"
      ],
      [
        "ছি",
        "ল"
      ],
      [
        "▁ক",
        "ি"
      ],
      [
        "▁প",
        "া"
      ],
      [
        "▁য",
        "া"
      ],
      [
        "ক",
        "ার"
      ],
      [
        "▁ক",
        "ো"
      ],
      [
        "▁আম",
        "ি"
      ],
      [
        "া",
        "স"
      ],
      [
        "ে",
        "শ"
      ],
      [
        "ন",
        "্য"
      ],
      [
        "চ",
        "্"
      ],
      [
        "ন",
        "্ত"
      ],
      [
        "▁ত",
        "ার"
      ],
      [
        "স",
        "্"
      ],
      [
        "▁ত",
        "িনি"
      ],
      [
        "▁না",
        "।\n"
      ],
      [
        "▁প",
        "ার"
      ],
      [
        "▁",
        "ছ"
      ],
      [
        "ন",
        "া"
      ],
      [
        "েন",
        "।\n"
      ],
      [
        "▁দে",
        "খ"
      ],
      [
        "▁",
        "ই"
      ],
      [
        "ন",
        "ি"
      ],
      [
        "গ",
        "ে"
      ],
      [
        "ে",
        "ল"
      ],
      [
        "▁ন",
        "ে"
      ],
      [
        "খ",
        "ন"
      ],
      [
        "ব",
        "ি"
      ],
      [
        "ান",
        "ে"
      ],
      [
        "▁এ",
        "ই"
      ],
      [
        "▁",
        "ঘ"
      ],
      [
        "ক",
        "্ত"
      ],
      [
        "া",
        "ই"
      ],
      [
        "ক",
        "্ষ"
      ],
      [
        "ঙ",
        "্"
      ],
      [
        "▁",
        "ধ"
      ],
      [
        "য়",
        "ার"
      ],
      [
        "▁হ",
        "বে"
      ],
      [
        "ষ",
        "্"
      ],
      [
        "▁জ",
        "ান"
      ],
      [
        "▁",
        "ল"
      ],
      [
        "স",
        "ে"
      ],
      [
        "▁ম",
        "া"
      ],
      [
        "ু",
        "ম"
      ],
      [
        "্",
        "প"
      ],
      [
        "দ",
        "্"
      ],
      [
        "▁",
        "থে"
      ],
      [
        "▁থে",
        "কে"
      ],
      [
        "ভ",
        "া"
      ],
      [
        "র",
        "ে"
      ],
      [
        "▁আম",
        "ার"
      ],
      [
        "▁",
        "থা"
      ],
      [
        "▁",
        "ড"
      ],
      [
        "▁ক",
        "া"
      ],
      [
        "▁আম",
        "া"
      ],
      [
        "▁য",
        "ে"
      ],
      [
        "ন",
        "ের"
      ],
      [
        "▁দ",
        "ু"
      ],
      [
        "▁আ",
        "স"
      ],
      [
        "ো",
        "গ"
      ],
      [
        "▁স",
        "্"
      ],
      [
        "▁",
        "ট"
      ],
      [
        "ু",
        "ন"
      ],
      [
        "▁কর",
        "া"
      ],
      [
        "▁",
        "ছিল"
      ],
      [
        "▁দ",
        "ি"
      ],
      [
        "ত",
        "া"
      ],
      [
        "▁জ",
        "ন্য"
      ],
      [
        "ছে",
        "\n"
      ],
      [
        "▁ক",
        "থা"
      ],
      [
        "▁পর",
        "ি"
      ],
      [
        "্",
        "ম"
      ],
      [
        "▁কর",
        "তে"
      ],
      [
        "▁কো",
        "ন"
      ],
      [
        "ছ",
        "েন"
      ],
      [
        "▁নি",
        "য়ে"
      ],
      [
        "ো",
        "।\n"
      ],
      [
        "ম",
        "া"
      ],
      [
        "▁ক",
        "ী"
      ],
      [
        "ধ",
        "্য"
      ],
      [
        "ছ",
        "ু"
      ],
      [
        "ী",
        "র"
      ],
      [
        "▁",
        "লা"
      ],
      [
        "▁ক",
        "াজ"
      ],
      [
        "▁এ",
        "টা"
      ],
      [
        "ো",
        "র"
      ],
      [
        "▁স",
        "ং"
      ],
      [
        "ি",
        "ল"
      ],
      [
        "ও",
        "য়া"
      ],
      [
        "▁ব",
        "লে"
      ],
      [
        "▁উ",
        "প"
      ],
      [
        "▁আ",
        "প"
      ],
      [
        "দ্",
        "ধ"
      ],
      [
        "!",
        "\n"
      ],
      [
        "জ",
        "ন"
      ],
      [
        "▁র",
        "া"
      ],
      [
        "স",
        "্ত"
      ],
      [
        "▁দ",
        "িয়ে"
      ],
      [
        "ী",
        "য়"
      ],
      [
        "ড়",
        "ে"
      ],
      [
        "▁প্র",
        "তি"
      ],
      [
        "দ",
        "েশ"
      ],
      [
        "ার",
        "া"
      ],
      [
        "ড়",
        "া"
      ],
      [
        "▁আমা",
        "দের"
      ],
      [
        "▁ক",
        "ে"
      ],
      [
        "িন",
        "্ত"
      ],
      [
        "▁বি",
        "শ"
      ],
      [
        "▁ব",
        "্য"
      ],
      [
        "▁স",
        "ব"
      ],
      [
        "ন্ত",
        "্র"
      ],
      [
        "▁কি",
        "ছু"
      ],
      [
        "ন্",
        "দ"
      ],
      [
        "▁অ",
        "নে"
      ],
      [
        "▁এ",
        "র"
      ],
      [
        "▁ম",
        "ু"
      ],
      [
        "▁অ",
        "ব"
      ],
      [
        "ি",
        "শ"
      ],
      [
        "▁ম",
        "ান"
      ],
      [
        "ল",
        "ো"
      ],
      [
        "াল",
        "ো"
      ],
      [
        "▁থা",
        "ক"
      ],
      [
        "▁স",
        "ু"
      ],
      [
        "▁এ",
        "খন"
      ],
      [
        "র",
        "কার"
      ],
      [
        "▁শ",
        "ে"
      ],
      [
        "ম",
        "ে"
      ],
      [
        "▁ক",
        "ার"
      ],
      [
        "▁বল",
        "েন"
      ],
      [
        "▁আম",
        "রা"
      ],
      [
        "▁সম",
        "য়"
      ],
      [
        "▁দে",
        "শ"
      ],
      [
        "স্",
        "থ"
      ],
      [
        "▁খ",
        "ু"
      ],
      [
        "খ",
        "ানে"
      ],
      [
        "▁ত",
        "ুম"
      ],
      [
        "▁অনে",
        "ক"
      ],
      [
        "লা",
        "ম"
      ],
      [
        "▁তুম",
        "ি"
      ],
      [
        "ে",
        "য়ে"
      ],
      [
        "▁দ",
        "া"
      ],
      [
        "ম",
        "ার"
      ],
      [
        "দ",
        "ি"
      ],
      [
        "্",
        "ন"
      ],
      [
        "িক",
        "্ষ"
      ],
      [
        "▁ক",
        "িন্ত"
      ],
      [
        "▁কিন্ত",
        "ু"
      ],
      [
        "্",
        "ড"
      ],
      [
        "▁র",
        "াজ"
      ],
      [
        "ই",
        "।\n"
      ],
      [
        "ম",
        "ন"
      ],
      [
        "ক",
        "ি"
      ],
      [
        "ষ",
        "্ট"
      ],
      [
        "▁য",
        "ায়"
      ],
      [
        "ড়",
        "ি"
      ],
      [
        "▁নি",
        "র্"
      ],
      [
        "ষ্",
        "ঠ"
      ],
      [
        "ধ",
        "ান"
      ],
      [
        "▁অ",
        "ন"
      ],
      [
        "ুর",
        "ু"
      ],
      [
        "ছি",
        "।\n"
      ],
      [
        "▁ভ",
        "ালো"
      ],
      [
        "▁এ",
        "ব"
      ],
      [
        "▁বা",
        "ং"
      ],
      [
        "ঙ্",
        "গে"
      ],
      [
        "▁এব",
        "ং"
      ],
      [
        "জ",
        "ে"
      ],
      [
        "▁এক",
        "টি"
      ],
      [
        "▁কোন",
        "ো"
      ],
      [
        "ন্",
        "ধ"
      ],
      [
        "র",
        "্ত"
      ],
      [
        "া",
        "প"
      ],
      [
        "ি",
        "য়া"
      ],
      [
        "্",
        "চ"
      ],
      [
        "▁গ",
        "ে"
      ],
      [
        "ম",
        "ান"
      ],
      [
        "▁ভ",
        "া"
      ],
      [
        "ত",
        "ো"
      ],
      [
        "াত",
        "্র"
      ],
      [
        "ো",
        "ট"
      ],
      [
        "▁",
        "ঠ"
      ],
      [
        "ভা",
        "বে"
      ],
      [
        "গ",
        "ুল"
      ],
      [
        "▁তা",
        "ঁ"
      ],
      [
        "▁ক",
        "েন"
      ],
      [
        "ও",
        "য়ার"
      ],
      [
        "▁এক",
        "টা"
      ],
      [
        "র",
        "ি"
      ],
      [
        "▁ব",
        "ে"
      ],
      [
        "▁বাং",
        "লা"
      ],
      [
        "ক্ত",
        "ি"
      ],
      [
        "ন",
        "ার"
      ],
      [
        "▁স",
        "রকার"
      ],
      [
        "▁",
        "ঢ"
      ],
      [
        "▁দ",
        "িন"
      ],
      [
        "▁আ",
        "ছে"
      ],
      [
        "▁শ",
        "িক্ষ"
      ],
      [
        "▁স",
        "ঙ্গে"
      ],
      [
        "▁ম",
        "ধ্য"
      ],
      [
        "বে",
        "।\n"
      ],
      [
        "▁ব",
        "েশ"
      ],
      [
        "▁শ",
        "ু"
      ],
      [
        "ু",
        "ষ"
      ],
      [
        "স",
        "ি"
      ],
      [
        "▁গ",
        "্র"
      ],
      [
        "▁তা",
        "দের"
      ],
      [
        "ৃ",
        "ত"
      ],
      [
        "▁কর",
        "েন"
      ],
      [
        "য়",
        "ের"
      ],
      [
        "য",
        "োগ"
      ],
      [
        "গ",
        "্র"
      ],
      [
        "দ",
        "্য"
      ],
      [
        "ঙ্",
        "গ"
      ],
      [
        "▁ম",
        "নে"
      ],
      [
        "▁খ",
        "া"
      ],
      [
        "▁দ",
        "ল"
      ],
      [
        "▁ব",
        "্যা"
      ],
      [
        "▁মান",
        "ুষ"
      ],
      [
        "ার",
        "্"
      ],
      [
        "া",
        "ক"
      ],
      [
        "ট",
        "ে"
      ],
      [
        "ো",
        "ধ"
      ],
      [
        "▁ম",
        "ে"
      ],
      [
        "্",
        "দ"
      ],
      [
        "ান",
        "্ত"
      ],
      [
        "▁মধ্য",
        "ে"
      ],
      [
        "▁তো",
        "মার"
      ],
      [
        "প",
        "র"
      ],
      [
        "দ",
        "িন"
      ],
      [
        "▁হবে",
        "।\n"
      ],
      [
        "খ",
        "ে"
      ],
      [
        "া",
        "হ"
      ],
      [
        "▁হ",
        "চ্"
      ],
      [
        "▁বাংলা",
        "দেশ"
      ],
      [
        "▁ব",
        "ছ"
      ],
      [
        "র",
        "ের"
      ],
      [
        "ি",
        "।\n"
      ],
      [
        "▁ব",
        "ড়"
      ],
      [
        "▁জ",
        "ন"
      ],
      [
        "▁আ",
        "ছে।\n"
      ],
      [
        "▁ন",
        "য়"
      ],
      [
        "ভ",
        "ি"
      ],
      [
        "▁তার",
        "া"
      ],
      [
        "▁ঠ",
        "িক"
      ],
      [
        "্য",
        "ান"
      ],
      [
        "ত",
        "্র"
      ],
      [
        "ক",
        "ের"
      ],
      [
        "গুল",
        "ো"
      ],
      [
        "ক",
        "ম"
      ],
      [
        "▁অন",
        "ু"
      ],
      [
        "ত",
        "্ত"
      ],
      [
        "্র",
        "ি"
      ],
      [
        "থ",
        "ম"
      ],
      [
        "▁শে",
        "ষ"
      ],
      [
        "ী",
        "ব"
      ],
      [
        "▁চ",
        "ল"
      ],
      [
        "▁ক",
        "্ষ"
      ],
      [
        "চ",
        "িত"
      ],
      [
        "▁ক",
        "ম"
      ],
      [
        "▁",
        "টা"
      ],
      [
        "▁শ",
        "ুরু"
      ],
      [
        "▁এ",
        "সে"
      ],
      [
        "▁দেখ",
        "া"
      ],
      [
        "া",
        "দ"
      ],
      [
        "▁হ",
        "াস"
      ],
      [
        "▁ব্য",
        "ব"
      ],
      [
        "▁খু",
        "ব"
      ],
      [
        "▁আ",
        "গে"
      ],
      [
        "▁হয়",
        "।\n"
      ],
      [
        "▁সম",
        "্প"
      ],
      [
        "▁স",
        "হ"
      ],
      [
        "▁প্র",
        "ধান"
      ],
      [
        "ল",
        "ি"
      ],
      [
        "ো",
        "ক"
      ],
      [
        "▁বি",
        "ষ"
      ],
      [
        "▁স",
        "ি"
      ],
      [
        "বা",
        "দ"
      ],
      [
        "ও",
        "।\n"
      ],
      [
        "ো",
        "ন"
      ],
      [
        "র্",
        "থ"
      ],
      [
        "▁সা",
        "থে"
      ],
      [
        "▁বিশ",
        "্ব"
      ],
      [
        "জ",
        "্"
      ],
      [
        "স",
        "া"
      ],
      [
        "▁রা",
        "খ"
      ],
      [
        "্য",
        "ার"
      ],
      [
        "▁হ",
        "া"
      ],
      [
        "▁ব",
        "ু"
      ],
      [
        "▁ম",
        "ো"
      ],
      [
        "র",
        "ণ"
      ],
      [
        "ার",
        "ে"
      ],
      [
        "▁পার",
        "ে"
      ],
      [
        "প",
        "ুর"
      ],
      [
        "ান",
        "ি"
      ],
      [
        "▁হয়ে",
        "ছে"
      ],
      [
        "ন্ত্র",
        "ী"
      ],
      [
        "স",
        "ব"
      ],
      [
        "▁ম",
        "হ"
      ],
      [
        "▁কর",
        "্ম"
      ],
      [
        "দ",
        "া"
      ],
      [
        "ান",
        "ের"
      ],
      [
        "▁অ",
        "ন্য"
      ],
      [
        "া",
        "কা"
      ],
      [
        "▁কর",
        "ব"
      ],
      [
        "টি",
        "র"
      ],
      [
        "▁এ",
        "খানে"
      ],
      [
        "▁চ",
        "ে"
      ],
      [
        "▁র",
        "ে"
      ],
      [
        "ল",
        "্প"
      ],
      [
        "জ",
        "ি"
      ],
      [
        "▁না",
        "ম"
      ],
      [
        "াম",
        "ী"
      ],
      [
        "▁ব",
        "ন্ধ"
      ],
      [
        "▁দু",
        "ই"
      ],
      [
        "ং",
        "শ"
      ],
      [
        "বা",
        "স"
      ],
      [
        "ক",
        "্র"
      ],
      [
        "চ",
        "ার"
      ],
      [
        "হ",
        "ার"
      ],
      [
        "ান",
        "া"
      ],
      [
        "েন",
        "\n"
      ],
      [
        "বা",
        "ই"
      ],
      [
        "ক",
        "াল"
      ],
      [
        "▁না",
        ","
      ],
      [
        "স্",
        "থা"
      ],
      [
        "ড",
        "ি"
      ],
      [
        "ী",
        "ন"
      ],
      [
        "▁কর",
        "ার"
      ],
      [
        "▁য",
        "ু"
      ],
      [
        "▁",
        "ছে"
      ],
      [
        "▁আমা",
        "কে"
      ],
      [
        "▁স",
        "াম"
      ],
      [
        "▁আ",
        "গ"
      ],
      [
        "ভ",
        "িন"
      ],
      [
        "▁আ",
        "জ"
      ],
      [
        "▁খ",
        "ে"
      ],
      [
        "▁অ",
        "ধ"
      ],
      [
        "▁চ",
        "াই"
      ],
      [
        "▁হয়",
        "\n"
      ],
      [
        "ব",
        "্য"
      ],
      [
        "▁গ",
        "া"
      ],
      [
        "কা",
        "শ"
      ],
      [
        "প",
        "্ত"
      ],
      [
        "▁কা",
        "ছে"
      ],
      [
        "▁কার",
        "ণ"
      ],
      [
        "ও",
        "য়"
      ],
      [
        "▁হ",
        "ি"
      ],
      [
        "চ",
        "ে"
      ],
      [
        "ন",
        "ী"
      ],
      [
        "্",
        "স"
      ],
      [
        "▁গ",
        "ত"
      ],
      [
        "প",
        "ি"
      ],
      [
        "হ",
        "া"
      ],
      [
        "ত",
        "্য"
      ],
      [
        "▁প্র",
        "থম"
      ],
      [
        "য়",
        "েন"
      ],
      [
        "▁ম",
        "ি"
      ],
      [
        "▁তা",
        "ই"
      ],
      [
        "শ",
        "ি"
      ],
      [
        "▁অ",
        "প"
      ],
      [
        "▁র",
        "য়ে"
      ],
      [
        "▁স্",
        "বা"
      ],
      [
        "▁হ",
        "লে"
      ],
      [
        "▁সে",
        "ই"
      ],
      [
        "▁নে",
        "ই।\n"
      ],
      [
        "ি",
        "তে"
      ],
      [
        "ূ",
        "র্"
      ],
      [
        "▁হয়ে",
        "ছে\n"
      ],
      [
        "ু",
        "ক"
      ],
      [
        "▁ঢ",
        "াকা"
      ],
      [
        "▁ত",
        "বে"
      ],
      [
        "▁না",
        "\n"
      ],
      [
        "ু",
        "লে"
      ],
      [
        "জ",
        "ের"
      ],
      [
        "ল",
        "েন"
      ],
      [
        "▁আ",
        "হ"
      ],
      [
        "ান",
        "ো"
      ],
      [
        "▁বা",
        "বা"
      ],
      [
        "ঠ",
        "ে"
      ],
      [
        "স",
        "্ট"
      ],
      [
        "ার",
        "ণ"
      ],
      [
        "▁আ",
        "ব"
      ],
      [
        "▁নির্",
        "বা"
      ],
      [
        "▁বছ",
        "র"
      ],
      [
        "প",
        "্র"
      ],
      [
        "য়",
        "ো"
      ],
      [
        "▁স",
        "ো"
      ],
      [
        "▁গ",
        "ো"
      ],
      [
        "▁ত",
        "িন"
      ],
      [
        "▁লা",
        "গ"
      ],
      [
        "▁ড",
        "ি"
      ],
      [
        "থ",
        "ায়"
      ],
      [
        "▁বি",
        "র"
      ],
      [
        "▁দে",
        "ওয়া"
      ],
      [
        "▁তাঁ",
        "র"
      ],
      [
        "▁তা",
        "কে"
      ],
      [
        "▁কর",
        "েন।\n"
      ],
      [
        "▁পর",
        "্য"
      ],
      [
        "ত",
        "ুন"
      ],
      [
        "লে",
        "খ"
      ],
      [
        "▁দেশ",
        "ের"
      ],
      [
        "ছ",
        "া"
      ],
      [
        "জ",
        "া"
      ],
      [
        "ল",
        "ের"
      ],
      [
        "▁ঘ",
        "ট"
      ],
      [
        "ম",
        "্ব"
      ],
      [
        "▁ন",
        "তুন"
      ],
      [
        "▁জ",
        "ীব"
      ],
      [
        "▁ভ",
        "াই"
      ],
      [
        "▁আ",
        "ই"
      ],
      [
        "▁প",
        "ড়ে"
      ],
      [
        "▁প্র",
        "শ"
      ],
      [
        "▁ছ",
        "োট"
      ],
      [
        "ল",
        "।\n"
      ],
      [
        "▁এ",
        "মন"
      ],
      [
        "▁ম",
        "তো"
      ],
      [
        "▁ত",
        "খন"
      ],
      [
        "▁নে",
        "ই"
      ],
      [
        "ট",
        "ার"
      ],
      [
        "ঞ",
        "্"
      ],
      [
        "প",
        "তি"
      ],
      [
        "ম",
        "ন্ত্রী"
      ],
      [
        "▁আর",
        "ও"
      ],
      [
        "▁ল",
        "ি"
      ],
      [
        "▁হচ্",
        "ছে"
      ],
      [
        "ত",
        "িক"
      ],
      [
        "▁ব",
        "ই"
      ],
      [
        "▁স",
        "্যার"
      ],
      [
        "▁চ",
        "া"
      ],
      [
        "▁বা",
        "ড়ি"
      ],
      [
        "জ্",
        "ঞ"
      ],
      [
        "ঞ",
        "্চ"
      ],
      [
        "শ",
        "ে"
      ],
      [
        "▁ভ",
        "ার"
      ],
      [
        "ে",
        "ক"
      ],
      [
        "্",
        "লা"
      ],
      [
        "▁স",
        "্ব"
      ],
      [
        "▁হবে",
        "\n"
      ],
      [
        "ত",
        "্যা"
      ],
      [
        "ষ",
        "ণ"
      ],
      [
        "▁দেখ",
        "ে"
      ],
      [
        "▁আপ",
        "নি"
      ],
      [
        "্",
        "টি"
      ],
      [
        "▁ধ",
        "র"
      ],
      [
        "ট",
        "ু"
      ],
      [
        "▁অ",
        "ভি"
      ],
      [
        "▁চ",
        "লে"
      ],
      [
        "ূ",
        "ল"
      ],
      [
        "▁প",
        "ড়"
      ],
      [
        "▁থা",
        "কে"
      ],
      [
        "▁দি",
        "তে"
      ],
      [
        "ু",
        "ত"
      ],
      [
        "▁আ",
        "শ"
      ],
      [
        "▁গ",
        "েল"
      ],
      [
        "এ",
        "ন"
      ],
      [
        "ল",
        "ার"
      ],
      [
        "▁আ",
        "ল"
      ],
      [
        "▁",
        "টি"
      ],
      [
        "▁র",
        "ো"
      ],
      [
        "ঁ",
        "চ"
      ],
      [
        "স",
        "্য"
      ],
      [
        "▁স",
        "বাই"
      ],
      [
        "▁প",
        "ি"
      ],
      [
        "▁না",
        "?\n"
      ],
      [
        "▁চ",
        "ার"
      ],
      [
        "▁ও",
        "ই"
      ],
      [
        "▁করে",
        "।\n"
      ],
      [
        "▁জান",
        "ান"
      ],
      [
        "▁আপ",
        "নার"
      ],
      [
        "▁বেশ",
        "ি"
      ],
      [
        "▁ফ",
        "ির"
      ],
      [
        "▁যায়",
        "।\n"
      ],
      [
        "উ",
        "জ"
      ],
      [
        "ধ",
        "ু"
      ],
      [
        "ষ্ট",
        "্র"
      ],
      [
        "▁আ",
        "বার"
      ],
      [
        "▁হ",
        "লো"
      ],
      [
        "দ্য",
        "াল"
      ],
      [
        "▁টা",
        "কা"
      ],
      [
        "▁প",
        "ুল"
      ],
      [
        "▁য",
        "োগ"
      ],
      [
        "র্",
        "ম"
      ],
      [
        "ছ",
        "েন।\n"
      ],
      [
        "ত",
        "ার"
      ],
      [
        "▁ম",
        "াস"
      ],
      [
        "▁পর",
        "ে"
      ],
      [
        "▁",
        "১"
      ],
      [
        "▁হ",
        "তে"
      ],
      [
        "▁প্র",
        "কাশ"
      ],
      [
        "র্",
        "শ"
      ],
      [
        "ভা",
        "ব"
      ],
      [
        "▁কে",
        "উ"
      ],
      [
        "ী",
        "গ"
      ],
      [
        "ী",
        "দের"
      ],
      [
        "▁স",
        "দ"
      ],
      [
        "▁প",
        "ে"
      ],
      [
        "▁হ",
        "াজ"
      ],
      [
        "বে",
        "শ"
      ],
      [
        "ছেন",
        "\n"
      ],
      [
        "▁পুল",
        "িশ"
      ],
      [
        "▁ব",
        "ৃ"
      ],
      [
        "প",
        "া"
      ],
      [
        "ব",
        "ল"
      ],
      [
        "▁গ",
        "িয়ে"
      ],
      [
        "ন্",
        "ন"
      ],
      [
        "ত",
        "ের"
      ],
      [
        "ফ",
        "োর"
      ],
      [
        "▁এক",
        "জন"
      ],
      [
        "▁দি",
        "কে"
      ],
      [
        "িক",
        "া"
      ],
      [
        "▁ফ",
        "ে"
      ],
      [
        "▁স্",
        "থ"
      ],
      [
        "ভিন",
        "্ন"
      ],
      [
        "▁",
        "ঝ"
      ],
      [
        "▁ব",
        "লা"
      ],
      [
        "▁অ",
        "ংশ"
      ],
      [
        "▁সে",
        "টা"
      ],
      [
        "▁ছ",
        "া"
      ],
      [
        "ম",
        "ি"
      ],
      [
        "ক্ষ",
        "ে"
      ],
      [
        "ব",
        "র"
      ],
      [
        "▁শ",
        "্র"
      ],
      [
        "াল",
        "ের"
      ],
      [
        "য়েন",
        "্টি"
      ],
      [
        "▁নির্বা",
        "চ"
      ],
      [
        "শ",
        "্চ"
      ],
      [
        "ি",
        "ব"
      ],
      [
        "▁শে",
        "খ"
      ],
      [
        "প",
        "ার"
      ],
      [
        "▁আ",
        "ন"
      ],
      [
        "েন",
        "্ট"
      ],
      [
        "িক",
        "ার"
      ],
      [
        "▁বি",
        "ভিন্ন"
      ],
      [
        "ক্ষ",
        "া"
      ],
      [
        "▁র",
        "হ"
      ],
      [
        "্",
        "ল"
      ],
      [
        "▁এক",
        "টু"
      ],
      [
        "▁যে",
        "তে"
      ],
      [
        "▁শু",
        "ধু"
      ],
      [
        "ূর্",
        "ণ"
      ],
      [
        "ট",
        "কম"
      ],
      [
        "স",
        "ের"
      ],
      [
        "িন",
        "া"
      ],
      [
        "▁বি",
        "ড"
      ],
      [
        "▁উ",
        "ত্ত"
      ],
      [
        "▁পা",
        "ঠ"
      ],
      [
        "▁ক",
        "খন"
      ],
      [
        "▁ব",
        "ো"
      ],
      [
        "▁আ",
        "লো"
      ],
      [
        "▁হ",
        "ই"
      ],
      [
        "▁বি",
        "এন"
      ],
      [
        "িনি",
        "উজ"
      ],
      [
        "▁যা",
        "চ্"
      ],
      [
        "ষ্",
        "টা"
      ],
      [
        "▁বিড",
        "িনিউজ"
      ],
      [
        "স",
        "ম"
      ],
      [
        "▁চ",
        "াল"
      ],
      [
        "তি",
        "র"
      ],
      [
        "য়েন্টি",
        "ফোর"
      ],
      [
        "গ",
        "া"
      ],
      [
        "▁ম",
        "াম"
      ],
      [
        "াত",
        "া"
      ],
      [
        "ষ্",
        "টি"
      ],
      [
        "▁হাজ",
        "ার"
      ],
      [
        "ব",
        "ো"
      ],
      [
        "স",
        "হ"
      ],
      [
        "▁ড",
        "টকম"
      ],
      [
        "ার্",
        "থ"
      ],
      [
        "ন",
        "ায়"
      ],
      [
        "▁সম",
        "্ম"
      ],
      [
        "▁তো",
        "মা"
      ],
      [
        "▁ছ",
        "াত্র"
      ],
      [
        "▁ই",
        "উ"
      ],
      [
        "ন্দ",
        "র"
      ],
      [
        "▁নয়",
        "।\n"
      ],
      [
        "দ",
        "ে"
      ],
      [
        "▁জ",
        "ি"
      ],
      [
        "▁ই",
        "স"
      ],
      [
        "ব",
        "।\n"
      ],
      [
        "▁ব",
        "স"
      ],
      [
        "▁ত",
        "ৈ"
      ],
      [
        "য়ে",
        "ক"
      ],
      [
        "▁নি",
        "জে"
      ],
      [
        "ধ",
        "ারণ"
      ],
      [
        "▁য",
        "দি"
      ],
      [
        "▁খ",
        "েল"
      ],
      [
        "▁ল",
        "োক"
      ],
      [
        "▁স্",
        "ক"
      ],
      [
        "▁পর্য",
        "ন্ত"
      ],
      [
        "▁প",
        "ুর"
      ],
      [
        "▁কর",
        "ি"
      ],
      [
        "য়ো",
        "জন"
      ],
      [
        "ব",
        "েন"
      ],
      [
        "▁ট",
        "ো"
      ],
      [
        "▁হি",
        "সে"
      ],
      [
        "শ",
        "্য"
      ],
      [
        "▁শ",
        "হ"
      ],
      [
        "▁জান",
        "িয়ে"
      ],
      [
        "▁দু",
        "র্"
      ],
      [
        "গ্র",
        "হ"
      ],
      [
        "▁বিষ",
        "য়"
      ],
      [
        "▁বু",
        "ঝ"
      ],
      [
        "ু",
        "দ্ধ"
      ],
      [
        "▁ক",
        "য়েক"
      ],
      [
        "▁দেখ",
        "তে"
      ],
      [
        "▁এ",
        "সব"
      ],
      [
        "▁য",
        "ান"
      ],
      [
        "বা",
        "হ"
      ],
      [
        "▁ট",
        "্র"
      ],
      [
        "▁প্রতি",
        "ষ্ঠ"
      ],
      [
        "▁টো",
        "য়েন্টিফোর"
      ],
      [
        "▁হিসে",
        "বে"
      ],
      [
        "▁প",
        "েয়ে"
      ],
      [
        "▁ম",
        "ত"
      ],
      [
        "▁ধ",
        "রে"
      ],
      [
        "▁ছিল",
        "।\n"
      ],
      [
        "ড়",
        "িয়ে"
      ],
      [
        "▁যা",
        "বে"
      ],
      [
        "স্থ",
        "িত"
      ],
      [
        "▁অ",
        "র্"
      ],
      [
        "▁প্র",
        "া"
      ],
      [
        "▁ও",
        "কে"
      ],
      [
        "▁মু",
        "ক্তি"
      ],
      [
        "▁প্রধান",
        "মন্ত্রী"
      ],
      [
        "▁আ",
        "ওয়"
      ],
      [
        "▁ম",
        "ন"
      ],
      [
        "▁বল",
        "তে"
      ],
      [
        "▁হয়ে",
        "ছে।\n"
      ],
      [
        "▁ইস",
        "লাম"
      ],
      [
        "গ",
        "র"
      ],
      [
        "▁উ",
        "ৎ"
      ],
      [
        "▁শিক্ষ",
        "া"
      ],
      [
        "▁বাংলাদেশ",
        "ের"
      ],
      [
        "▁অনু",
        "ষ্ঠ"
      ],
      [
        "▁",
        "২"
      ],
      [
        "▁ভ",
        "ে"
      ],
      [
        "▁তা",
        "হ"
      ],
      [
        "▁সু",
        "ন্দর"
      ],
      [
        "্দ",
        "্র"
      ],
      [
        "▁ছে",
        "লে"
      ],
      [
        "ে",
        "ষ"
      ],
      [
        "▁",
        "\""
      ],
      [
        "▁প",
        "াল"
      ],
      [
        "▁বিশ",
        "েষ"
      ],
      [
        "দ",
        "্র"
      ],
      [
        "ব",
        "র্ত"
      ],
      [
        "▁ব",
        "ের"
      ],
      [
        "▁স",
        "্ট"
      ],
      [
        "▁জ",
        "ে"
      ],
      [
        "▁ছ",
        "ু"
      ],
      [
        "জ",
        "ার"
      ],
      [
        "▁নি",
        "জের"
      ],
      [
        "▁দে",
        "য়"
      ],
      [
        "চ্",
        "চ"
      ],
      [
        "▁দল",
        "ের"
      ],
      [
        "▁হ",
        "ন"
      ],
      [
        "▁ল",
        "ীগ"
      ],
      [
        "▁গ্র",
        "াম"
      ],
      [
        "▁আ",
        "দ"
      ],
      [
        "ঞ্",
        "জ"
      ],
      [
        "▁সদ",
        "স্য"
      ],
      [
        "▁রহ",
        "মান"
      ],
      [
        "ণ",
        "্ড"
      ],
      [
        "▁",
        "লেখ"
      ],
      [
        "▁অ",
        "র্থ"
      ],
      [
        "▁শ",
        "ী"
      ],
      [
        "▁শ",
        "িশ"
      ],
      [
        "▁উ",
        "দ্"
      ],
      [
        "লাম",
        "।\n"
      ],
      [
        "ম্ব",
        "র"
      ],
      [
        "্",
        "বাস"
      ],
      [
        "▁ম",
        "ার"
      ],
      [
        "▁ও",
        "র"
      ],
      [
        "▁নে",
        "তা"
      ],
      [
        "▁দা",
        "ঁ"
      ],
      [
        "এ",
        "স"
      ],
      [
        "ট",
        "ের"
      ],
      [
        "▁দ",
        "্ব"
      ],
      [
        "▁কর",
        "লে"
      ],
      [
        "▁ছ",
        "বি"
      ],
      [
        "▁পরি",
        "চ"
      ],
      [
        "▁মানুষ",
        "ের"
      ],
      [
        "ত",
        "্ব"
      ],
      [
        "ো",
        "স"
      ],
      [
        "▁",
        "থ"
      ],
      [
        "িন",
        "ে"
      ],
      [
        "▁গ",
        "ণ"
      ],
      [
        "▁হয়",
        "নি"
      ],
      [
        "বি",
        "দ্যাল"
      ],
      [
        "▁ধর",
        "নের"
      ],
      [
        "ম",
        "ু"
      ],
      [
        "▁বা",
        "ড়"
      ],
      [
        "▁দেশ",
        "ে"
      ],
      [
        "▁আওয়",
        "ামী"
      ],
      [
        "ী",
        "ল"
      ],
      [
        "▁ক",
        "ত"
      ],
      [
        "▁ম",
        "্যা"
      ],
      [
        "াল",
        "ি"
      ],
      [
        "▁প",
        "ৌ"
      ],
      [
        "▁জ",
        "াত"
      ],
      [
        "▁কো",
        "থায়"
      ],
      [
        "▁বিষ",
        "য়ে"
      ],
      [
        "ভ",
        "ব"
      ],
      [
        "স",
        "ং"
      ],
      [
        "ু",
        "ণ"
      ],
      [
        "য়",
        "ন"
      ],
      [
        "▁ম",
        "েয়ে"
      ],
      [
        "িত",
        "া"
      ],
      [
        "▁কার",
        "্য"
      ],
      [
        "▁সরকার",
        "ের"
      ],
      [
        "▁বিশ্ব",
        "বিদ্যাল"
      ],
      [
        "▁কারণ",
        "ে"
      ],
      [
        "▁তৈ",
        "রি"
      ],
      [
        "▁ব",
        "ৈ"
      ],
      [
        "▁য",
        "েন"
      ],
      [
        "ায়",
        "।\n"
      ],
      [
        "মা",
        "ণ"
      ],
      [
        "▁আপ",
        "না"
      ],
      [
        "▁করেন",
        "\n"
      ],
      [
        "▁সম্প",
        "র্"
      ],
      [
        "▁খে",
        "লা"
      ],
      [
        "▁ফির",
        "ে"
      ],
      [
        "ফ",
        "ি"
      ],
      [
        "▁প্র",
        "ায়"
      ],
      [
        "▁উ",
        "চিত"
      ],
      [
        "▁সে",
        "খানে"
      ],
      [
        "▁অব",
        "স্থ"
      ],
      [
        "▁দা",
        "বি"
      ],
      [
        "্যান",
        "্ড"
      ],
      [
        "চ",
        "না"
      ],
      [
        "▁এ",
        "তে"
      ],
      [
        "▁হ",
        "াত"
      ],
      [
        "▁মা",
        "ধ্য"
      ],
      [
        "▁কেন",
        "?\n"
      ],
      [
        "ু",
        "ই"
      ],
      [
        "ের",
        "ে"
      ],
      [
        "▁এ",
        "লা"
      ],
      [
        "▁কর",
        "বে"
      ],
      [
        "বে",
        "দ"
      ],
      [
        "▁বা",
        "স"
      ],
      [
        "িত",
        "্ব"
      ],
      [
        "▁সা",
        "লে"
      ],
      [
        "▁সা",
        "ধারণ"
      ],
      [
        "▁কখন",
        "ো"
      ],
      [
        "ৈ",
        "তিক"
      ],
      [
        "▁স",
        "ত্য"
      ],
      [
        "▁এ",
        "বার"
      ],
      [
        "▁হ",
        "ল"
      ],
      [
        "▁দ",
        "ায়"
      ],
      [
        "▁ম",
        "ৃত"
      ],
      [
        "▁জ",
        "া"
      ],
      [
        "▁গ",
        "ুল"
      ],
      [
        "▁পর",
        "ী"
      ],
      [
        "কা",
        "লে"
      ],
      [
        "▁তাহ",
        "লে"
      ],
      [
        "থ",
        "্য"
      ],
      [
        "ম",
        "িক"
      ],
      [
        "▁",
        "("
      ],
      [
        "▁ন",
        "ার"
      ],
      [
        "িক",
        "ি"
      ],
      [
        "▁বা",
        "ই"
      ],
      [
        "▁উ",
        "ন্ন"
      ],
      [
        "▁সম",
        "্"
      ],
      [
        "চ্",
        "ছা"
      ],
      [
        "▁তোমা",
        "কে"
      ],
      [
        "▁জাত",
        "ীয়"
      ],
      [
        "ী",
        "রা"
      ],
      [
        "▁ব",
        "ক্ত"
      ],
      [
        "▁ম",
        "ূল"
      ],
      [
        "▁ও",
        "পর"
      ],
      [
        "▁খ",
        "ো"
      ],
      [
        "▁মু",
        "খ"
      ],
      [
        "▁আছে",
        "?\n"
      ],
      [
        "▁ব্যব",
        "স্থা"
      ],
      [
        "ধ",
        "া"
      ],
      [
        "শ",
        "া"
      ],
      [
        "▁ন",
        "ানা"
      ],
      [
        "▁হ",
        "্যা"
      ],
      [
        "▁চ",
        "ু"
      ],
      [
        "▁নি",
        "য়"
      ],
      [
        "ন্ত্র",
        "ণ"
      ],
      [
        "▁জীব",
        "ন"
      ],
      [
        "▁দ",
        "ূ"
      ],
      [
        "▁উ",
        "ঠ"
      ],
      [
        "▁ভা",
        "ব"
      ],
      [
        "▁খা",
        "লে"
      ],
      [
        "ত্র",
        "ে"
      ],
      [
        "▁চে",
        "ষ্টা"
      ],
      [
        "▁রে",
        "খে"
      ],
      [
        "দ",
        "ী"
      ],
      [
        "▁ব",
        "ার"
      ],
      [
        "▁হ",
        "োস"
      ],
      [
        "েন",
        "ে"
      ],
      [
        "▁জ",
        "ায়"
      ],
      [
        "্যা",
        "প"
      ],
      [
        "ুন",
        "।\n"
      ],
      [
        "প",
        "ে"
      ],
      [
        "▁",
        "'"
      ],
      [
        "▁পারে",
        "।\n"
      ],
      [
        "ো",
        "ল"
      ],
      [
        "্",
        "লি"
      ],
      [
        "্য",
        "াম"
      ],
      [
        "▁শ",
        "ি"
      ],
      [
        "▁গ",
        "ুরু"
      ],
      [
        "▁জান",
        "া"
      ],
      [
        "ু",
        "ট"
      ],
      [
        "▁স",
        "ক"
      ],
      [
        "▁ত",
        "থ্য"
      ],
      [
        "▁হ",
        "ার"
      ],
      [
        "▁গ",
        "ল্প"
      ],
      [
        "▁চ",
        "ো"
      ],
      [
        "টি",
        "তে"
      ],
      [
        "▁ভ",
        "য়"
      ],
      [
        "▁সা",
        "ং"
      ],
      [
        "ূ",
        "চ"
      ],
      [
        "▁র",
        "ি"
      ],
      [
        "▁র",
        "াত"
      ],
      [
        "র্",
        "ষ"
      ],
      [
        "▁আর",
        "ো"
      ],
      [
        "▁রা",
        "ষ্ট্র"
      ],
      [
        "▁হা",
        "তে"
      ],
      [
        "ু",
        "য়ার"
      ],
      [
        "▁এ",
        "টি"
      ],
      [
        "▁প্র",
        "ে"
      ],
      [
        "▁প্র",
        "য়োজন"
      ],
      [
        "▁উত্ত",
        "র"
      ],
      [
        "ক",
        "র"
      ],
      [
        "হ",
        "ত"
      ],
      [
        "▁ক",
        "ু"
      ],
      [
        "▁স",
        "ন্ত"
      ],
      [
        "▁ত",
        "ুলে"
      ],
      [
        "কে",
        "ট"
      ],
      [
        "▁প্র",
        "ক"
      ],
      [
        "▁এক",
        "ই"
      ],
      [
        "▁সম",
        "স"
      ],
      [
        "▁পা",
        "শ"
      ],
      [
        "▁পা",
        "ওয়া"
      ],
      [
        "▁ঘ",
        "ো"
      ],
      [
        "দি",
        "কে"
      ],
      [
        "▁আই",
        "ন"
      ],
      [
        "▁মাধ্য",
        "মে"
      ],
      [
        "▁হ",
        "ওয়ার"
      ],
      [
        "েন",
        "া"
      ],
      [
        "▁য",
        "খন"
      ],
      [
        "▁চ",
        "েয়ে"
      ],
      [
        "▁করে",
        "ছে"
      ],
      [
        "▁পার",
        "ি"
      ],
      [
        "▁সাম",
        "নে"
      ],
      [
        "▁মৃত",
        "্য"
      ],
      [
        "ট",
        "্র"
      ],
      [
        "ের",
        "া"
      ],
      [
        "ান",
        "োর"
      ],
      [
        "▁ড",
        "া"
      ],
      [
        "▁গে",
        "ছে"
      ],
      [
        "▁গে",
        "ছে।\n"
      ],
      [
        "নী",
        "তি"
      ],
      [
        "▁ছা",
        "ড়া"
      ],
      [
        "খ",
        "্যা"
      ],
      [
        "ণ",
        "ের"
      ],
      [
        "ব",
        "ির"
      ],
      [
        "▁আ",
        "য়"
      ],
      [
        "▁এ",
        "ত"
      ],
      [
        "▁অ",
        "স"
      ],
      [
        "▁অব",
        "শ্য"
      ],
      [
        "▁কেন",
        "্দ্র"
      ],
      [
        "▁খালে",
        "দা"
      ],
      [
        "ন",
        "ৈতিক"
      ],
      [
        "▁স",
        "র্"
      ],
      [
        "▁বি",
        "চার"
      ],
      [
        "▁নি",
        "শ্চ"
      ],
      [
        "ন্",
        "ড"
      ],
      [
        "ন্",
        "ম"
      ],
      [
        "▁শিশ",
        "ু"
      ],
      [
        "ব",
        "ো।\n"
      ],
      [
        "য",
        "ু"
      ],
      [
        "য",
        "্য"
      ],
      [
        "হ",
        "ে"
      ],
      [
        "▁স",
        "ভা"
      ],
      [
        "▁প",
        "ু"
      ],
      [
        "▁প",
        "ানি"
      ],
      [
        "▁ভ",
        "ূ"
      ],
      [
        "▁উ",
        "ঠে"
      ],
      [
        "▁সা",
        "হা"
      ],
      [
        "▁আস",
        "লে"
      ],
      [
        "▁কে",
        "মন"
      ],
      [
        "▁আগ",
        "ামী"
      ],
      [
        "▁প্রশ",
        "্ন"
      ],
      [
        "▁পৌ",
        "ঁ"
      ],
      [
        "ত",
        "ু"
      ],
      [
        "দ",
        "ার"
      ],
      [
        "ফ",
        "ল"
      ],
      [
        "স",
        "ার"
      ],
      [
        "ে",
        "ই"
      ],
      [
        "্",
        "বা"
      ],
      [
        "▁স",
        "কাল"
      ],
      [
        "▁ভ",
        "ি"
      ],
      [
        "িল",
        "্প"
      ],
      [
        "▁বন্ধ",
        "ু"
      ],
      [
        "▁যু",
        "ক্ত"
      ],
      [
        "▁কর",
        "ছি"
      ],
      [
        "তে",
        "ই"
      ],
      [
        "▁আর",
        "ে"
      ],
      [
        "▁ভা",
        "ষ"
      ],
      [
        "ক",
        "ায়"
      ],
      [
        "ব",
        "ন্ধ"
      ],
      [
        "র",
        "ত"
      ],
      [
        "ো",
        "?\n"
      ],
      [
        "▁আ",
        "ত"
      ],
      [
        "▁য",
        "াত্র"
      ],
      [
        "▁না",
        "কি"
      ],
      [
        "▁প্র",
        "স্ত"
      ],
      [
        "ছিল",
        "।\n"
      ],
      [
        "▁তিনি",
        "\n"
      ],
      [
        "▁পার",
        "েন"
      ],
      [
        "েল",
        "ার"
      ],
      [
        "▁সরকার",
        "ি"
      ],
      [
        "▁বিএন",
        "পি"
      ],
      [
        "▁হোস",
        "েন"
      ],
      [
        "▁ত",
        "ে"
      ],
      [
        "▁না",
        "!\n"
      ],
      [
        "▁এক",
        "া"
      ],
      [
        "বার",
        "ের"
      ],
      [
        "াস",
        "্ত"
      ],
      [
        "▁নে",
        "ত"
      ],
      [
        "▁পরিচ",
        "াল"
      ],
      [
        "▁বক্ত",
        "ব্য"
      ],
      [
        "▁হ্যা",
        "ঁ"
      ],
      [
        "ধ",
        "ীন"
      ],
      [
        "ি",
        "দ"
      ],
      [
        "্",
        "বে"
      ],
      [
        "▁",
        "ঐ"
      ],
      [
        "▁ব",
        "িক"
      ],
      [
        "▁চ",
        "ি"
      ],
      [
        "চ্",
        "ছে"
      ],
      [
        "▁জান",
        "তে"
      ],
      [
        "▁ব্যা",
        "প"
      ],
      [
        "▁ক্ষ",
        "ে"
      ],
      [
        "ষণ",
        "া"
      ],
      [
        "ুদ্ধ",
        "ে"
      ],
      [
        "▁ব",
        "হ"
      ],
      [
        "▁আ",
        "সে"
      ],
      [
        "▁ম",
        "ারা"
      ],
      [
        "▁না",
        "মে"
      ],
      [
        "▁বি",
        "প"
      ],
      [
        "▁ভ",
        "ুল"
      ],
      [
        "▁উ",
        "ল"
      ],
      [
        "ছিল",
        "েন"
      ],
      [
        "▁ঘ",
        "রে"
      ],
      [
        "ক্ষ",
        "ণ"
      ],
      [
        "▁দা",
        "ও।\n"
      ],
      [
        "িকি",
        "ৎ"
      ],
      [
        "ক",
        "র্ত"
      ],
      [
        "▁ব",
        "য়"
      ],
      [
        "▁প",
        "দ"
      ],
      [
        "্য",
        "ে"
      ],
      [
        "▁কর",
        "ো"
      ],
      [
        "▁কর",
        "।\n"
      ],
      [
        "ায়",
        "ের"
      ],
      [
        "▁চ",
        "িকিৎ"
      ],
      [
        "▁নি",
        "তে"
      ],
      [
        "িত",
        "্র"
      ],
      [
        "▁ছিল",
        "েন"
      ],
      [
        "▁এখন",
        "ো"
      ],
      [
        "▁শিক্ষ",
        "ার্থ"
      ],
      [
        "▁বাড়ি",
        "তে"
      ],
      [
        "▁বাই",
        "রে"
      ],
      [
        "▁সমস",
        "্যা"
      ],
      [
        "▁সাহা",
        "য্য"
      ],
      [
        "এ",
        "ম"
      ],
      [
        "প",
        "ূর্ণ"
      ],
      [
        "ল",
        "েন।\n"
      ],
      [
        "▁স",
        "ালের"
      ],
      [
        "▁আ",
        "ট"
      ],
      [
        "▁এ",
        "স"
      ],
      [
        "▁দ",
        "রকার"
      ],
      [
        "▁শ",
        "ুন"
      ],
      [
        "▁চ",
        "িন্ত"
      ],
      [
        "▁কিছু",
        "ই"
      ],
      [
        "ী",
        "তে"
      ],
      [
        "▁ক",
        "্রি"
      ],
      [
        "▁প",
        "ান"
      ],
      [
        "▁জ",
        "িয়া"
      ],
      [
        "▁ধ",
        "র্ম"
      ],
      [
        "ভা",
        "গ"
      ],
      [
        "▁থাক",
        "তে"
      ],
      [
        "কি",
        "স্ত"
      ],
      [
        "▁গে",
        "লে"
      ],
      [
        "▁ব্যব",
        "হার"
      ],
      [
        "▁কর্ম",
        "কর্ত"
      ],
      [
        "▁স্থ",
        "ান"
      ],
      [
        "প",
        "ির"
      ],
      [
        "ভ",
        "ার"
      ],
      [
        "▁ম",
        "ানে"
      ],
      [
        "ড়",
        "াই"
      ],
      [
        "র্",
        "জ"
      ],
      [
        "র্",
        "ড"
      ],
      [
        "▁ও",
        "রা"
      ],
      [
        "▁বল",
        "লেন"
      ],
      [
        "▁ফ",
        "েল"
      ],
      [
        "▁পা",
        "কিস্ত"
      ],
      [
        "▁ই",
        "তি"
      ],
      [
        "▁কী",
        "?\n"
      ],
      [
        "▁লা",
        "খ"
      ],
      [
        "▁ব্য",
        "ক্তি"
      ],
      [
        "গ্র",
        "াম"
      ],
      [
        "▁বছ",
        "রের"
      ],
      [
        "চিত",
        "্র"
      ],
      [
        "▁হাস",
        "িনা"
      ],
      [
        "▁নির্বাচ",
        "ন"
      ],
      [
        "\"",
        "\n"
      ],
      [
        "▁দ",
        "াম"
      ],
      [
        "▁উ",
        "দ"
      ],
      [
        "▁করে",
        "\n"
      ],
      [
        "▁করে",
        "ছেন"
      ],
      [
        "ুর",
        "ে"
      ],
      [
        "▁পা",
        "খ"
      ],
      [
        "▁কো",
        "টি"
      ],
      [
        "▁মা",
        "ঝ"
      ],
      [
        "▁বিশ",
        "্বাস"
      ],
      [
        "াপ",
        "া"
      ],
      [
        "▁জন",
        "গ"
      ],
      [
        "▁গা",
        "ড়ি"
      ],
      [
        "ক",
        "্স"
      ],
      [
        "গ",
        "ত"
      ],
      [
        "ূ",
        "প"
      ],
      [
        "▁ব",
        "্র"
      ],
      [
        "▁ব",
        "র্ত"
      ],
      [
        "▁প",
        "ৃ"
      ],
      [
        "▁সম",
        "াজ"
      ],
      [
        "▁হাস",
        "প"
      ],
      [
        "▁বির",
        "োধ"
      ],
      [
        "▁গেল",
        "।\n"
      ],
      [
        "ত",
        "ায়"
      ],
      [
        "▁ক",
        "ল"
      ],
      [
        "্য",
        "ের"
      ],
      [
        "▁দ",
        "শ"
      ],
      [
        "▁জ",
        "ল"
      ],
      [
        "▁র",
        "কম"
      ],
      [
        "▁খ",
        "ান"
      ],
      [
        "ছিল",
        "েন।\n"
      ],
      [
        "▁জান",
        "ি"
      ],
      [
        "▁ল",
        "ো"
      ],
      [
        "▁লা",
        "গে"
      ],
      [
        "▁সং",
        "স"
      ],
      [
        "ঙ্গ",
        "ল"
      ],
      [
        "▁ক্ষ",
        "ম"
      ],
      [
        "▁গা",
        "ছ"
      ],
      [
        "ঠ",
        "া"
      ],
      [
        "ী",
        "ত"
      ],
      [
        "ো",
        ","
      ],
      [
        "▁ক",
        "্র"
      ],
      [
        "▁স",
        "ৃ"
      ],
      [
        "▁ম",
        "াত্র"
      ],
      [
        "▁জ",
        "ন্ম"
      ],
      [
        "ায়",
        "ী"
      ],
      [
        "▁সম",
        "া"
      ],
      [
        "▁রা",
        "তে"
      ],
      [
        "▁সব",
        "চ"
      ],
      [
        "▁চে",
        "য়ার"
      ],
      [
        "▁ঘট",
        "না"
      ],
      [
        "▁পুর",
        "ো"
      ],
      [
        "ং",
        "স"
      ],
      [
        "ব",
        "ু"
      ],
      [
        "ি",
        "য়"
      ],
      [
        "ৃ",
        "তি"
      ],
      [
        "▁",
        "লে"
      ],
      [
        "▁এ",
        "গ"
      ],
      [
        "▁ম",
        "াল"
      ],
      [
        "▁কর",
        "ো।\n"
      ],
      [
        "▁র",
        "ান"
      ],
      [
        "▁দে",
        "ওয়ার"
      ],
      [
        "রা",
        "ষ্ট্র"
      ],
      [
        "ুল",
        "ের"
      ],
      [
        "▁পা",
        "ঁচ"
      ],
      [
        "▁সু",
        "যোগ"
      ],
      [
        "▁শিক্ষ",
        "ক"
      ],
      [
        "▁বির",
        "ুদ্ধে"
      ],
      [
        "▁সম্",
        "ভব"
      ],
      [
        "ম",
        "ের"
      ],
      [
        "শ",
        "ন"
      ],
      [
        "ো",
        "প"
      ],
      [
        "▁স",
        "বার"
      ],
      [
        "▁স",
        "িনে"
      ],
      [
        "▁প",
        "ো"
      ],
      [
        "▁ম",
        "িল"
      ],
      [
        "▁যা",
        "বে।\n"
      ],
      [
        "▁ঘ",
        "ুম"
      ],
      [
        "▁থাক",
        "বে"
      ],
      [
        "গুল",
        "োর"
      ],
      [
        "▁ব্যা",
        "ং"
      ],
      [
        "▁শেষ",
        "ে"
      ],
      [
        "▁সি",
        "দ্ধ"
      ],
      [
        "▁রয়ে",
        "ছে"
      ],
      [
        "▁ভার",
        "ত"
      ],
      [
        "▁ফে",
        "লে"
      ],
      [
        "▁সম্ম",
        "েল"
      ],
      [
        "▁প্রতিষ্ঠ",
        "ান"
      ],
      [
        "▁দায়",
        "িত্ব"
      ],
      [
        "▁গুরু",
        "ত্ব"
      ],
      [
        "▁ক্ষে",
        "ত্রে"
      ],
      [
        "▁সবচ",
        "েয়ে"
      ],
      [
        "ত",
        "ন"
      ],
      [
        "ল",
        ","
      ],
      [
        "ল",
        "ায়"
      ],
      [
        "▁ক",
        "াল"
      ],
      [
        "▁প",
        "থ"
      ],
      [
        "▁হ",
        "ত্যা"
      ],
      [
        "▁জ",
        "াম"
      ],
      [
        "▁শ",
        "নি"
      ],
      [
        "▁চ",
        "াক"
      ],
      [
        "▁ভ",
        "িত"
      ],
      [
        "▁খ",
        "বর"
      ],
      [
        "▁ফ",
        "োন"
      ],
      [
        "জ",
        "নের"
      ],
      [
        "ব",
        "ায়"
      ],
      [
        "া",
        "যোগ"
      ],
      [
        "ো",
        "য়া"
      ],
      [
        "▁ব",
        "সে"
      ],
      [
        "▁স",
        "কালে"
      ],
      [
        "▁না",
        "ই।\n"
      ],
      [
        "▁ও",
        "দের"
      ],
      [
        "▁বা",
        "ঁ"
      ],
      [
        "▁দু",
        "ঃ"
      ],
      [
        "▁পরি",
        "বেশ"
      ],
      [
        "▁সং",
        "বাদ"
      ],
      [
        "▁গ্র",
        "হ"
      ],
      [
        "▁কম",
        "ি"
      ],
      [
        "▁অধ",
        "িকার"
      ],
      [
        "▁গত",
        "কাল"
      ],
      [
        "▁সম্পর্",
        "কে"
      ],
      [
        "দ",
        "র্শ"
      ],
      [
        "া",
        "।\n"
      ],
      [
        "▁",
        "।\n"
      ],
      [
        "▁",
        "ছি"
      ],
      [
        "▁ক",
        "লে"
      ],
      [
        "▁অ",
        "্যা"
      ],
      [
        "▁জ",
        "ু"
      ],
      [
        "চ্",
        "ছ"
      ],
      [
        "▁দু",
        "টি"
      ],
      [
        "▁এর",
        "পর"
      ],
      [
        "▁থাক",
        "লে"
      ],
      [
        "▁খু",
        "ঁ"
      ],
      [
        "▁সম্প",
        "াদ"
      ],
      [
        "▁রয়ে",
        "ছে।\n"
      ],
      [
        "▁আদ",
        "াল"
      ],
      [
        "▁দ্ব",
        "িত"
      ],
      [
        "▁সিদ্ধ",
        "ান্ত"
      ],
      [
        "▁শনি",
        "বার"
      ],
      [
        "ঠ",
        "ন"
      ],
      [
        "স",
        "ূচ"
      ],
      [
        "হ",
        "াম"
      ],
      [
        "▁স",
        "ারা"
      ],
      [
        "▁ম",
        "ঙ্গল"
      ],
      [
        "▁য",
        "ত"
      ],
      [
        "▁শ",
        "র"
      ],
      [
        "▁ও",
        "টা"
      ],
      [
        "▁আর",
        "েক"
      ],
      [
        "স্",
        "ক"
      ],
      [
        "▁কী",
        "ভাবে"
      ],
      [
        "▁অব",
        "স্থা"
      ],
      [
        "▁ব্যা",
        "পার"
      ],
      [
        "বাদ",
        "িক"
      ],
      [
        "▁স্যার",
        "।\n"
      ],
      [
        "▁যোগ",
        "াযোগ"
      ],
      [
        "▁আপনা",
        "কে"
      ],
      [
        "▁সাং",
        "বাদিক"
      ],
      [
        "ুয়ার",
        "ি"
      ],
      [
        "▁মৃত্য",
        "ু"
      ],
      [
        "আ",
        "ই"
      ],
      [
        "ক",
        "।\n"
      ],
      [
        "ত",
        "ম"
      ],
      [
        "র",
        "ম"
      ],
      [
        "▁ক",
        "ঠ"
      ],
      [
        "▁স",
        "র"
      ],
      [
        "▁হ",
        "াম"
      ],
      [
        "▁দ",
        "ৃ"
      ],
      [
        "▁কর",
        "ছে"
      ],
      [
        "▁শ",
        "ো"
      ],
      [
        "▁উ",
        "ই"
      ],
      [
        "▁উ",
        "দ্য"
      ],
      [
        "▁খ",
        "ারা"
      ],
      [
        "▁ছ",
        "য়"
      ],
      [
        "▁মে",
        "ট্র"
      ],
      [
        "▁যু",
        "দ্ধ"
      ],
      [
        "▁স্বা",
        "ধীন"
      ],
      [
        "▁বৃ",
        "হ"
      ],
      [
        "▁গুল",
        "ি"
      ],
      [
        "ভ",
        "ে"
      ],
      [
        "য়",
        "াল"
      ],
      [
        "▁অ",
        "ভিন"
      ],
      [
        "াম",
        "ি"
      ],
      [
        "▁সম",
        "য়ে"
      ],
      [
        "▁থা",
        "কা"
      ],
      [
        "▁কর্ম",
        "সূচ"
      ],
      [
        "▁করব",
        "েন"
      ],
      [
        "্লা",
        "হ"
      ],
      [
        "▁জে",
        "লা"
      ],
      [
        "▁চো",
        "খ"
      ],
      [
        "▁দ্বিত",
        "ীয়"
      ],
      [
        "▁খারা",
        "প"
      ],
      [
        "চ",
        "িব"
      ],
      [
        "ত",
        "াম"
      ],
      [
        "ব",
        "্র"
      ],
      [
        "▁দ",
        "ী"
      ],
      [
        "▁দ",
        "্র"
      ],
      [
        "▁ম",
        "িনি"
      ],
      [
        "▁অ",
        "ন্ত"
      ],
      [
        "▁য",
        "ারা"
      ],
      [
        "▁শ",
        "ান্ত"
      ],
      [
        "▁বি",
        "য়ে"
      ],
      [
        "▁ভ",
        "াল"
      ],
      [
        "▁যে",
        "মন"
      ],
      [
        "▁বে",
        "ঁ"
      ],
      [
        "▁থাকে",
        "।\n"
      ],
      [
        "▁আন",
        "ন্দ"
      ],
      [
        "স",
        "ী"
      ],
      [
        "া",
        "ঁ"
      ],
      [
        "▁আ",
        "ক্র"
      ],
      [
        "▁নি",
        "র"
      ],
      [
        "▁করে",
        "ছি"
      ],
      [
        "ুর",
        "ি"
      ],
      [
        "▁তো",
        "র"
      ],
      [
        "▁যা",
        "ওয়ার"
      ],
      [
        "▁কো",
        "থা"
      ],
      [
        "স্",
        "কার"
      ],
      [
        "▁ছিল",
        "েন।\n"
      ],
      [
        "▁মহ",
        "ান"
      ],
      [
        "▁ছে",
        "ড়ে"
      ],
      [
        "▁জায়",
        "গা"
      ],
      [
        "▁ঘো",
        "ষণা"
      ],
      [
        "য",
        "ো"
      ],
      [
        "া",
        "তে"
      ],
      [
        "▁স",
        "ড়"
      ],
      [
        "▁এ",
        "ম"
      ],
      [
        "▁হ",
        "ওয়া"
      ],
      [
        "▁শ",
        "িল্প"
      ],
      [
        "রা",
        "প"
      ],
      [
        "কার",
        "ী"
      ],
      [
        "ষ্",
        "কার"
      ],
      [
        "িল",
        ","
      ],
      [
        "▁রাজ",
        "নৈতিক"
      ],
      [
        "ছা",
        "ড়া"
      ],
      [
        "▁বিএন",
        "পির"
      ],
      [
        "▁পৃ",
        "থ"
      ],
      [
        "▁মঙ্গল",
        "বার"
      ],
      [
        "ব",
        "্দ"
      ],
      [
        "ম",
        "্প"
      ],
      [
        "▁ব",
        "র"
      ],
      [
        "▁স",
        "ূ"
      ],
      [
        "▁হ",
        "োক"
      ],
      [
        "▁ম",
        "ৌ"
      ],
      [
        "▁অ",
        "তি"
      ],
      [
        "▁জ",
        "য়"
      ],
      [
        "▁র",
        "ু"
      ],
      [
        "▁র",
        "োগ"
      ],
      [
        "▁ভ",
        "র্ত"
      ],
      [
        "▁নি",
        "জ"
      ],
      [
        "রা",
        "ধ"
      ],
      [
        "▁যা",
        "ওয়া"
      ],
      [
        "▁যা",
        "ও।\n"
      ],
      [
        "াস",
        "ে"
      ],
      [
        "▁তার",
        "পর"
      ],
      [
        "নি",
        "।\n"
      ],
      [
        "▁ল",
        "ক্ষ"
      ],
      [
        "▁থেকে",
        "ই"
      ],
      [
        "▁আস",
        "তে"
      ],
      [
        "▁পরি",
        "স্থিত"
      ],
      [
        "▁খা",
        "বার"
      ],
      [
        "▁হচ্",
        "ছে।\n"
      ],
      [
        "▁লীগ",
        "ের"
      ],
      [
        "▁আত",
        "্ম"
      ],
      [
        "▁ব্যাপ",
        "ারে"
      ],
      [
        "▁এগ",
        "িয়ে"
      ],
      [
        "▁সম্পাদ",
        "ক"
      ],
      [
        "জ",
        "িত"
      ],
      [
        "ট",
        "ো"
      ],
      [
        "ফ",
        "া"
      ],
      [
        "ব",
        "ের"
      ],
      [
        "্",
        "লেখ"
      ],
      [
        "▁ক",
        "ৃ"
      ],
      [
        "▁ত",
        "ুই"
      ],
      [
        "▁নি",
        "রাপ"
      ],
      [
        "▁যা",
        "ই"
      ],
      [
        "▁ই",
        "ং"
      ],
      [
        "▁নে",
        "ওয়া"
      ],
      [
        "▁কা",
        "উ"
      ],
      [
        "▁পরি",
        "বর্ত"
      ],
      [
        "▁রাজ",
        "া"
      ],
      [
        "▁বে",
        "ড়ে"
      ],
      [
        "▁খে",
        "তে"
      ],
      [
        "▁সো",
        "ম"
      ],
      [
        "▁অভি",
        "যোগ"
      ],
      [
        "▁রো",
        "ব"
      ],
      [
        "বেদ",
        "ন"
      ],
      [
        "▁উল",
        "্লেখ"
      ],
      [
        "▁গ্রহ",
        "ণ"
      ],
      [
        "ক",
        "্ট"
      ],
      [
        "খ",
        "ান"
      ],
      [
        "চ",
        "ের"
      ],
      [
        "দ",
        "ান"
      ],
      [
        "দ",
        "ায়"
      ],
      [
        "দ",
        "ুল"
      ],
      [
        "ধ",
        "ি"
      ],
      [
        "ার",
        "ি"
      ],
      [
        "ার",
        "ের"
      ],
      [
        "▁দ",
        "ো"
      ],
      [
        "▁গ",
        "ান"
      ],
      [
        "▁বি",
        "জ্ঞ"
      ],
      [
        "র্",
        "ঘ"
      ],
      [
        "▁বা",
        "হ"
      ],
      [
        "স্",
        "পতি"
      ],
      [
        "▁কা",
        "প"
      ],
      [
        "▁যায়",
        "\n"
      ],
      [
        "▁তাঁ",
        "দের"
      ],
      [
        "▁দিন",
        "ের"
      ],
      [
        "▁খুব",
        "ই"
      ],
      [
        "▁সহ",
        "জ"
      ],
      [
        "▁২",
        "০"
      ],
      [
        "▁বিশ্ববিদ্যাল",
        "য়ের"
      ],
      [
        "▁বৃহ",
        "স্পতি"
      ],
      [
        "ট",
        "্ট"
      ],
      [
        "হ",
        ","
      ],
      [
        "ী",
        "কে"
      ],
      [
        "▁প",
        "ড়া"
      ],
      [
        "▁এ",
        "ভাবে"
      ],
      [
        "▁এ",
        "ছাড়া"
      ],
      [
        "▁হ",
        "ে"
      ],
      [
        "▁ফ",
        "ুট"
      ],
      [
        "দ্",
        "দ"
      ],
      [
        "▁আগ",
        "ের"
      ],
      [
        "▁আহ",
        "্ব"
      ],
      [
        "▁আশ",
        "া"
      ],
      [
        "▁জি",
        "জ্ঞ"
      ],
      [
        "▁ছু",
        "টি"
      ],
      [
        "▁থ",
        "ান"
      ],
      [
        "▁দুঃ",
        "খ"
      ],
      [
        "▁বৃহস্পতি",
        "বার"
      ],
      [
        "।",
        "\"\n"
      ],
      [
        "ক",
        "র্ম"
      ],
      [
        "ব",
        "ান"
      ],
      [
        "ী",
        "\n"
      ],
      [
        "▁ক",
        "হ"
      ],
      [
        "▁ক",
        "মে"
      ],
      [
        "▁স",
        "্প"
      ],
      [
        "▁আ",
        "চ্ছা"
      ],
      [
        "্য",
        "াল"
      ],
      [
        "▁কর",
        "ি।\n"
      ],
      [
        "লা",
        "ই"
      ],
      [
        "▁গ",
        "ু"
      ],
      [
        "▁নি",
        "চে"
      ],
      [
        "▁বা",
        "স্ত"
      ],
      [
        "▁যা",
        "ও"
      ],
      [
        "▁ঘ",
        "টে"
      ],
      [
        "▁গ্র",
        "ে"
      ],
      [
        "▁বিশ্ব",
        "কা"
      ],
      [
        "▁রাখ",
        "তে"
      ],
      [
        "▁অপ",
        "ে"
      ],
      [
        "▁মাম",
        "লা"
      ],
      [
        "▁উদ",
        "্ব"
      ],
      [
        "▁পৃথ",
        "িব"
      ],
      [
        "দ",
        "ন্ত"
      ],
      [
        "ধ",
        "ুর"
      ],
      [
        "ব",
        "ী"
      ],
      [
        "য",
        "ায়ী"
      ],
      [
        "▁ব",
        "ঙ্গ"
      ],
      [
        "▁স",
        "ৈ"
      ],
      [
        "▁স",
        "েনা"
      ],
      [
        "▁ন",
        "দী"
      ],
      [
        "▁এ",
        "কে"
      ],
      [
        "▁দ",
        "ক্ষ"
      ],
      [
        "কে",
        "ল"
      ],
      [
        "▁জ",
        "াহ"
      ],
      [
        "▁শ",
        "াহ"
      ],
      [
        "▁চ",
        "ৌ"
      ],
      [
        "র্",
        "ক"
      ],
      [
        "▁বা",
        "চ্চ"
      ],
      [
        "▁ফ",
        "লে"
      ],
      [
        "▁কি",
        "?\n"
      ],
      [
        "▁পা",
        "শে"
      ],
      [
        "েল",
        "ায়"
      ],
      [
        "▁মা",
        "হ"
      ],
      [
        "▁যে",
        "খানে"
      ],
      [
        "▁কাজ",
        "ে"
      ],
      [
        "▁খু",
        "শি"
      ],
      [
        "▁দা",
        "ও"
      ],
      [
        "▁রাজ",
        "ধান"
      ],
      [
        "▁উৎ",
        "সব"
      ],
      [
        "▁পাল",
        "ন"
      ],
      [
        "▁অবশ্য",
        "ই"
      ],
      [
        "▁রোব",
        "বার"
      ],
      [
        "চ",
        "ল"
      ],
      [
        "ম",
        "িত"
      ],
      [
        "র",
        "ুল"
      ],
      [
        "ি",
        "\n"
      ],
      [
        "্",
        "টা"
      ],
      [
        "▁স",
        "্ত"
      ],
      [
        "▁দ",
        "েন"
      ],
      [
        "▁কর",
        "্ত"
      ],
      [
        "▁কর",
        "ছে।\n"
      ],
      [
        "▁না",
        "ই"
      ],
      [
        "▁সা",
        "ই"
      ],
      [
        "▁হয়",
        "তো"
      ],
      [
        "▁পার",
        "বে"
      ],
      [
        "▁ড",
        "ে"
      ],
      [
        "দেশ",
        "ে"
      ],
      [
        "▁তাঁ",
        "রা"
      ],
      [
        "▁সহ",
        "ায়"
      ],
      [
        "▁নেই",
        "\n"
      ],
      [
        "▁ইউ",
        "নি"
      ],
      [
        "▁নেত",
        "ৃত"
      ],
      [
        "▁বললেন",
        ","
      ],
      [
        "▁দ্র",
        "ুত"
      ],
      [
        "শ",
        "ীল"
      ],
      [
        "▁আ",
        "ন্দ"
      ],
      [
        "▁গ",
        "ড়ে"
      ],
      [
        "▁পর",
        "্যা"
      ],
      [
        "▁ফ",
        "ল"
      ],
      [
        "নি",
        "\n"
      ],
      [
        "▁ধ",
        "ান"
      ],
      [
        "্ম",
        "দ"
      ],
      [
        "▁লা",
        "ভ"
      ],
      [
        "▁উপ",
        "জ"
      ],
      [
        "▁উপ",
        "স্থিত"
      ],
      [
        "স্থ",
        "্য"
      ],
      [
        "▁অনু",
        "যায়ী"
      ],
      [
        "্রি",
        "য়"
      ],
      [
        "▁১",
        "৯"
      ],
      [
        "▁পরী",
        "ক্ষ"
      ],
      [
        "▁চু",
        "প"
      ],
      [
        "▁নিশ্চ",
        "িত"
      ],
      [
        "▁চিন্ত",
        "া"
      ],
      [
        "▁কর্মকর্ত",
        "া"
      ],
      [
        "▁বিরোধ",
        "ী"
      ],
      [
        "▁মেট্র",
        "ো"
      ],
      [
        "▁কোথা",
        "ও"
      ],
      [
        "▁কৃ",
        "ষ"
      ],
      [
        "▁উদ্ব",
        "োধ"
      ],
      [
        "খ",
        "া"
      ],
      [
        "জ",
        "ীব"
      ],
      [
        "▁ক",
        "াম"
      ],
      [
        "▁ব",
        "ান"
      ],
      [
        "▁ত",
        "র"
      ],
      [
        "▁ত",
        "াল"
      ],
      [
        "▁কর",
        "ছি।\n"
      ],
      [
        "▁কর",
        "বে।\n"
      ],
      [
        "▁র",
        "াস্ত"
      ],
      [
        "▁বি",
        "দ্যাল"
      ],
      [
        "▁পা",
        "ই"
      ],
      [
        "▁পার",
        "্"
      ],
      [
        "▁মা",
        "ঠে"
      ],
      [
        "▁উপ",
        "র"
      ],
      [
        "িশ",
        "ন"
      ],
      [
        "▁তাঁ",
        "কে"
      ],
      [
        "▁আলো",
        "চনা"
      ],
      [
        "গ্রহ",
        "ণ"
      ],
      [
        "▁পাশ",
        "াপা"
      ],
      [
        "▁সর্",
        "ব"
      ],
      [
        "▁পাখ",
        "ি"
      ],
      [
        "ঠ",
        "ি"
      ],
      [
        "ি",
        "ণ"
      ],
      [
        "ু",
        "দ"
      ],
      [
        "ো",
        "র্"
      ],
      [
        "▁",
        "৩"
      ],
      [
        "▁স",
        "াত"
      ],
      [
        "▁হ",
        "ুম"
      ],
      [
        "▁ম",
        "ন্ত্রণ"
      ],
      [
        "▁কর",
        "ছ"
      ],
      [
        "িন",
        "ার"
      ],
      [
        "ায়",
        "ক"
      ],
      [
        "▁চ",
        "ায়"
      ],
      [
        "▁ভ",
        "োট"
      ],
      [
        "▁এক",
        "বার"
      ],
      [
        "▁করে",
        "ছে\n"
      ],
      [
        "াত",
        "ার"
      ],
      [
        "▁সা",
        "হ"
      ],
      [
        "▁সং",
        "গ"
      ],
      [
        "▁রাজ",
        "নীতি"
      ],
      [
        "▁ঢ",
        "াক"
      ],
      [
        "▁দিন",
        "ে"
      ],
      [
        "▁হচ্",
        "ছে\n"
      ],
      [
        "প্ত",
        "াহ"
      ],
      [
        "▁হলে",
        "ও"
      ],
      [
        "▁আহ",
        "মে"
      ],
      [
        "▁তিন",
        "টি"
      ],
      [
        "▁ডি",
        "সে"
      ],
      [
        "▁ভাই",
        "।\n"
      ],
      [
        "সম",
        "য়"
      ],
      [
        "▁অনুষ্ঠ",
        "ানে"
      ],
      [
        "▁পরী",
        "ক্ষা"
      ],
      [
        "▁সিনে",
        "মা"
      ],
      [
        "ট্ট",
        "গ্রাম"
      ],
      [
        "▁পাশাপা",
        "শি"
      ],
      [
        "গ",
        "ের"
      ],
      [
        "ব",
        "হ"
      ],
      [
        "ব",
        "েন।\n"
      ],
      [
        "ভ",
        "ূ"
      ],
      [
        "র",
        "োধ"
      ],
      [
        "স",
        "্ব"
      ],
      [
        "▁ক",
        "ব"
      ],
      [
        "▁ব",
        "দ"
      ],
      [
        "▁ব",
        "োন"
      ],
      [
        "▁ত",
        "ুল"
      ],
      [
        "কে",
        "ই"
      ],
      [
        "▁জ",
        "িনি"
      ],
      [
        "▁শ",
        "া"
      ],
      [
        "▁র",
        "েল"
      ],
      [
        "▁প্র",
        "ত্য"
      ],
      [
        "▁উ",
        "দ্ধ"
      ],
      [
        "▁তা",
        "তে"
      ],
      [
        "চ্",
        "চিত্র"
      ],
      [
        "▁ই",
        "ন্"
      ],
      [
        "▁কা",
        "ছ"
      ],
      [
        "▁কথা",
        "।\n"
      ],
      [
        "দ্ধ",
        "া"
      ],
      [
        "ন্ত্র",
        "ীর"
      ],
      [
        "▁শু",
        "নে"
      ],
      [
        "▁চল",
        "চ্চিত্র"
      ],
      [
        "▁বু",
        "ধ"
      ],
      [
        "▁করব",
        "।\n"
      ],
      [
        "ক্র",
        "বার"
      ],
      [
        "ডি",
        "ও"
      ],
      [
        "ওয়",
        "ায়"
      ],
      [
        "▁মাস",
        "ে"
      ],
      [
        "▁নিজে",
        "দের"
      ],
      [
        "▁গণ",
        "ত"
      ],
      [
        "▁বৈ",
        "ঠ"
      ],
      [
        "▁অবস্থ",
        "ায়"
      ],
      [
        "▁হ্যাঁ",
        ","
      ],
      [
        "▁গুরুত্ব",
        "পূর্ণ"
      ],
      [
        "▁সোম",
        "বার"
      ],
      [
        "▁আন্দ",
        "োল"
      ],
      [
        "▁মন্ত্রণ",
        "াল"
      ],
      [
        "ট",
        "ক"
      ],
      [
        "প",
        "ের"
      ],
      [
        "প",
        "ক্ষ"
      ],
      [
        "ষ",
        "ে"
      ],
      [
        "স",
        "ল"
      ],
      [
        "ৎ",
        "কার"
      ],
      [
        "য়",
        "ান"
      ],
      [
        "▁ক",
        "্লা"
      ],
      [
        "▁ব",
        "িন"
      ],
      [
        "▁আ",
        "ন্ত"
      ],
      [
        "▁আ",
        "কাশ"
      ],
      [
        "▁অ",
        "ফি"
      ],
      [
        "▁জ",
        "ানে"
      ],
      [
        "বে",
        "ক"
      ],
      [
        "▁চ",
        "ান"
      ],
      [
        "▁ও",
        "হ,"
      ],
      [
        "▁নি",
        "।\n"
      ],
      [
        "▁মা",
        "থা"
      ],
      [
        "▁দু",
        "পুর"
      ],
      [
        "▁ছিল",
        "েন\n"
      ],
      [
        "▁দি",
        "ল"
      ],
      [
        "▁এখন",
        "ও"
      ],
      [
        "কি",
        "ছু"
      ],
      [
        "থম",
        "িক"
      ],
      [
        "▁হি",
        "সা"
      ],
      [
        "▁লি",
        "খ"
      ],
      [
        "▁বুঝ",
        "তে"
      ],
      [
        "▁হন",
        "।\n"
      ],
      [
        "▁কার্য",
        "াল"
      ],
      [
        "▁সভা",
        "পতি"
      ],
      [
        "ি",
        "ম"
      ],
      [
        "▁",
        "ঈ"
      ],
      [
        "▁ক",
        "ষ্ট"
      ],
      [
        "▁স",
        "ার"
      ],
      [
        "▁প",
        "ছ"
      ],
      [
        "▁প",
        "ক্ষ"
      ],
      [
        "▁দ",
        "র"
      ],
      [
        "▁ম",
        "োট"
      ],
      [
        "▁কর",
        "ত"
      ],
      [
        "▁র",
        "ঙ"
      ],
      [
        "▁চ",
        "লা"
      ],
      [
        "▁বা",
        "কি"
      ],
      [
        "্যা",
        "স"
      ],
      [
        "্ট",
        "ে"
      ],
      [
        "▁তো",
        "ম"
      ],
      [
        "েল",
        "ি"
      ],
      [
        "▁হবে",
        "?\n"
      ],
      [
        "▁দি",
        "চ্"
      ],
      [
        "▁বলে",
        "ছেন"
      ],
      [
        "▁মু",
        "খে"
      ],
      [
        "▁নির্",
        "দেশ"
      ],
      [
        "▁ভা",
        "গ"
      ],
      [
        "▁খা",
        "দ্য"
      ],
      [
        "▁বাংলাদেশ",
        "ে"
      ],
      [
        "▁আগে",
        "ই"
      ],
      [
        "▁চাই",
        "।\n"
      ],
      [
        "▁চাই",
        "লে"
      ],
      [
        "▁স্ব",
        "প"
      ],
      [
        "▁ফে",
        "ব্র"
      ],
      [
        "াতা",
        "লে"
      ],
      [
        "▁প্রা",
        "থমিক"
      ],
      [
        "▁এলা",
        "কায়"
      ],
      [
        "▁উন্ন",
        "য়ন"
      ],
      [
        "▁পরিচাল",
        "ক"
      ],
      [
        "▁মাঝ",
        "ে"
      ],
      [
        "▁হাসপ",
        "াতালে"
      ],
      [
        "▁সৃ",
        "ষ্টি"
      ],
      [
        "▁দী",
        "র্ঘ"
      ],
      [
        "▁আচ্ছা",
        ","
      ],
      [
        "জ",
        "নে"
      ],
      [
        "ম",
        "ণ"
      ],
      [
        "ম",
        "র"
      ],
      [
        "শ",
        "্ব"
      ],
      [
        "স",
        "র"
      ],
      [
        "ি",
        "উ"
      ],
      [
        "ু",
        "ঁ"
      ],
      [
        "▁",
        "ঋ"
      ],
      [
        "▁স",
        "াজ"
      ],
      [
        "▁প",
        "ক্ষে"
      ],
      [
        "ান",
        "্য"
      ],
      [
        "▁ম",
        "ন্ত্রী"
      ],
      [
        "▁গ",
        "বে"
      ],
      [
        "▁চ",
        "লো"
      ],
      [
        "টি",
        "ং"
      ],
      [
        "▁নি",
        "হত"
      ],
      [
        "▁দে",
        "য়া"
      ],
      [
        "▁করে",
        "ছেন।\n"
      ],
      [
        "িনি",
        "।\n"
      ],
      [
        "▁হয়ে",
        "ছিল"
      ],
      [
        "▁ট",
        "ে"
      ],
      [
        "▁এটা",
        "ই"
      ],
      [
        "▁শু",
        "ক্রবার"
      ],
      [
        "জ্",
        "জ"
      ],
      [
        "▁হা",
        "ঁ"
      ],
      [
        "▁রয়ে",
        "ছে\n"
      ],
      [
        "▁লি",
        "খে"
      ],
      [
        "▁ভার",
        "তের"
      ],
      [
        "▁শ্র",
        "ে"
      ],
      [
        "▁স্ক",
        "ুলে"
      ],
      [
        "▁ভে",
        "ত"
      ],
      [
        "▁গ্রাম",
        "ের"
      ],
      [
        "▁লেখ",
        "া"
      ],
      [
        "▁ইতি",
        "হ"
      ],
      [
        "▁সংস",
        "দ"
      ],
      [
        "▁গ্রে",
        "প্ত"
      ],
      [
        "▁চৌ",
        "ধুর"
      ],
      [
        "▁আহমে",
        "দ"
      ],
      [
        "▁বুধ",
        "বার"
      ],
      [
        "ঘ",
        "ট"
      ],
      [
        "ধ",
        "ে"
      ],
      [
        "ম",
        "ানে"
      ],
      [
        "র",
        "ো"
      ],
      [
        "্",
        "ঞ"
      ],
      [
        "য়",
        "াম"
      ],
      [
        "▁স",
        "ী"
      ],
      [
        "▁এ",
        "নে"
      ],
      [
        "▁ত",
        "দন্ত"
      ],
      [
        "▁অ",
        "ভ"
      ],
      [
        "িন",
        "ী"
      ],
      [
        "▁শ",
        "তা"
      ],
      [
        "▁চ",
        "ট্টগ্রাম"
      ],
      [
        "▁প্র",
        "িয়"
      ],
      [
        "িক",
        "ল্প"
      ],
      [
        "▁বি",
        "ভাগ"
      ],
      [
        "▁করে",
        "ছি।\n"
      ],
      [
        "▁হয়",
        ","
      ],
      [
        "ক্ত",
        "ির"
      ],
      [
        "▁বলেন",
        ","
      ],
      [
        "াপ",
        "্ত"
      ],
      [
        "▁নয়",
        "\n"
      ],
      [
        "▁ক্ষ",
        "তি"
      ],
      [
        "▁রাখ",
        "া"
      ],
      [
        "▁মো",
        "হাম"
      ],
      [
        "▁মহ",
        "াস"
      ],
      [
        "▁স্বা",
        "স্থ্য"
      ],
      [
        "▁ঘট",
        "নায়"
      ],
      [
        "▁বো",
        "ঝ"
      ],
      [
        "▁প্রা",
        "ণ"
      ],
      [
        "▁গ্রাম",
        "ে"
      ],
      [
        "▁নার",
        "ী"
      ],
      [
        "▁সন্ত",
        "ান"
      ],
      [
        "▁যুক্ত",
        "রাষ্ট্র"
      ],
      [
        "▁বহ",
        "ু"
      ],
      [
        "▁স্থান",
        "ীয়"
      ],
      [
        "▁খুঁ",
        "জে"
      ],
      [
        "▁সাংবাদিক",
        "দের"
      ],
      [
        "▁ভর্ত",
        "ি"
      ],
      [
        "▁আহ্ব",
        "ান"
      ],
      [
        "ধ",
        "ার"
      ],
      [
        "প",
        "ত্র"
      ],
      [
        "ম",
        "্যান"
      ],
      [
        "ল",
        "্যান্ড"
      ],
      [
        "শ",
        "ী"
      ],
      [
        "া",
        "কার"
      ],
      [
        "ু",
        "কে"
      ],
      [
        "▁প",
        "থে"
      ],
      [
        "ান",
        "্ড"
      ],
      [
        "▁ম",
        "জা"
      ],
      [
        "▁অ",
        "ঞ্চ"
      ],
      [
        "লে",
        "ই"
      ],
      [
        "▁র",
        "ং"
      ],
      [
        "▁চ",
        "র"
      ],
      [
        "▁চ",
        "াপ"
      ],
      [
        "▁প্র",
        "ভাব"
      ],
      [
        "িক",
        "ভাবে"
      ],
      [
        "▁বি",
        "মান"
      ],
      [
        "▁বা",
        "দ"
      ],
      [
        "▁সম",
        "র্থ"
      ],
      [
        "▁সা",
        "বেক"
      ],
      [
        "▁তো",
        "।\n"
      ],
      [
        "▁যা",
        "তে"
      ],
      [
        "▁ধ",
        "ারণ"
      ],
      [
        "▁থা",
        "কার"
      ],
      [
        "▁কা",
        "ঠ"
      ],
      [
        "▁আস",
        "া"
      ],
      [
        "▁সু",
        "বি"
      ],
      [
        "▁আহ",
        "ত"
      ],
      [
        "▁যান",
        "।\n"
      ],
      [
        "▁হয়নি",
        "।\n"
      ],
      [
        "▁আপনা",
        "দের"
      ],
      [
        "▁অবস্থ",
        "ান"
      ],
      [
        "▁সক",
        "ল"
      ],
      [
        "▁অস",
        "ু"
      ],
      [
        "যু",
        "ক্তি"
      ],
      [
        "▁তে",
        "মন"
      ],
      [
        "▁কঠ",
        "িন"
      ],
      [
        "▁পরিবর্ত",
        "ন"
      ],
      [
        "ক",
        "্"
      ],
      [
        "চ",
        "রণ"
      ],
      [
        "দ",
        "ল"
      ],
      [
        "ভ",
        "ীর"
      ],
      [
        "ম",
        "াত্র"
      ],
      [
        "শ",
        "্র"
      ],
      [
        "া",
        "ব"
      ],
      [
        "ি",
        "জ"
      ],
      [
        "ো",
        "না"
      ],
      [
        "▁আ",
        "ফ"
      ],
      [
        "▁আ",
        "য়োজন"
      ],
      [
        "▁প",
        "েশ"
      ],
      [
        "▁প",
        "ূর্"
      ],
      [
        "▁কর",
        "ছে\n"
      ],
      [
        "▁শ",
        "ব্দ"
      ],
      [
        "িক",
        "ের"
      ],
      [
        "টা",
        "ই"
      ],
      [
        "▁পর",
        "িকল্প"
      ],
      [
        "▁বল",
        "ো।\n"
      ],
      [
        "ন্ত",
        "ব্য"
      ],
      [
        "▁ঘ",
        "ণ"
      ],
      [
        "▁ট",
        "ার"
      ],
      [
        "▁পরি",
        "বারের"
      ],
      [
        "▁লা",
        "ই"
      ],
      [
        "স্ত",
        "্র"
      ],
      [
        "▁অন",
        "ুম"
      ],
      [
        "▁আছে",
        ","
      ],
      [
        "▁দল",
        "ীয়"
      ],
      [
        "▁অপ",
        "রাধ"
      ],
      [
        "▁পে",
        "ছ"
      ],
      [
        "▁ডটকম",
        "কে"
      ],
      [
        "▁স্ক",
        "ুল"
      ],
      [
        "▁বিষয়",
        "টি"
      ],
      [
        "▁কয়েক",
        "টি"
      ],
      [
        "▁ট্র",
        "েন"
      ],
      [
        "▁হয়নি",
        "\n"
      ],
      [
        "মু",
        "খ"
      ],
      [
        "▁সত্য",
        "ি"
      ],
      [
        "্যাম",
        "্প"
      ],
      [
        "▁আরে",
        ","
      ],
      [
        "▁শ্রে",
        "ণ"
      ],
      [
        "ে",
        "স"
      ],
      [
        "▁স",
        "ন্"
      ],
      [
        "▁আ",
        "লা"
      ],
      [
        "▁আ",
        "ছে\n"
      ],
      [
        "▁প",
        "্লি"
      ],
      [
        "েন",
        ","
      ],
      [
        "ায়",
        "\n"
      ],
      [
        "▁না",
        "ও।\n"
      ],
      [
        "▁না",
        "গর"
      ],
      [
        "▁চ",
        "ম"
      ],
      [
        "▁প্র",
        "ত"
      ],
      [
        "িত",
        "ার"
      ],
      [
        "▁করে",
        "ছে।\n"
      ],
      [
        "▁বল",
        "ার"
      ],
      [
        "▁তো",
        "?\n"
      ],
      [
        "াস",
        "া"
      ],
      [
        "েশ",
        "ন"
      ],
      [
        "দ্ধ",
        "ি"
      ],
      [
        "▁সব",
        "কিছু"
      ],
      [
        "▁গে",
        "ছে\n"
      ],
      [
        "▁বে",
        "লা"
      ],
      [
        "▁গো",
        "ল"
      ],
      [
        "▁দাঁ",
        "ড়া"
      ],
      [
        "▁হল",
        "ো।\n"
      ],
      [
        "▁মূল",
        "্য"
      ],
      [
        "▁নিরাপ",
        "ত্ত"
      ],
      [
        "▁দক্ষ",
        "িণ"
      ],
      [
        "▁ডিসে",
        "ম্বর"
      ],
      [
        "▁জিনি",
        "স"
      ],
      [
        "▁উদ্ধ",
        "ার"
      ],
      [
        "▁প্লি",
        "জ"
      ],
      [
        "ক",
        "্য"
      ],
      [
        "ড",
        "ে"
      ],
      [
        "ব",
        "ন"
      ]
    ]
  }
}