{
  "version": "1.0",
  "truncation": null,
  "padding": null,
  "added_tokens": [],
  "normalizer": null,
  "pre_tokenizer": {
    "type": "ByteLevel",
    "add_prefix_space": false,
    "trim_offsets": true,
    "use_regex": true
  },
  "post_processor": null,
  "decoder": {
    "type": "ByteLevel",
    "add_prefix_space": true,
    "trim_offsets": true,
    "use_regex": true
  },
  "model": {
    "type": "BPE",
    "dropout": null,
    "unk_token": null,
    "continuing_subword_prefix": null,
    "end_of_word_suffix": null,
    "fuse_unk": false,
    "byte_fallback": false,
    "ignore_merges": false,
    "vocab": {
      "!": 0,
      "\"": 1,
      "%": 2,
      "'": 3,
      "(": 4,
      ")": 5,
      ",": 6,
      "-": 7,
      ".": 8,
      "/": 9,
      "1": 10,
      ":": 11,
      ";": 12,
      "?": 13,
      "[": 14,
      "]": 15,
      "a": 16,
      "c": 17,
      "d": 18,
      "e": 19,
      "f": 20,
      "g": 21,
      "h": 22,
      "i": 23,
      "j": 24,
      "k": 25,
      "l": 26,
      "m": 27,
      "n": 28,
      "o": 29,
      "p": 30,
      "r": 31,
      "s": 32,
      "t": 33,
      "u": 34,
      "v": 35,
      "w": 36,
      "x": 37,
      "y": 38,
      "¡": 39,
      "¢": 40,
      "£": 41,
      "¤": 42,
      "¥": 43,
      "¦": 44,
      "§": 45,
      "¨": 46,
      "©": 47,
      "ª": 48,
      "«": 49,
      "¬": 50,
      "®": 51,
      "¯": 52,
      "°": 53,
      "²": 54,
      "¶": 55,
      "·": 56,
      "¸": 57,
      "¹": 58,
      "¼": 59,
      "¾": 60,
      "¿": 61,
      "à": 62,
      "â": 63,
      "Ċ": 64,
      "Ġ": 65,
      "Ģ": 66,
      "ģ": 67,
      "Ĥ": 68,
      "ĥ": 69,
      "ħ": 70,
      "Ĩ": 71,
      "ĩ": 72,
      "Ī": 73,
      "ī": 74,
      "Ĭ": 75,
      "ĭ": 76,
      "Į": 77,
      "į": 78,
      "İ": 79,
      "ı": 80,
      "Ĳ": 81,
      "ĵ": 82,
      "Ķ": 83,
      "ķ": 84,
      "ĸ": 85,
      "Ĺ": 86,
      "ĺ": 87,
      "Ļ": 88,
      "ļ": 89,
      "Ľ": 90,
      "ľ": 91,
      "Ŀ": 92,
      "ŀ": 93,
      "Ł": 94,
      "ł": 95,
      "Ń": 96,
      "à¦": 97,
      "à§": 98,
      "Ġà¦": 99,
      "à¦¾": 100,
      "à§ĩ": 101,
      "à¦°": 102,
      "à¦¿": 103,
      "à§į": 104,
      "à¦¨": 105,
      "à¦¯": 106,
      "à¦¤": 107,
      "à¦ķ": 108,
      "à¦²": 109,
      "à¦¼": 110,
      "à¦¬": 111,
      "à¦®": 112,
      "Ġà¦ķ": 113,
      "à§ģ": 114,
      "¥¤": 115,
      "à¥¤": 116,
      "à§ĭ": 117,
      "Ġà¦¬": 118,
      "à¦¸": 119,
      "Ġà¦¸": 120,
      "à¦¦": 121,
      "à¦Ł": 122,
      "Ġà¦ª": 123,
      "à¦Ľ": 124,
      "Ġà¦Ĩ": 125,
      "Ġà¦¨": 126,
      "à¦ª": 127,
      "à¦ĩ": 128,
      "Ġà¦¹": 129,
      "Ġà¦¦": 130,
      "à§Ģ": 131,
      "à¦¼à§ĩ": 132,
      "à¦¶": 133,
      "Ġà¦ķà¦°": 134,
      "Ġà¦®": 135,
      "à¦ľ": 136,
      "Ġà¦ı": 137,
      "à¦Ĺ": 138,
      "Ġà¦¤": 139,
      "à¦·": 140,
      "à¦ĸ": 141,
      "à¦¡": 142,
      "à¦¹": 143,
      "à¦ļ": 144,
      "à¦ĵ": 145,
      "à¦§": 146,
      "à¦¼à¦¾": 147,
      "Ġà¦ľ": 148,
      "à¦¥": 149,
      "Ġà¦ħ": 150,
      "Ġà¦¯": 151,
      "à¦ı": 152,
      "à§ĩà¥¤": 153,
      "Ġà¦¶": 154,
      "à¦Ĩ": 155,
      "Ġà¦°": 156,
      "Ġà¦Ĺ": 157,
      "Ġà¦ļ": 158,
      "à¦£": 159,
      "à¦Ń": 160,
      "à¦Ĥ": 161,
      "Ġà¦¹à¦¯": 162,
      "Ġà¦Ń": 163,
      "Ġà¦¬à¦²": 164,
      "Ġà¦ĵ": 165,
      "Ġà¦ī": 166,
      "Ġà¦Ĩà¦®": 167,
      "Ġà¦Ľ": 168,
      "Ġà¦ıà¦ķ": 169,
      "Ġà¦ĸ": 170,
      "Ġà¦¥": 171,
      "Ġà¦ªà¦°": 172,
      "à¦ģ": 173,
      "à¦¾à¥¤": 174,
      "à¦ł": 175,
      "Ġà¦²": 176,
      "Ġà¦¸à¦®": 177,
      "à¦Ĩà¦®": 178,
      "à¦ĵà¦¯": 179,
      "à¦«": 180,
      "à¦°à¦ķ": 181,
      "à¦°à¦¤": 182,
      "à¦¿à¥¤": 183,
      "Ġà¦«": 184,
      "à¦ī": 185,
      "Ġà¦ħà¦¨": 186,
      "à§Ĥ": 187,
      "à§ĥ": 188,
      "Ġà¦Ł": 189,
      "à¦¾à¦ģ": 190,
      "à¦Ļ": 191,
      "Ġà¦ľà¦¨": 192,
      "à¦®à¦¨": 193,
      "à¦ĸà¦¨": 194,
      "Ġà¦¹à¦¬": 195,
      "à¦ľà¦¨": 196,
      "Ġà¦Ĩà¦Ľ": 197,
      "à¦ªà¦°": 198,
      "Ġà¦Ĩà¦°": 199,
      "à¦¼à¥¤": 200,
      "à¦°à¦£": 201,
      "Ġà¦ĺ": 202,
      "Ġà¦ĩ": 203,
      "Ġà¦§": 204,
      "Ġà¦ıà¦ķà¦Ł": 205,
      "Ġà¦Ĩà¦¸": 206,
      "à¦¼à¦¿": 207,
      "à¦ªà¦¨": 208,
      "à¦¾à¦Ĥ": 209,
      "Ġà¦¡": 210,
      "Ġà¦ķà¦°à¦¤": 211,
      "à¦¬à¦°": 212,
      "à§ĭà¥¤": 213,
      "Ġà¦ķà¦¥": 214,
      "Ġà¦¸à¦¬": 215,
      "à¦ŀ": 216,
      "Ġà¦®à¦¨": 217,
      "à§ĩ?": 218,
      "Ġà¦¹à¦²": 219,
      "à§Ī": 220,
      "à¦¤à¦°": 221,
      "à¦¬à¦¨": 222,
      "à¦¬à¦¸": 223,
      "Ġà¦ıà¦ĩ": 224,
      "à¦ħ": 225,
      "à¦¾,": 226,
      "Ġà¦¸à¦®à¦¯": 227,
      "à§ĩ,": 228,
      "Ġà¦ļà¦²": 229,
      "à¦°à¦¬": 230,
      "Ġà¦Ĩà¦Ĺ": 231,
      "à¦¸à¦¬": 232,
      "à¦ĺ": 233,
      "à§İ": 234,
      "Ġà¦ıà¦¬": 235,
      "à¦Ĩà¦°": 236,
      "à¦¤à¦¬": 237,
      "Ġà¦īà¦ª": 238,
      "à§Į": 239,
      "à¦ķà¦°": 240,
      "Ġà¦ķà¦°à¦Ľ": 241,
      "Ġà¦ķà¦°à¦¬": 242,
      "Ġà¦ªà¦¡": 243,
      "Ġà¦§à¦°": 244,
      "à¦¶à¦¨": 245,
      "à¦ķà¦Ł": 246,
      "à¦°à¦®": 247,
      "à¦ıà¦ĩ": 248,
      "Ġà§": 249,
      "Ġà¦¸à¦Ļ": 250,
      "Ġà¦®à¦§": 251,
      "Ġà¦Ĩà¦¬": 252,
      "à¦°à¦¸": 253,
      "à¦¨à¦¤": 254,
      "à¦ªà¦¤": 255,
      "Ġà¦ıà¦Ł": 256,
      "Ġà¦Ĩà¦²": 257,
      "Ġà¦®à¦¤": 258,
      "Ġà¦ķà¦®": 259,
      "Ġà¦¦à¦²": 260,
      "à¦ļà¦¨": 261,
      "à¦ıà¦Ł": 262,
      "Ġà¦ıà¦¸": 263,
      "à¦²à¦¨": 264,
      "à¦Ŀ": 265,
      "à¦Ľà¦°": 266,
      "à¦¦à¦°": 267,
      "Ġà¦¸à¦°à¦ķ": 268,
      "à¦¬à¦²": 269,
      "Ġà¦ł": 270,
      "à¦ĩà¦¨": 271,
      "Ġà¦¬à¦¨": 272,
      "Ġà¦¹à¦¤": 273,
      "à¦¥à¦®": 274,
      "Ġà¦¹à¦ļ": 275,
      "Ġà¦¨à¦¯": 276,
      "Ġà¦ıà¦ĸà¦¨": 277,
      "à¦²à¦ķ": 278,
      "à¦ķà¦®": 279,
      "Ġà¦īà¦¦": 280,
      "Ġà¦Ĩà¦ªà¦¨": 281,
      "à¦·à¦£": 282,
      "à¦¼à§ĭ": 283,
      "à¦²à¦¯": 284,
      "Ġà¦ħà¦Ń": 285,
      "à¦°à¦§": 286,
      "Ġà¦¬à¦Ľà¦°": 287,
      "Ġà¦¢": 288,
      "à¦ķà¦²": 289,
      "à¦¿à¦Ĥ": 290,
      "à¦ıà¦°": 291,
      "à¦·à¦¯": 292,
      "Ġà¦Ĩà¦¨": 293,
      "Ġà¦¬à¦¡": 294,
      "à¦Łà¦¨": 295,
      "Ġà¦¸à¦¹": 296,
      "à¦¸à¦®": 297,
      "à¦°à¦¥à¦®": 298,
      "à¦°à¦¯": 299,
      "Ġà¦Ĩà¦®à¦°": 300,
      "à¦¾?": 301,
      "Ġà¦ħà¦¬": 302,
      "Ġà¦ıà¦°": 303,
      "à¦¸à¦²": 304,
      "à¦ıà¦ķ": 305,
      "à¦°à¦¹": 306,
      "à¦®à¦¤": 307,
      "à¦¿,": 308,
      "à¦°à¦¶": 309,
      "à¦ķà¦¤": 310,
      "à¦¦à¦¨": 311,
      "Ġà¦ħà¦°": 312,
      "à¦¹à¦®": 313,
      "Ġà¦ħà¦§": 314,
      "à¦ĸà¦¤": 315,
      "à¦ĩà¦²": 316,
      "à¦¯à¦¬": 317,
      "Ġà¦°à¦¯": 318,
      "à¦Ĩà¦®à¦°": 319,
      "Ġà¦ķà¦°à¦²": 320,
      "à¦¤à¦¨": 321,
      "à¦Ĺà¦¤": 322,
      "à¦ħà¦¨": 323,
      "à¦²à¦¬": 324,
      "à¦¿?": 325,
      "Ġà¦¸à¦¨": 326,
      "à¦Ĩà¦ªà¦¨": 327,
      "à¦ļà¦²": 328,
      "Ġà¦ħà¦¬à¦¸": 329,
      "à¦¬à¦¬": 330,
      "Ġà¦¬à¦¸": 331,
      "à¦ķà¦¬": 332,
      "à¦¯à¦¨": 333,
      "à¦¦à¦ķ": 334,
      "Ġà¦ıà¦²": 335,
      "Ġà¦ħà¦¸": 336,
      "à¦¯à¦¬à¦¸": 337,
      "Ġà¦¬à¦²à¦²": 338,
      "à¦¯à¦ķ": 339,
      "Ġà¦®à¦¹": 340,
      "à¦īà¦ľ": 341,
      "à¦°à¦¦": 342,
      "à¦ıà¦ĸà¦¨": 343,
      "§à§": 344,
      "Ġà¦īà¦ł": 345,
      "à¦®à¦²": 346,
      "à¦·à¦ķ": 347,
      "Ġà¦¸à¦°": 348,
      "à¦¹à¦¤": 349,
      "à¦®à¦°": 350,
      "Ġà¦¬à¦°": 351,
      "à¦ıà¦¨": 352,
      "Ġà¦¹à¦ĵà¦¯": 353,
      "à¦²à¦¤": 354,
      "à¦īà¦¨": 355,
      "Ġà¦¬à¦ĩ": 356,
      "à¦¼à§Ģ": 357,
      "à§ĭ,": 358,
      "à¦°à¦ª": 359,
      "à¦¨à¦®à¦¨": 360,
      "Ġà¦ıà¦ĸ": 361,
      "Ġà¦īà¦ļ": 362,
      "Ġà¦Ĺà¦¤": 363,
      "à¦Ĺà¦°": 364,
      "à¦¨à¦Ł": 365,
      "à§ĭ?": 366,
      "Ġà¦Ĩà¦¯": 367,
      "à¦ªà¦ķ": 368,
      "Ġà¦Ĩà¦°à¦ĵ": 369,
      "à¦ıà¦ķà¦Ł": 370,
      "Ġà¦¨à¦¤": 371,
      "à¦ĩà¦ķ": 372,
      "à§ģà¦ģ": 373,
      "à§¦": 374,
      "à¦¤à¦®": 375,
      "Ġà¦¸à¦ķ": 376,
      "Ġà¦Ĩà¦¶": 377,
      "à¦Łà¦ķà¦®": 378,
      "à¦¨à¦¬": 379,
      "à¦¯à¦®": 380,
      "Ġà¦īà¦¨": 381,
      "Ġà¦ĺà¦Łà¦¨": 382,
      "à¦ıà¦¨à¦ª": 383,
      "à¦¸à¦¹": 384,
      "Ġà¦¡à¦Łà¦ķà¦®": 385,
      "à¦ķà¦¦": 386,
      "à¦¨à¦¯": 387,
      "Ġà¦ıà¦ķà¦ľà¦¨": 388,
      "à¦¹à¦²": 389,
      "Ġà¦Ŀ": 390,
      "Ġà¦Ĩà¦ķ": 391,
      "à¦¹à¦°": 392,
      "à¦§à¦¨": 393,
      "à¦ıà¦¸": 394,
      "à¦Ĺà¦²": 395,
      "à¦¦à¦¸": 396,
      "à¦Łà¦ķ": 397,
      "à¦¼,": 398,
      "à¦®à¦ķ": 399,
      "à¦¾!": 400,
      "à¦¸à¦ķ": 401,
      "Ġà¦Ĩà¦ľ": 402,
      "Ġà¦¬à¦²à¦Ľ": 403,
      "Ġà¦īà¦¤": 404,
      "Ġà¦ķà¦¯": 405,
      "Ġà¦¤à¦ĸà¦¨": 406,
      "à¦°à¦¨": 407,
      "Ġà¦ķà¦²": 408,
      "Ġà¦ıà¦®à¦¨": 409,
      "Ġà¦¬à¦²à¦¤": 410,
      "à§ĩ!": 411,
      "à¦ĩà¦¯": 412,
      "Ġà¦ħà¦ª": 413,
      "Ġà¦Ĺà¦²": 414,
      "Ġà¦¬à¦ķ": 415,
      "Ġà¦Ĩà¦¦": 416,
      "à¦¨à¦¨": 417,
      "Ġà¦¸à¦Ń": 418,
      "à¦¯à¦¦": 419,
      "à¦®à¦¸": 420,
      "à¦°à¦¹à¦£": 421,
      "à¦¸à¦¨": 422,
      "Ġà¦ħà¦¤": 423,
      "à¦°à¦ĵ": 424,
      "à¦Ľà¦¨": 425,
      "Ġà¦§à¦°à¦¨": 426,
      "Ġà¦¸à¦¦à¦¸": 427,
      "à¦ĩà¦°": 428,
      "Ġà¦°à¦¹à¦®": 429,
      "Ġ\"": 430,
      "à¦ĥ": 431,
      "à¦¾-": 432,
      "à¦°à¦²": 433,
      "à¦°à¦ĩ": 434,
      "à¦¨à¦ķ": 435,
      "à¦¬à¦ª": 436,
      "Ġà¦Ĩà¦ĵà¦¯": 437,
      "à¦ıà¦¤": 438,
      "Ġà¦īà§İ": 439,
      "à¦¹à¦¸": 440,
      "à¦ĵà¦°": 441,
      "Ġà¦ĩà¦¤": 442,
      "Ġà§§à§": 443,
      "à¦¢": 444,
      "à¦°à¦ļ": 445,
      "Ġà¦ķà¦ĸà¦¨": 446,
      "Ġà¦ĵà¦ĩ": 447,
      "Ġà¦ĵà¦ªà¦°": 448,
      "Ġà¦Ľà¦¬": 449,
      "Ġà¦Ĩà¦ĩà¦¨": 450,
      "Ġà¦¹à¦¨": 451,
      "Ġà¦ĺà¦°": 452,
      "Ġà¦ĩà¦¸à¦²": 453,
      "à¦¦à¦²": 454,
      "à¦Ńà¦¬": 455,
      "Ġà¦ĩà¦¨": 456,
      "Ġà¦Ĩà¦¸à¦Ľ": 457,
      "à¦¬à¦ķ": 458,
      "Ġà¦¸à¦®à¦¸": 459,
      "Ġà¦Ĺà¦£": 460,
      "Ġà¦Ĩà¦¸à¦¬": 461,
      "à§ĩà¦ģ": 462,
      "Ġà¦ªà¦¥": 463,
      "à¦ĸà¦²": 464,
      "à¦«à¦²": 465,
      "à¦ıà¦ĸ": 466,
      "Ġ(": 467,
      "à¦Ĩà¦ľ": 468,
      "à¦¯à¦¬à¦¹": 469,
      "Ġà¦¸à¦¤": 470,
      "à¦¶à¦ķ": 471,
      "Ġà¦ıà¦¤": 472,
      "Ġà¦«à¦²": 473,
      "à¦¸à¦ª": 474,
      "Ġà¦¶à¦¤": 475,
      "à¦°à¦Ĺ": 476,
      "Ġà¦ķà¦¤": 477,
      "à¦ĩà¦Ł": 478,
      "Ġà¦Ńà¦¯": 479,
      "à¦¯à¦¤": 480,
      "Ġà¦ĵà¦¯": 481,
      "Ġà¦ĺà¦Ł": 482,
      "Ġ'": 483,
      "Ġà§¨": 484,
      "à¦°à¦Ł": 485,
      "Ġà¦ªà¦ķ": 486,
      "Ġà¦¬à¦²à¦¬": 487,
      "Ġà¦īà¦ªà¦°": 488,
      "à¦°à¦Ń": 489,
      "à¦¥à¦¨": 490,
      "Ġà¦Ńà¦°": 491,
      "à¦ĩà¦¬": 492,
      "à¦¯à¦ĩ": 493,
      "à¦¨à¦¦": 494,
      "à¦®à¦¦": 495,
      "Ġà¦¤à¦¥": 496,
      "à¦łà¦¨": 497,
      "à¦®à¦¬": 498,
      "Ġà¦ªà¦¦": 499,
      "à§Įà¦ģ": 500,
      "Ġà¦ķà¦¬": 501,
      "à¦¸à¦¦": 502,
      "à§¨": 503,
      "à¦ĩà¦¤": 504,
      "Ġà¦ıà¦¸à¦¬": 505,
      "à¦Ĺà¦£": 506,
      "à¦ªà¦¦": 507,
      "à¦·à¦®à¦¤": 508,
      "Ġà¦¯à¦¦": 509,
      "Ġà¦ĵà¦°": 510,
      "Ġà¦ĵà¦ł": 511,
      "à¦¼?": 512,
      "à¦®à¦ķà¦°": 513,
      "Ġà¦Ĩà¦¤": 514,
      "à¦ªà¦¡": 515,
      "Ġà¦ħà¦ªà¦°": 516,
      "Ġà¦¶à¦¹à¦°": 517,
      "Ġà¦īà¦ªà¦ľ": 518,
      "Ġà¦¬à¦¯": 519,
      "à¦Ĺà¦¬": 520,
      "à¦ĸà¦¬": 521,
      "à¦¸à¦°": 522,
      "Ġà¦¦à¦°": 523,
      "Ġà¦®à¦ľ": 524,
      "Ġà¦ıà¦¨": 525,
      "à¦ıà¦¬": 526,
      "Ġà¦°à¦ķ": 527,
      "Ġà¦Ĺà¦¡": 528,
      "Ġà¦ıà¦Ĺ": 529,
      "à¦ļà¦¯": 530,
      "Ġà¦¦à¦°à¦ķ": 531,
      "à§Ģ?": 532,
      "à¦¼à§ĩà¥¤": 533,
      "Ġà¦īà¦²": 534,
      "à¦ĺà¦°": 535,
      "à¦¬à¦¶": 536,
      "à¦·à¦¤": 537,
      "Ġà¦°à¦ķà¦®": 538,
      "Ġà¦Ĩà¦¸à¦²": 539,
      "à¦ıà¦®": 540,
      "à¦ıà¦®à¦¨": 541,
      "à¦Ĩà¦Ĺ": 542,
      "à§İà¦ķ": 543,
      "Ġà¦¸à¦¹à¦ľ": 544,
      "à¦¤à¦¤": 545,
      "à¦ļà¦ķ": 546,
      "Ġà¦ľà¦¯": 547,
      "Ġà¦¨à¦¦": 548,
      "à¦¹à¦¨": 549,
      "Ġà¦¶à¦°": 550,
      "à§§à§": 551,
      "à¦®à¦¯": 552,
      "Ġà¦¶à¦ķ": 553,
      "Ġà¦ĵà¦ķ": 554,
      "à¦¯à¦°": 555,
      "à¦¬à¦¤": 556,
      "Ġà¦Ĩà¦¹": 557,
      "à¦§à¦¬": 558,
      "à¦Ĩà¦¬": 559,
      "à¦¸à¦®à¦¯": 560,
      "Ġà¥¤": 561,
      "à§ģà¦ĥ": 562,
      "à§İà¦¸": 563,
      "Ġà¦Ĩà¦¹à¦®": 564,
      "Ġà¦īà¦ªà¦¸": 565,
      "à¦®à¦¹": 566,
      "Ġà¦¯à¦ĸà¦¨": 567,
      "Ġà¦²à¦ķ": 568,
      "à¦īà¦°": 569,
      "à¦¸à¦°à¦ķ": 570,
      "Ġà¦¸à¦¬à¦ļ": 571,
      "à¦¬à¦ĩ": 572,
      "à§ģà¥¤": 573,
      "Ġà¦ĩà¦īà¦¨": 574,
      "à¦°à¦ªà¦°": 575,
      "Ġà¦ľà¦®": 576,
      "Ġà¦ĸà¦¬à¦°": 577,
      "Ġà¦Ĩà¦¨à¦¨": 578,
      "Ġà¦¬à¦¹": 579,
      "à¦Ĺà¦ŀ": 580,
      "Ġà¦Ĩà¦¸à¦¤": 581,
      "Ġà¦ħà¦¬à¦¶": 582,
      "à¦¤à¦ķ": 583,
      "à¦ĩà¦¸": 584,
      "à¦ĵà¦ķ": 585,
      "à¦īà¦¦": 586,
      "à¦¨à¦¸": 587,
      "à¦Łà¦°": 588,
      "à¦Ĺà¦²à¦¬": 589,
      "à¦°à¦ķà¦®": 590,
      "à¦¾à¦ģ,": 591,
      "à¦°à¦ªà¦¤": 592,
      "à¦¨à¦°": 593,
      "à§ģ,": 594,
      "Ġà¦ıà¦ķà¦ĩ": 595,
      "Ġà¦ļà¦²à¦Ľ": 596,
      "à¦¯à¦¥": 597,
      "Ġà¦¸à¦¡": 598,
      "à¦ľà¦°": 599,
      "Ġà¦ľà¦²": 600,
      "à¦łà¦ķ": 601,
      "Ġà¦īà§İà¦¸à¦¬": 602,
      "à¦¯à¦¸": 603,
      "Ġà¦ķà¦ł": 604,
      "Ġà¦¸à¦ļ": 605,
      "à¦Łà¦Ĺ": 606,
      "Ġà¦¦à¦¶": 607,
      "à§Ģà¥¤": 608,
      "Ġà¦®à¦°": 609,
      "à¦°à¦®à¦£": 610,
      "à¦ıà¦°à¦ªà¦°": 611,
      "à¦¤à¦ĸà¦¨": 612,
      "à¦ķà¦ķ": 613,
      "à¦ķà¦Ń": 614,
      "à¦ľà¦¯": 615,
      "Ġà¦ĩà¦ļ": 616,
      "à¦¸à¦¤": 617,
      "à¦ľà¦²": 618,
      "à¦ĵà¦ĩ": 619,
      "à¦ĵà¦¹": 620,
      "à¦ıà¦¦": 621,
      "Ġà¦¶à¦¨": 622,
      "à¦Ĩà¦ļ": 623,
      "à¦ĺà¦Łà¦¨": 624,
      "Ġà¦ķà¦¹": 625,
      "Ġà¦¸à¦ķà¦²": 626,
      "à¦ľà¦§": 627,
      "à¦Ĺà¦Ľ": 628,
      "à¦ļà¦Ł": 629,
      "Ġà¦ħà¦ķ": 630,
      "Ġà¦ħà¦«": 631,
      "Ġà¦¯à¦¥": 632,
      "à¦ıà¦Ľ": 633,
      "à¦ıà¦¸à¦¬": 634,
      "à¦¨à¦Ĺ": 635,
      "à¦¼à§ģ": 636,
      "à¦®à¦Ĺ": 637,
      "Ġà¦Ĩà¦ļ": 638,
      "à¦Ĩà¦ĩ": 639,
      "Ġà¦Ľà¦¯": 640,
      "Ġà¦Ĳ": 641,
      "à¦¦à¦ª": 642,
      "à¦ĸà¦Ľ": 643,
      "Ġà¦ľà¦°": 644,
      "Ġà¦ħà¦Ĺ": 645,
      "Ġà¦¯à¦¤": 646,
      "à¦īà¦ķ": 647,
      "Ġà¦Ĩà¦¬à¦¦": 648,
      "à¦¿!": 649,
      "à¦ķà¦ľà¦¨": 650,
      "Ġà¦®à¦Ļ": 651,
      "à¦Ĺà¦łà¦¨": 652,
      "à¦¼à¦¾à¥¤": 653,
      "à¦īà¦²": 654,
      "Ġà¦¤à¦¤": 655,
      "Ġà¦ľà¦¨à¦Ĺà¦£": 656,
      "à¦Ŀà¦¤": 657,
      "Ġà§¨à§": 658,
      "à¦°à¦«": 659,
      "à¦ķà¦¸": 660,
      "à¦ķà¦¶": 661,
      "à§Ģ,": 662,
      "à¦·à¦¦": 663,
      "¯à§": 664,
      "à¦¶à¦Ĺ": 665,
      "Ġà¦ľà¦¡": 666,
      "Ġà¦Ľà¦¡": 667,
      "Ġà¦¸à¦®à¦°": 668,
      "à¦°à¦Ľ": 669,
      "à¦¬à¦¦": 670,
      "à§ĭà¦ģ": 671,
      "Ġà¦Ĩà¦ª": 672,
      "Ġà¦¦à¦ķ": 673,
      "Ġà¦°à¦Ļ": 674,
      "Ġà¦Ĺà¦¬": 675,
      "Ġà¦ļà¦°": 676,
      "à¦Ńà¦¯": 677,
      "à¦«à¦°": 678,
      "à¦¨à¦ĵ": 679,
      "à¦²à¦®": 680,
      "Ġà¦¬à¦Ļ": 681,
      "Ġà¦ªà¦¶": 682,
      "Ġà¦¤à¦°": 683,
      "à¦ĵà¦¦": 684,
      "Ġà¦ľà¦¬": 685,
      "à¦¥à¦²": 686,
      "Ġà¦Ĺà¦°": 687,
      "Ġà§©": 688,
      "à¦¬à¦¡": 689,
      "à¦¬à¦§": 690,
      "à¦¬à¦Ľà¦°": 691,
      "à¦Łà¦¬à¦²": 692,
      "Ġà¦¨à¦®": 693,
      "à¦ĵà¦Ł": 694,
      "à¦ľà¦¨à¦ķ": 695,
      "Ġà¦ļà¦²à¦ļ": 696,
      "à§§": 697,
      "Ġà¦ĭ": 698,
      "Ġà¦ķà¦¨": 699,
      "à¦¸à¦ļ": 700,
      "Ġà¦Ĩà¦Łà¦ķ": 701,
      "Ġà¦¡à¦Łà¦ķà¦®à¦ķ": 702,
      "Ġà¦ķà¦·": 703,
      "Ġà¦ªà¦Ľà¦¨": 704,
      "Ġà¦Ĩà¦ĩ": 705,
      "Ġà¦ħà¦ŀ": 706,
      "Ġà¦¶à¦¬": 707,
      "Ġà¦īà¦ĩà¦ķ": 708,
      "Ġà¦ıà¦ķà¦¦": 709,
      "Ġà¦ıà¦ĸà¦¨à¦ĵ": 710,
      "à¦¯à¦¤à¦®": 711,
      "à¦ķà¦¥": 712,
      "à¦Łà¦¤": 713,
      "Ġà¦¤à¦¦à¦¨": 714,
      "à¦§à¦¤": 715,
      "Ġà¦ĵà¦¦": 716,
      "Ġà¦§à¦¨": 717,
      "Ġà¦¬à¦¦à¦²": 718,
      "Ġà¦¸à¦ª": 719,
      "à¦ªà¦Ł": 720,
      "à¦ľà¦Ł": 721,
      "à¦·à¦®": 722,
      "à¦īà¦Ł": 723,
      "à¦°à¦¸à¦¨": 724,
      "Ġà¦Ĺà¦¤à¦ķ": 725,
      "à¦ķà¦¨": 726,
      "à¦²à¦¸": 727,
      "à¦¸à¦Ł": 728,
      "Ġà¦ļà¦²à¦¤": 729,
      "à¦¨à¦Ń": 730,
      "à¦¯à¦¯": 731,
      "Ġà¦ªà¦¦à¦ķ": 732,
      "Ġà¦¨à¦ĩ": 733,
      "Ġà¦¨à¦·": 734,
      "à¦¶à¦°": 735,
      "à¦¶à¦¬": 736,
      "Ġà¦ıà¦®": 737,
      "Ġà¦ıà¦Ń": 738,
      "Ġà¦¤à¦¬": 739,
      "à¦¹à¦¯": 740,
      "à¦ıà¦²": 741,
      "Ġà¦Ĺà¦łà¦¨": 742,
      "Ġà¦ļà¦Ł": 743,
      "Ġà¦ĺà¦£": 744,
      "à¦ħà¦¬à¦¶": 745,
      "Ġà¦¦à¦¶à¦®": 746,
      "à§ĩ-": 747,
      "à¦¤à¦²": 748,
      "à§ĭ!": 749,
      "à¦¸à¦Ń": 750,
      "à¦Łà¦¬": 751,
      "Ġà¦ªà¦¯": 752,
      "Ġà¦ªà¦²": 753,
      "Ġà¦¹à¦ĩà¦²": 754,
      "à¦¶à¦Ł": 755,
      "à¦Ĺà¦®": 756,
      "à¦Ĺà¦¬à¦¨": 757,
      "à¦°à¦ķà¦²": 758,
      "Ġà¦īà¦ªà¦¦": 759,
      "à¦²à¦Ł": 760,
      "à¦ľà¦¸": 761,
      "Ġà¦¶à¦¹": 762,
      "Ġà¦Ĺà¦°à¦®": 763,
      "Ġà¦²à¦¡": 764,
      "Ġà§¨à§¦": 765,
      "à¦ķà¦ĸà¦¨": 766,
      "à¦®à¦§": 767,
      "Ġà¦¹à¦ķ": 768,
      "Ġà¦®à¦¯": 769,
      "à¦ľà¦®": 770,
      "à¦ıà¦Ĺ": 771,
      "à¦Ĩà¦¸": 772,
      "Ġà¦Ńà¦¬à¦¨": 773,
      "à¦¾)": 774,
      "à¦¸à¦¡": 775,
      "Ġà¦¸à¦ł": 776,
      "Ġà¦¸à¦¦à¦°": 777,
      "Ġà¦ıà¦¦": 778,
      "à¦¡à¦¨": 779,
      "Ġà¦ħà¦²": 780,
      "à¦Ĩà¦¸à¦²": 781,
      "Ġà¦Ĺà¦Ń": 782,
      "Ġà¦īà¦ªà¦ķ": 783,
      "Ġà¦Ĩà¦ļà¦°à¦£": 784,
      "à¦Ĳ": 785,
      "à¦¤à¦¦": 786,
      "à¦¬à¦°à¦£": 787,
      "à¦®à¦ľ": 788,
      "à¦¦à¦¯": 789,
      "Ġà¦ªà¦¤": 790,
      "Ġà¦¨à¦¬": 791,
      "à¦ªà¦¥": 792,
      "Ġà¦¹à¦ĩà¦¯": 793,
      "Ġà¦¹à¦ĩà¦¤": 794,
      "à¦Ĩà¦¶": 795,
      "Ġà¦īà¦¡": 796,
      "Ġà¦ıà¦ķà¦¬": 797,
      "Ġà¦ĺà¦¨": 798,
      "à¦¦à¦°à¦¬à¦¨": 799,
      "à¦ıà¦ķà¦ĩ": 800,
      "ĠĊ": 801,
      "à§©": 802,
      "Ġà¦Ī": 803,
      "à¦¨à¦Ĺà¦°": 804,
      "à¦¯à¦Ł": 805,
      "à¦¬à¦¯": 806,
      "Ġà¦Ĩà¦Ł": 807,
      "à¦ĩà¦®": 808,
      "à¦ĩà¦ľ": 809,
      "à¦¶à¦²": 810,
      "Ġà¦®à¦ŀ": 811,
      "à¦ļà¦°": 812,
      "Ġà¦ħà¦¦": 813,
      "Ġà¦°à¦¬": 814,
      "Ġà¦¸à¦¬à¦ķ": 815,
      "Ġà¦¸à¦¹à¦¯": 816,
      "Ġà¦īà§İà¦ª": 817,
      "à¦ķà¦¯": 818,
      "à¦¬à¦¹": 819,
      "Ġà¦¨à¦Ĺà¦°": 820,
      "Ġà¦¨à¦ľà¦°": 821,
      "à¦ľà¦¤": 822,
      "à¦¹à¦¬": 823,
      "Ġà¦ħà¦¬à¦°": 824,
      "à¦Ĩà¦²": 825,
      "à¦īà¦ª": 826,
      "Ġà¦īà¦łà¦¤": 827,
      "à¦Ĩà¦ľà¦ķ": 828,
      "Ġà¦ĭà¦¤": 829,
      "à§Ń": 830,
      "à¦¯à¦ķà¦°": 831,
      "à¦Łà¦²": 832,
      "Ġà¦ªà¦£": 833,
      "Ġà¦Ĩà¦«": 834,
      "Ġà¦Ĩà¦¹à¦¤": 835,
      "Ġà¦¹à¦ĩà¦¬": 836,
      "à¦ĸà¦ķ": 837,
      "à¦ĵà¦¨": 838,
      "à¦¥à¦ķ": 839,
      "à¦£à¦¤": 840,
      "Ġà¦Ńà¦¬": 841,
      "Ġà¦ĵà¦Ł": 842,
      "Ġà¦ľà¦¨à¦ª": 843,
      "à¦ħà¦°": 844,
      "Ġà¦īà¦ªà¦²à¦ķ": 845,
      "Ġà¦¸à¦¹à¦ķ": 846,
      "à¦ıà¦¸à¦¸": 847,
      "à¦Ī": 848,
      "à¦¤à¦°à¦£": 849,
      "à¦²à¦¶": 850,
      "à¦®à¦£": 851,
      "Ġà¦®à¦¸": 852,
      "à¦§à¦°": 853,
      "Ġà¦Ĺà¦¨": 854,
      "à¦ħà¦¤": 855,
      "à¦¬à¦²à¦²": 856,
      "à¦Ĺà¦¤à¦ķ": 857,
      "Ġà¦Ĺà¦£à¦¤à¦¨": 858,
      "à§¨à§¦": 859,
      "à¦¨à¦²": 860,
      "à¦¯à¦ª": 861,
      "à¦²à¦Ĺ": 862,
      "à¦¼!": 863,
      "à¦®à¦Ł": 864,
      "à¦®à§İà¦ķ": 865,
      "Ġà¦Ĩà¦§": 866,
      "Ġà¦¨à¦Ń": 867,
      "Ġà¦ıà¦¡": 868,
      "à¦Ĺà¦ľ": 869,
      "à¦ĵà¦¤": 870,
      "à¦Ĩà¦¨": 871,
      "Ġà¦ıà¦ķà¦¸": 872,
      "à¦īà¦¸": 873,
      "Ġà¦Ĩà¦ľà¦ķ": 874,
      "à¦°à¦°": 875,
      "à¦¿à¦ĥ": 876,
      "à¦²à¦¦": 877,
      "à¦¬à¦¹à¦¨": 878,
      "à¦ªà¦®": 879,
      "à¦ªà¦¸": 880,
      "à¦ªà¦£": 881,
      "Ġà¦¹à¦ĵ": 882,
      "Ġà¦¹à¦°à¦¤": 883,
      "Ġà¦ıà¦ª": 884,
      "à¦·à¦°": 885,
      "Ġà¦¯à¦¨": 886,
      "à¦Ńà¦°": 887,
      "à¦Ĩà¦°à¦ĵ": 888,
      "à¦ıà¦ķà¦ľà¦¨": 889,
      "Ġà¦īà¦łà¦²": 890,
      "Ġà¦¦à¦°à¦ľ": 891,
      "à¦°à¦¦à¦°": 892,
      "à¦¯à¦ĸà¦¨": 893,
      "à¦®à¦ª": 894,
      "Ġà¦ªà¦ŀ": 895,
      "à¦ĩà¦Ń": 896,
      "à¦¡à¦²": 897,
      "à¦ļà¦¤": 898,
      "à¦¼à¦¾,": 899,
      "Ġà¦°à¦ļà¦¨": 900,
      "Ġà¦«à¦°": 901,
      "à¦°à¦£à¦¤": 902,
      "Ġà¦Ĩà¦¸à¦¨": 903,
      "Ġà¦¡à¦²": 904,
      "à¦ħà¦¸": 905,
      "à¦ĺà¦¨": 906,
      "à¦ıà¦ĩà¦ļ": 907,
      "Ġà§«": 908,
      "à¦¤à¦Ń": 909,
      "à¦²à¦ľ": 910,
      "Ġà¦¸à¦«à¦²": 911,
      "à¦Łà¦¸à¦®": 912,
      "à¦ĩà¦«": 913,
      "à¦Ĺà¦ķ": 914,
      "à¦Ĺà¦¡": 915,
      "Ġà¦ľà¦Ł": 916,
      "Ġà¦ħà¦ľ": 917,
      "à¦Ĩà¦¯": 918,
      "Ġà¦ļà¦®à§İà¦ķ": 919,
      "à¦īà¦¤": 920,
      "Ġà¦ĩà¦¸": 921,
      "à¦ŀà¦¤": 922,
      "Ġà§Ń": 923,
      "à¦ıà¦ķà¦¦": 924,
      "à§¬": 925,
      "à¦¿-": 926,
      "à¦ķà¦ĩ": 927,
      "à¦¼à¦¿à¥¤": 928,
      "Ġà¦¸à¦«à¦°": 929,
      "à¦Ľà¦¬": 930,
      "Ġà¦Ĩà¦ĺ": 931,
      "à¦ªà¦²": 932,
      "à¦ľà¦Ĺ": 933,
      "à¦§à¦ķ": 934,
      "Ġà¦ľà¦Ļ": 935,
      "à¦ıà¦Ń": 936,
      "Ġà¦°à¦ª": 937,
      "Ġà¦ĵà¦Ń": 938,
      "Ġà¦ľà¦¨à¦ķ": 939,
      "Ġà¦ĩà¦¯": 940,
      "à¦°à¦¸à¦Ļ": 941,
      "à¦¬à¦²à¦®": 942,
      "Ġà¦¬à¦ĩà¦¯": 943,
      "Ġà¦Ĩà¦¶à¦°": 944,
      "Ġà¦ķà¦¤à¦Ł": 945,
      "à§«": 946,
      "à¦°à¦ľ": 947,
      "à¦¨à¦ĩ": 948,
      "à¦¨à¦¹": 949,
      "à¦Łà¦®": 950,
      "Ġà¦Ĩà¦¡": 951,
      "à¦ľà¦¶": 952,
      "Ġà¦ıà¦¶": 953,
      "à¦ĸà¦°": 954,
      "à¦¹à¦°à¦£": 955,
      "à¦¥à¦ļ": 956,
      "Ġà¦ħà¦®": 957,
      "à¦ıà¦«": 958,
      "Ġà¦Ĺà¦ł": 959,
      "Ġà¦ļà¦¤": 960,
      "Ġà¦ļà¦ķ": 961,
      "Ġà¦īà¦Ńà¦¯": 962,
      "Ġà¦ĩà¦īà¦°": 963,
      "Ġà¦Ĩà¦Ĺà¦¸": 964,
      "Ġà§¬": 965,
      "..": 966,
      "à¦®à¦Ļ": 967,
      "à¦¸à¦ķà¦²": 968,
      "à¦¦à¦¶": 969,
      "Ġà¦Ĩà¦¦à¦°": 970,
      "Ġà¦¨à¦¨": 971,
      "Ġà¦¦à¦ĸà¦²": 972,
      "Ġà¦®à¦¶": 973,
      "Ġà¦¤à¦²": 974,
      "Ġà¦ĵà¦·": 975,
      "Ġà¦ıà¦ķà¦®": 976,
      "Ġà¦ĸà¦°à¦ļ": 977,
      "Ġà¦«à¦¸à¦²": 978,
      "à¦īà¦¡": 979,
      "Ġà¦¸à¦¬à¦¸à¦®à¦¯": 980,
      "à§İà¦¸à¦ķ": 981,
      "Ġà¦Ĩà¦²à¦®": 982,
      "Ġà¦ħà¦¬à¦¦": 983,
      "Ġà¦Ŀà¦¡": 984,
      "à¦ıà¦¸à¦ĩ": 985,
      "à§§à§¯à§": 986,
      "à¦¿à¦ģ": 987,
      "à¦¨à¦®": 988,
      "à¦ķà¦Ľ": 989,
      "à¦²à¦Ľ": 990,
      "à¦²à¦Ļ": 991,
      "à¦¼à§Ĥ": 992,
      "Ġà¦ķà¦ª": 993,
      "Ġà¦ķà¦«": 994,
      "à¥¤\"": 995,
      "Ġà¦¬à¦ķà¦°": 996,
      "Ġà¦¸à¦¤à¦°": 997,
      "à¦Ĺà¦¨": 998,
      "à¦ļà¦®": 999
    },
    "merges": [
      [
        "à",
        "¦"
      ],
      [
        "à",
        "§"
      ],
      [
        "Ġ",
        "à¦"
      ],
      [
        "à¦",
        "¾"
      ],
      [
        "à§",
        "ĩ"
      ],
      [
        "à¦",
        "°"
      ],
      [
        "à¦",
        "¿"
      ],
      [
        "à§",
        "į"
      ],
      [
        "à¦",
        "¨"
      ],
      [
        "à¦",
        "¯"
      ],
      [
        "à¦",
        "¤"
      ],
      [
        "à¦",
        "ķ"
      ],
      [
        "à¦",
        "²"
      ],
      [
        "à¦",
        "¼"
      ],
      [
        "à¦",
        "¬"
      ],
      [
        "à¦",
        "®"
      ],
      [
        "Ġà¦",
        "ķ"
      ],
      [
        "à§",
        "ģ"
      ],
      [
        "¥",
        "¤"
      ],
      [
        "à",
        "¥¤"
      ],
      [
        "à§",
        "ĭ"
      ],
      [
        "Ġà¦",
        "¬"
      ],
      [
        "à¦",
        "¸"
      ],
      [
        "Ġà¦",
        "¸"
      ],
      [
        "à¦",
        "¦"
      ],
      [
        "à¦",
        "Ł"
      ],
      [
        "Ġà¦",
        "ª"
      ],
      [
        "à¦",
        "Ľ"
      ],
      [
        "Ġà¦",
        "Ĩ"
      ],
      [
        "Ġà¦",
        "¨"
      ],
      [
        "à¦",
        "ª"
      ],
      [
        "à¦",
        "ĩ"
      ],
      [
        "Ġà¦",
        "¹"
      ],
      [
        "Ġà¦",
        "¦"
      ],
      [
        "à§",
        "Ģ"
      ],
      [
        "à¦¼",
        "à§ĩ"
      ],
      [
        "à¦",
        "¶"
      ],
      [
        "Ġà¦ķ",
        "à¦°"
      ],
      [
        "Ġà¦",
        "®"
      ],
      [
        "à¦",
        "ľ"
      ],
      [
        "Ġà¦",
        "ı"
      ],
      [
        "à¦",
        "Ĺ"
      ],
      [
        "Ġà¦",
        "¤"
      ],
      [
        "à¦",
        "·"
      ],
      [
        "à¦",
        "ĸ"
      ],
      [
        "à¦",
        "¡"
      ],
      [
        "à¦",
        "¹"
      ],
      [
        "à¦",
        "ļ"
      ],
      [
        "à¦",
        "ĵ"
      ],
      [
        "à¦",
        "§"
      ],
      [
        "à¦¼",
        "à¦¾"
      ],
      [
        "Ġà¦",
        "ľ"
      ],
      [
        "à¦",
        "¥"
      ],
      [
        "Ġà¦",
        "ħ"
      ],
      [
        "Ġà¦",
        "¯"
      ],
      [
        "à¦",
        "ı"
      ],
      [
        "à§ĩ",
        "à¥¤"
      ],
      [
        "Ġà¦",
        "¶"
      ],
      [
        "à¦",
        "Ĩ"
      ],
      [
        "Ġà¦",
        "°"
      ],
      [
        "Ġà¦",
        "Ĺ"
      ],
      [
        "Ġà¦",
        "ļ"
      ],
      [
        "à¦",
        "£"
      ],
      [
        "à¦",
        "Ń"
      ],
      [
        "à¦",
        "Ĥ"
      ],
      [
        "Ġà¦¹",
        "à¦¯"
      ],
      [
        "Ġà¦",
        "Ń"
      ],
      [
        "Ġà¦¬",
        "à¦²"
      ],
      [
        "Ġà¦",
        "ĵ"
      ],
      [
        "Ġà¦",
        "ī"
      ],
      [
        "Ġà¦Ĩ",
        "à¦®"
      ],
      [
        "Ġà¦",
        "Ľ"
      ],
      [
        "Ġà¦ı",
        "à¦ķ"
      ],
      [
        "Ġà¦",
        "ĸ"
      ],
      [
        "Ġà¦",
        "¥"
      ],
      [
        "Ġà¦ª",
        "à¦°"
      ],
      [
        "à¦",
        "ģ"
      ],
      [
        "à¦¾",
        "à¥¤"
      ],
      [
        "à¦",
        "ł"
      ],
      [
        "Ġà¦",
        "²"
      ],
      [
        "Ġà¦¸",
        "à¦®"
      ],
      [
        "à¦Ĩ",
        "à¦®"
      ],
      [
        "à¦ĵ",
        "à¦¯"
      ],
      [
        "à¦",
        "«"
      ],
      [
        "à¦°",
        "à¦ķ"
      ],
      [
        "à¦°",
        "à¦¤"
      ],
      [
        "à¦¿",
        "à¥¤"
      ],
      [
        "Ġà¦",
        "«"
      ],
      [
        "à¦",
        "ī"
      ],
      [
        "Ġà¦ħ",
        "à¦¨"
      ],
      [
        "à§",
        "Ĥ"
      ],
      [
        "à§",
        "ĥ"
      ],
      [
        "Ġà¦",
        "Ł"
      ],
      [
        "à¦¾",
        "à¦ģ"
      ],
      [
        "à¦",
        "Ļ"
      ],
      [
        "Ġà¦ľ",
        "à¦¨"
      ],
      [
        "à¦®",
        "à¦¨"
      ],
      [
        "à¦ĸ",
        "à¦¨"
      ],
      [
        "Ġà¦¹",
        "à¦¬"
      ],
      [
        "à¦ľ",
        "à¦¨"
      ],
      [
        "Ġà¦Ĩ",
        "à¦Ľ"
      ],
      [
        "à¦ª",
        "à¦°"
      ],
      [
        "Ġà¦Ĩ",
        "à¦°"
      ],
      [
        "à¦¼",
        "à¥¤"
      ],
      [
        "à¦°",
        "à¦£"
      ],
      [
        "Ġà¦",
        "ĺ"
      ],
      [
        "Ġà¦",
        "ĩ"
      ],
      [
        "Ġà¦",
        "§"
      ],
      [
        "Ġà¦ıà¦ķ",
        "à¦Ł"
      ],
      [
        "Ġà¦Ĩ",
        "à¦¸"
      ],
      [
        "à¦¼",
        "à¦¿"
      ],
      [
        "à¦ª",
        "à¦¨"
      ],
      [
        "à¦¾",
        "à¦Ĥ"
      ],
      [
        "Ġà¦",
        "¡"
      ],
      [
        "Ġà¦ķà¦°",
        "à¦¤"
      ],
      [
        "à¦¬",
        "à¦°"
      ],
      [
        "à§ĭ",
        "à¥¤"
      ],
      [
        "Ġà¦ķ",
        "à¦¥"
      ],
      [
        "Ġà¦¸",
        "à¦¬"
      ],
      [
        "à¦",
        "ŀ"
      ],
      [
        "Ġà¦®",
        "à¦¨"
      ],
      [
        "à§ĩ",
        "?"
      ],
      [
        "Ġà¦¹",
        "à¦²"
      ],
      [
        "à§",
        "Ī"
      ],
      [
        "à¦¤",
        "à¦°"
      ],
      [
        "à¦¬",
        "à¦¨"
      ],
      [
        "à¦¬",
        "à¦¸"
      ],
      [
        "Ġà¦ı",
        "à¦ĩ"
      ],
      [
        "à¦",
        "ħ"
      ],
      [
        "à¦¾",
        ","
      ],
      [
        "Ġà¦¸à¦®",
        "à¦¯"
      ],
      [
        "à§ĩ",
        ","
      ],
      [
        "Ġà¦ļ",
        "à¦²"
      ],
      [
        "à¦°",
        "à¦¬"
      ],
      [
        "Ġà¦Ĩ",
        "à¦Ĺ"
      ],
      [
        "à¦¸",
        "à¦¬"
      ],
      [
        "à¦",
        "ĺ"
      ],
      [
        "à§",
        "İ"
      ],
      [
        "Ġà¦ı",
        "à¦¬"
      ],
      [
        "à¦Ĩ",
        "à¦°"
      ],
      [
        "à¦¤",
        "à¦¬"
      ],
      [
        "Ġà¦ī",
        "à¦ª"
      ],
      [
        "à§",
        "Į"
      ],
      [
        "à¦ķ",
        "à¦°"
      ],
      [
        "Ġà¦ķà¦°",
        "à¦Ľ"
      ],
      [
        "Ġà¦ķà¦°",
        "à¦¬"
      ],
      [
        "Ġà¦ª",
        "à¦¡"
      ],
      [
        "Ġà¦§",
        "à¦°"
      ],
      [
        "à¦¶",
        "à¦¨"
      ],
      [
        "à¦ķ",
        "à¦Ł"
      ],
      [
        "à¦°",
        "à¦®"
      ],
      [
        "à¦ı",
        "à¦ĩ"
      ],
      [
        "Ġ",
        "à§"
      ],
      [
        "Ġà¦¸",
        "à¦Ļ"
      ],
      [
        "Ġà¦®",
        "à¦§"
      ],
      [
        "Ġà¦Ĩ",
        "à¦¬"
      ],
      [
        "à¦°",
        "à¦¸"
      ],
      [
        "à¦¨",
        "à¦¤"
      ],
      [
        "à¦ª",
        "à¦¤"
      ],
      [
        "Ġà¦ı",
        "à¦Ł"
      ],
      [
        "Ġà¦Ĩ",
        "à¦²"
      ],
      [
        "Ġà¦®",
        "à¦¤"
      ],
      [
        "Ġà¦ķ",
        "à¦®"
      ],
      [
        "Ġà¦¦",
        "à¦²"
      ],
      [
        "à¦ļ",
        "à¦¨"
      ],
      [
        "à¦ı",
        "à¦Ł"
      ],
      [
        "Ġà¦ı",
        "à¦¸"
      ],
      [
        "à¦²",
        "à¦¨"
      ],
      [
        "à¦",
        "Ŀ"
      ],
      [
        "à¦Ľ",
        "à¦°"
      ],
      [
        "à¦¦",
        "à¦°"
      ],
      [
        "Ġà¦¸",
        "à¦°à¦ķ"
      ],
      [
        "à¦¬",
        "à¦²"
      ],
      [
        "Ġà¦",
        "ł"
      ],
      [
        "à¦ĩ",
        "à¦¨"
      ],
      [
        "Ġà¦¬",
        "à¦¨"
      ],
      [
        "Ġà¦¹",
        "à¦¤"
      ],
      [
        "à¦¥",
        "à¦®"
      ],
      [
        "Ġà¦¹",
        "à¦ļ"
      ],
      [
        "Ġà¦¨",
        "à¦¯"
      ],
      [
        "Ġà¦ı",
        "à¦ĸà¦¨"
      ],
      [
        "à¦²",
        "à¦ķ"
      ],
      [
        "à¦ķ",
        "à¦®"
      ],
      [
        "Ġà¦ī",
        "à¦¦"
      ],
      [
        "Ġà¦Ĩ",
        "à¦ªà¦¨"
      ],
      [
        "à¦·",
        "à¦£"
      ],
      [
        "à¦¼",
        "à§ĭ"
      ],
      [
        "à¦²",
        "à¦¯"
      ],
      [
        "Ġà¦ħ",
        "à¦Ń"
      ],
      [
        "à¦°",
        "à¦§"
      ],
      [
        "Ġà¦¬",
        "à¦Ľà¦°"
      ],
      [
        "Ġà¦",
        "¢"
      ],
      [
        "à¦ķ",
        "à¦²"
      ],
      [
        "à¦¿",
        "à¦Ĥ"
      ],
      [
        "à¦ı",
        "à¦°"
      ],
      [
        "à¦·",
        "à¦¯"
      ],
      [
        "Ġà¦Ĩ",
        "à¦¨"
      ],
      [
        "Ġà¦¬",
        "à¦¡"
      ],
      [
        "à¦Ł",
        "à¦¨"
      ],
      [
        "Ġà¦¸",
        "à¦¹"
      ],
      [
        "à¦¸",
        "à¦®"
      ],
      [
        "à¦°",
        "à¦¥à¦®"
      ],
      [
        "à¦°",
        "à¦¯"
      ],
      [
        "Ġà¦Ĩà¦®",
        "à¦°"
      ],
      [
        "à¦¾",
        "?"
      ],
      [
        "Ġà¦ħ",
        "à¦¬"
      ],
      [
        "Ġà¦ı",
        "à¦°"
      ],
      [
        "à¦¸",
        "à¦²"
      ],
      [
        "à¦ı",
        "à¦ķ"
      ],
      [
        "à¦°",
        "à¦¹"
      ],
      [
        "à¦®",
        "à¦¤"
      ],
      [
        "à¦¿",
        ","
      ],
      [
        "à¦°",
        "à¦¶"
      ],
      [
        "à¦ķ",
        "à¦¤"
      ],
      [
        "à¦¦",
        "à¦¨"
      ],
      [
        "Ġà¦ħ",
        "à¦°"
      ],
      [
        "à¦¹",
        "à¦®"
      ],
      [
        "Ġà¦ħ",
        "à¦§"
      ],
      [
        "à¦ĸ",
        "à¦¤"
      ],
      [
        "à¦ĩ",
        "à¦²"
      ],
      [
        "à¦¯",
        "à¦¬"
      ],
      [
        "Ġà¦°",
        "à¦¯"
      ],
      [
        "à¦Ĩà¦®",
        "à¦°"
      ],
      [
        "Ġà¦ķà¦°",
        "à¦²"
      ],
      [
        "à¦¤",
        "à¦¨"
      ],
      [
        "à¦Ĺ",
        "à¦¤"
      ],
      [
        "à¦ħ",
        "à¦¨"
      ],
      [
        "à¦²",
        "à¦¬"
      ],
      [
        "à¦¿",
        "?"
      ],
      [
        "Ġà¦¸",
        "à¦¨"
      ],
      [
        "à¦Ĩ",
        "à¦ªà¦¨"
      ],
      [
        "à¦ļ",
        "à¦²"
      ],
      [
        "Ġà¦ħ",
        "à¦¬à¦¸"
      ],
      [
        "à¦¬",
        "à¦¬"
      ],
      [
        "Ġà¦¬",
        "à¦¸"
      ],
      [
        "à¦ķ",
        "à¦¬"
      ],
      [
        "à¦¯",
        "à¦¨"
      ],
      [
        "à¦¦",
        "à¦ķ"
      ],
      [
        "Ġà¦ı",
        "à¦²"
      ],
      [
        "Ġà¦ħ",
        "à¦¸"
      ],
      [
        "à¦¯",
        "à¦¬à¦¸"
      ],
      [
        "Ġà¦¬à¦²",
        "à¦²"
      ],
      [
        "à¦¯",
        "à¦ķ"
      ],
      [
        "Ġà¦®",
        "à¦¹"
      ],
      [
        "à¦ī",
        "à¦ľ"
      ],
      [
        "à¦°",
        "à¦¦"
      ],
      [
        "à¦ı",
        "à¦ĸà¦¨"
      ],
      [
        "§",
        "à§"
      ],
      [
        "Ġà¦ī",
        "à¦ł"
      ],
      [
        "à¦®",
        "à¦²"
      ],
      [
        "à¦·",
        "à¦ķ"
      ],
      [
        "Ġà¦¸",
        "à¦°"
      ],
      [
        "à¦¹",
        "à¦¤"
      ],
      [
        "à¦®",
        "à¦°"
      ],
      [
        "Ġà¦¬",
        "à¦°"
      ],
      [
        "à¦ı",
        "à¦¨"
      ],
      [
        "Ġà¦¹",
        "à¦ĵà¦¯"
      ],
      [
        "à¦²",
        "à¦¤"
      ],
      [
        "à¦ī",
        "à¦¨"
      ],
      [
        "Ġà¦¬",
        "à¦ĩ"
      ],
      [
        "à¦¼",
        "à§Ģ"
      ],
      [
        "à§ĭ",
        ","
      ],
      [
        "à¦°",
        "à¦ª"
      ],
      [
        "à¦¨",
        "à¦®à¦¨"
      ],
      [
        "Ġà¦ı",
        "à¦ĸ"
      ],
      [
        "Ġà¦ī",
        "à¦ļ"
      ],
      [
        "Ġà¦Ĺ",
        "à¦¤"
      ],
      [
        "à¦Ĺ",
        "à¦°"
      ],
      [
        "à¦¨",
        "à¦Ł"
      ],
      [
        "à§ĭ",
        "?"
      ],
      [
        "Ġà¦Ĩ",
        "à¦¯"
      ],
      [
        "à¦ª",
        "à¦ķ"
      ],
      [
        "Ġà¦Ĩà¦°",
        "à¦ĵ"
      ],
      [
        "à¦ı",
        "à¦ķà¦Ł"
      ],
      [
        "Ġà¦¨",
        "à¦¤"
      ],
      [
        "à¦ĩ",
        "à¦ķ"
      ],
      [
        "à§ģ",
        "à¦ģ"
      ],
      [
        "à§",
        "¦"
      ],
      [
        "à¦¤",
        "à¦®"
      ],
      [
        "Ġà¦¸",
        "à¦ķ"
      ],
      [
        "Ġà¦Ĩ",
        "à¦¶"
      ],
      [
        "à¦Ł",
        "à¦ķà¦®"
      ],
      [
        "à¦¨",
        "à¦¬"
      ],
      [
        "à¦¯",
        "à¦®"
      ],
      [
        "Ġà¦ī",
        "à¦¨"
      ],
      [
        "Ġà¦ĺ",
        "à¦Łà¦¨"
      ],
      [
        "à¦ıà¦¨",
        "à¦ª"
      ],
      [
        "à¦¸",
        "à¦¹"
      ],
      [
        "Ġà¦¡",
        "à¦Łà¦ķà¦®"
      ],
      [
        "à¦ķ",
        "à¦¦"
      ],
      [
        "à¦¨",
        "à¦¯"
      ],
      [
        "Ġà¦ıà¦ķ",
        "à¦ľà¦¨"
      ],
      [
        "à¦¹",
        "à¦²"
      ],
      [
        "Ġà¦",
        "Ŀ"
      ],
      [
        "Ġà¦Ĩ",
        "à¦ķ"
      ],
      [
        "à¦¹",
        "à¦°"
      ],
      [
        "à¦§",
        "à¦¨"
      ],
      [
        "à¦ı",
        "à¦¸"
      ],
      [
        "à¦Ĺ",
        "à¦²"
      ],
      [
        "à¦¦",
        "à¦¸"
      ],
      [
        "à¦Ł",
        "à¦ķ"
      ],
      [
        "à¦¼",
        ","
      ],
      [
        "à¦®",
        "à¦ķ"
      ],
      [
        "à¦¾",
        "!"
      ],
      [
        "à¦¸",
        "à¦ķ"
      ],
      [
        "Ġà¦Ĩ",
        "à¦ľ"
      ],
      [
        "Ġà¦¬à¦²",
        "à¦Ľ"
      ],
      [
        "Ġà¦ī",
        "à¦¤"
      ],
      [
        "Ġà¦ķ",
        "à¦¯"
      ],
      [
        "Ġà¦¤",
        "à¦ĸà¦¨"
      ],
      [
        "à¦°",
        "à¦¨"
      ],
      [
        "Ġà¦ķ",
        "à¦²"
      ],
      [
        "Ġà¦ı",
        "à¦®à¦¨"
      ],
      [
        "Ġà¦¬à¦²",
        "à¦¤"
      ],
      [
        "à§ĩ",
        "!"
      ],
      [
        "à¦ĩ",
        "à¦¯"
      ],
      [
        "Ġà¦ħ",
        "à¦ª"
      ],
      [
        "Ġà¦Ĺ",
        "à¦²"
      ],
      [
        "Ġà¦¬",
        "à¦ķ"
      ],
      [
        "Ġà¦Ĩ",
        "à¦¦"
      ],
      [
        "à¦¨",
        "à¦¨"
      ],
      [
        "Ġà¦¸",
        "à¦Ń"
      ],
      [
        "à¦¯",
        "à¦¦"
      ],
      [
        "à¦®",
        "à¦¸"
      ],
      [
        "à¦°à¦¹",
        "à¦£"
      ],
      [
        "à¦¸",
        "à¦¨"
      ],
      [
        "Ġà¦ħ",
        "à¦¤"
      ],
      [
        "à¦°",
        "à¦ĵ"
      ],
      [
        "à¦Ľ",
        "à¦¨"
      ],
      [
        "Ġà¦§à¦°",
        "à¦¨"
      ],
      [
        "Ġà¦¸",
        "à¦¦à¦¸"
      ],
      [
        "à¦ĩ",
        "à¦°"
      ],
      [
        "Ġà¦°",
        "à¦¹à¦®"
      ],
      [
        "Ġ",
        "\""
      ],
      [
        "à¦",
        "ĥ"
      ],
      [
        "à¦¾",
        "-"
      ],
      [
        "à¦°",
        "à¦²"
      ],
      [
        "à¦°",
        "à¦ĩ"
      ],
      [
        "à¦¨",
        "à¦ķ"
      ],
      [
        "à¦¬",
        "à¦ª"
      ],
      [
        "Ġà¦Ĩ",
        "à¦ĵà¦¯"
      ],
      [
        "à¦ı",
        "à¦¤"
      ],
      [
        "Ġà¦ī",
        "à§İ"
      ],
      [
        "à¦¹",
        "à¦¸"
      ],
      [
        "à¦ĵ",
        "à¦°"
      ],
      [
        "Ġà¦ĩ",
        "à¦¤"
      ],
      [
        "Ġà§",
        "§à§"
      ],
      [
        "à¦",
        "¢"
      ],
      [
        "à¦°",
        "à¦ļ"
      ],
      [
        "Ġà¦ķ",
        "à¦ĸà¦¨"
      ],
      [
        "Ġà¦ĵ",
        "à¦ĩ"
      ],
      [
        "Ġà¦ĵ",
        "à¦ªà¦°"
      ],
      [
        "Ġà¦Ľ",
        "à¦¬"
      ],
      [
        "Ġà¦Ĩ",
        "à¦ĩà¦¨"
      ],
      [
        "Ġà¦¹",
        "à¦¨"
      ],
      [
        "Ġà¦ĺ",
        "à¦°"
      ],
      [
        "Ġà¦ĩ",
        "à¦¸à¦²"
      ],
      [
        "à¦¦",
        "à¦²"
      ],
      [
        "à¦Ń",
        "à¦¬"
      ],
      [
        "Ġà¦ĩ",
        "à¦¨"
      ],
      [
        "Ġà¦Ĩà¦¸",
        "à¦Ľ"
      ],
      [
        "à¦¬",
        "à¦ķ"
      ],
      [
        "Ġà¦¸à¦®",
        "à¦¸"
      ],
      [
        "Ġà¦Ĺ",
        "à¦£"
      ],
      [
        "Ġà¦Ĩà¦¸",
        "à¦¬"
      ],
      [
        "à§ĩ",
        "à¦ģ"
      ],
      [
        "Ġà¦ª",
        "à¦¥"
      ],
      [
        "à¦ĸ",
        "à¦²"
      ],
      [
        "à¦«",
        "à¦²"
      ],
      [
        "à¦ı",
        "à¦ĸ"
      ],
      [
        "Ġ",
        "("
      ],
      [
        "à¦Ĩ",
        "à¦ľ"
      ],
      [
        "à¦¯à¦¬",
        "à¦¹"
      ],
      [
        "Ġà¦¸",
        "à¦¤"
      ],
      [
        "à¦¶",
        "à¦ķ"
      ],
      [
        "Ġà¦ı",
        "à¦¤"
      ],
      [
        "Ġà¦«",
        "à¦²"
      ],
      [
        "à¦¸",
        "à¦ª"
      ],
      [
        "Ġà¦¶",
        "à¦¤"
      ],
      [
        "à¦°",
        "à¦Ĺ"
      ],
      [
        "Ġà¦ķ",
        "à¦¤"
      ],
      [
        "à¦ĩ",
        "à¦Ł"
      ],
      [
        "Ġà¦Ń",
        "à¦¯"
      ],
      [
        "à¦¯",
        "à¦¤"
      ],
      [
        "Ġà¦ĵ",
        "à¦¯"
      ],
      [
        "Ġà¦ĺ",
        "à¦Ł"
      ],
      [
        "Ġ",
        "'"
      ],
      [
        "Ġà§",
        "¨"
      ],
      [
        "à¦°",
        "à¦Ł"
      ],
      [
        "Ġà¦ª",
        "à¦ķ"
      ],
      [
        "Ġà¦¬à¦²",
        "à¦¬"
      ],
      [
        "Ġà¦ī",
        "à¦ªà¦°"
      ],
      [
        "à¦°",
        "à¦Ń"
      ],
      [
        "à¦¥",
        "à¦¨"
      ],
      [
        "Ġà¦Ń",
        "à¦°"
      ],
      [
        "à¦ĩ",
        "à¦¬"
      ],
      [
        "à¦¯",
        "à¦ĩ"
      ],
      [
        "à¦¨",
        "à¦¦"
      ],
      [
        "à¦®",
        "à¦¦"
      ],
      [
        "Ġà¦¤",
        "à¦¥"
      ],
      [
        "à¦ł",
        "à¦¨"
      ],
      [
        "à¦®",
        "à¦¬"
      ],
      [
        "Ġà¦ª",
        "à¦¦"
      ],
      [
        "à§Į",
        "à¦ģ"
      ],
      [
        "Ġà¦ķ",
        "à¦¬"
      ],
      [
        "à¦¸",
        "à¦¦"
      ],
      [
        "à§",
        "¨"
      ],
      [
        "à¦ĩ",
        "à¦¤"
      ],
      [
        "Ġà¦ı",
        "à¦¸à¦¬"
      ],
      [
        "à¦Ĺ",
        "à¦£"
      ],
      [
        "à¦ª",
        "à¦¦"
      ],
      [
        "à¦·",
        "à¦®à¦¤"
      ],
      [
        "Ġà¦¯",
        "à¦¦"
      ],
      [
        "Ġà¦ĵ",
        "à¦°"
      ],
      [
        "Ġà¦ĵ",
        "à¦ł"
      ],
      [
        "à¦¼",
        "?"
      ],
      [
        "à¦®",
        "à¦ķà¦°"
      ],
      [
        "Ġà¦Ĩ",
        "à¦¤"
      ],
      [
        "à¦ª",
        "à¦¡"
      ],
      [
        "Ġà¦ħ",
        "à¦ªà¦°"
      ],
      [
        "Ġà¦¶",
        "à¦¹à¦°"
      ],
      [
        "Ġà¦īà¦ª",
        "à¦ľ"
      ],
      [
        "Ġà¦¬",
        "à¦¯"
      ],
      [
        "à¦Ĺ",
        "à¦¬"
      ],
      [
        "à¦ĸ",
        "à¦¬"
      ],
      [
        "à¦¸",
        "à¦°"
      ],
      [
        "Ġà¦¦",
        "à¦°"
      ],
      [
        "Ġà¦®",
        "à¦ľ"
      ],
      [
        "Ġà¦ı",
        "à¦¨"
      ],
      [
        "à¦ı",
        "à¦¬"
      ],
      [
        "Ġà¦°",
        "à¦ķ"
      ],
      [
        "Ġà¦Ĺ",
        "à¦¡"
      ],
      [
        "Ġà¦ı",
        "à¦Ĺ"
      ],
      [
        "à¦ļ",
        "à¦¯"
      ],
      [
        "Ġà¦¦",
        "à¦°à¦ķ"
      ],
      [
        "à§Ģ",
        "?"
      ],
      [
        "à¦¼à§ĩ",
        "à¥¤"
      ],
      [
        "Ġà¦ī",
        "à¦²"
      ],
      [
        "à¦ĺ",
        "à¦°"
      ],
      [
        "à¦¬",
        "à¦¶"
      ],
      [
        "à¦·",
        "à¦¤"
      ],
      [
        "Ġà¦°",
        "à¦ķà¦®"
      ],
      [
        "Ġà¦Ĩà¦¸",
        "à¦²"
      ],
      [
        "à¦ı",
        "à¦®"
      ],
      [
        "à¦ı",
        "à¦®à¦¨"
      ],
      [
        "à¦Ĩ",
        "à¦Ĺ"
      ],
      [
        "à§İ",
        "à¦ķ"
      ],
      [
        "Ġà¦¸à¦¹",
        "à¦ľ"
      ],
      [
        "à¦¤",
        "à¦¤"
      ],
      [
        "à¦ļ",
        "à¦ķ"
      ],
      [
        "Ġà¦ľ",
        "à¦¯"
      ],
      [
        "Ġà¦¨",
        "à¦¦"
      ],
      [
        "à¦¹",
        "à¦¨"
      ],
      [
        "Ġà¦¶",
        "à¦°"
      ],
      [
        "à§",
        "§à§"
      ],
      [
        "à¦®",
        "à¦¯"
      ],
      [
        "Ġà¦¶",
        "à¦ķ"
      ],
      [
        "Ġà¦ĵ",
        "à¦ķ"
      ],
      [
        "à¦¯",
        "à¦°"
      ],
      [
        "à¦¬",
        "à¦¤"
      ],
      [
        "Ġà¦Ĩ",
        "à¦¹"
      ],
      [
        "à¦§",
        "à¦¬"
      ],
      [
        "à¦Ĩ",
        "à¦¬"
      ],
      [
        "à¦¸à¦®",
        "à¦¯"
      ],
      [
        "Ġ",
        "à¥¤"
      ],
      [
        "à§ģ",
        "à¦ĥ"
      ],
      [
        "à§İ",
        "à¦¸"
      ],
      [
        "Ġà¦Ĩ",
        "à¦¹à¦®"
      ],
      [
        "Ġà¦īà¦ª",
        "à¦¸"
      ],
      [
        "à¦®",
        "à¦¹"
      ],
      [
        "Ġà¦¯",
        "à¦ĸà¦¨"
      ],
      [
        "Ġà¦²",
        "à¦ķ"
      ],
      [
        "à¦ī",
        "à¦°"
      ],
      [
        "à¦¸",
        "à¦°à¦ķ"
      ],
      [
        "Ġà¦¸à¦¬",
        "à¦ļ"
      ],
      [
        "à¦¬",
        "à¦ĩ"
      ],
      [
        "à§ģ",
        "à¥¤"
      ],
      [
        "Ġà¦ĩ",
        "à¦īà¦¨"
      ],
      [
        "à¦°",
        "à¦ªà¦°"
      ],
      [
        "Ġà¦ľ",
        "à¦®"
      ],
      [
        "Ġà¦ĸ",
        "à¦¬à¦°"
      ],
      [
        "Ġà¦Ĩà¦¨",
        "à¦¨"
      ],
      [
        "Ġà¦¬",
        "à¦¹"
      ],
      [
        "à¦Ĺ",
        "à¦ŀ"
      ],
      [
        "Ġà¦Ĩà¦¸",
        "à¦¤"
      ],
      [
        "Ġà¦ħà¦¬",
        "à¦¶"
      ],
      [
        "à¦¤",
        "à¦ķ"
      ],
      [
        "à¦ĩ",
        "à¦¸"
      ],
      [
        "à¦ĵ",
        "à¦ķ"
      ],
      [
        "à¦ī",
        "à¦¦"
      ],
      [
        "à¦¨",
        "à¦¸"
      ],
      [
        "à¦Ł",
        "à¦°"
      ],
      [
        "à¦Ĺ",
        "à¦²à¦¬"
      ],
      [
        "à¦°à¦ķ",
        "à¦®"
      ],
      [
        "à¦¾à¦ģ",
        ","
      ],
      [
        "à¦°",
        "à¦ªà¦¤"
      ],
      [
        "à¦¨",
        "à¦°"
      ],
      [
        "à§ģ",
        ","
      ],
      [
        "Ġà¦ıà¦ķ",
        "à¦ĩ"
      ],
      [
        "Ġà¦ļà¦²",
        "à¦Ľ"
      ],
      [
        "à¦¯",
        "à¦¥"
      ],
      [
        "Ġà¦¸",
        "à¦¡"
      ],
      [
        "à¦ľ",
        "à¦°"
      ],
      [
        "Ġà¦ľ",
        "à¦²"
      ],
      [
        "à¦ł",
        "à¦ķ"
      ],
      [
        "Ġà¦īà§İ",
        "à¦¸à¦¬"
      ],
      [
        "à¦¯",
        "à¦¸"
      ],
      [
        "Ġà¦ķ",
        "à¦ł"
      ],
      [
        "Ġà¦¸",
        "à¦ļ"
      ],
      [
        "à¦Ł",
        "à¦Ĺ"
      ],
      [
        "Ġà¦¦",
        "à¦¶"
      ],
      [
        "à§Ģ",
        "à¥¤"
      ],
      [
        "Ġà¦®",
        "à¦°"
      ],
      [
        "à¦°à¦®",
        "à¦£"
      ],
      [
        "à¦ıà¦°",
        "à¦ªà¦°"
      ],
      [
        "à¦¤",
        "à¦ĸà¦¨"
      ],
      [
        "à¦ķ",
        "à¦ķ"
      ],
      [
        "à¦ķ",
        "à¦Ń"
      ],
      [
        "à¦ľ",
        "à¦¯"
      ],
      [
        "Ġà¦ĩ",
        "à¦ļ"
      ],
      [
        "à¦¸",
        "à¦¤"
      ],
      [
        "à¦ľ",
        "à¦²"
      ],
      [
        "à¦ĵ",
        "à¦ĩ"
      ],
      [
        "à¦ĵ",
        "à¦¹"
      ],
      [
        "à¦ı",
        "à¦¦"
      ],
      [
        "Ġà¦¶",
        "à¦¨"
      ],
      [
        "à¦Ĩ",
        "à¦ļ"
      ],
      [
        "à¦ĺ",
        "à¦Łà¦¨"
      ],
      [
        "Ġà¦ķ",
        "à¦¹"
      ],
      [
        "Ġà¦¸",
        "à¦ķà¦²"
      ],
      [
        "à¦ľ",
        "à¦§"
      ],
      [
        "à¦Ĺ",
        "à¦Ľ"
      ],
      [
        "à¦ļ",
        "à¦Ł"
      ],
      [
        "Ġà¦ħ",
        "à¦ķ"
      ],
      [
        "Ġà¦ħ",
        "à¦«"
      ],
      [
        "Ġà¦¯",
        "à¦¥"
      ],
      [
        "à¦ı",
        "à¦Ľ"
      ],
      [
        "à¦ı",
        "à¦¸à¦¬"
      ],
      [
        "à¦¨",
        "à¦Ĺ"
      ],
      [
        "à¦¼",
        "à§ģ"
      ],
      [
        "à¦®",
        "à¦Ĺ"
      ],
      [
        "Ġà¦Ĩ",
        "à¦ļ"
      ],
      [
        "à¦Ĩ",
        "à¦ĩ"
      ],
      [
        "Ġà¦Ľ",
        "à¦¯"
      ],
      [
        "Ġà¦",
        "Ĳ"
      ],
      [
        "à¦¦",
        "à¦ª"
      ],
      [
        "à¦ĸ",
        "à¦Ľ"
      ],
      [
        "Ġà¦ľ",
        "à¦°"
      ],
      [
        "Ġà¦ħ",
        "à¦Ĺ"
      ],
      [
        "Ġà¦¯",
        "à¦¤"
      ],
      [
        "à¦ī",
        "à¦ķ"
      ],
      [
        "Ġà¦Ĩà¦¬",
        "à¦¦"
      ],
      [
        "à¦¿",
        "!"
      ],
      [
        "à¦ķ",
        "à¦ľà¦¨"
      ],
      [
        "Ġà¦®",
        "à¦Ļ"
      ],
      [
        "à¦Ĺ",
        "à¦łà¦¨"
      ],
      [
        "à¦¼à¦¾",
        "à¥¤"
      ],
      [
        "à¦ī",
        "à¦²"
      ],
      [
        "Ġà¦¤",
        "à¦¤"
      ],
      [
        "Ġà¦ľà¦¨",
        "à¦Ĺà¦£"
      ],
      [
        "à¦Ŀ",
        "à¦¤"
      ],
      [
        "Ġà§¨",
        "à§"
      ],
      [
        "à¦°",
        "à¦«"
      ],
      [
        "à¦ķ",
        "à¦¸"
      ],
      [
        "à¦ķ",
        "à¦¶"
      ],
      [
        "à§Ģ",
        ","
      ],
      [
        "à¦·",
        "à¦¦"
      ],
      [
        "¯",
        "à§"
      ],
      [
        "à¦¶",
        "à¦Ĺ"
      ],
      [
        "Ġà¦ľ",
        "à¦¡"
      ],
      [
        "Ġà¦Ľ",
        "à¦¡"
      ],
      [
        "Ġà¦¸à¦®",
        "à¦°"
      ],
      [
        "à¦°",
        "à¦Ľ"
      ],
      [
        "à¦¬",
        "à¦¦"
      ],
      [
        "à§ĭ",
        "à¦ģ"
      ],
      [
        "Ġà¦Ĩ",
        "à¦ª"
      ],
      [
        "Ġà¦¦",
        "à¦ķ"
      ],
      [
        "Ġà¦°",
        "à¦Ļ"
      ],
      [
        "Ġà¦Ĺ",
        "à¦¬"
      ],
      [
        "Ġà¦ļ",
        "à¦°"
      ],
      [
        "à¦Ń",
        "à¦¯"
      ],
      [
        "à¦«",
        "à¦°"
      ],
      [
        "à¦¨",
        "à¦ĵ"
      ],
      [
        "à¦²",
        "à¦®"
      ],
      [
        "Ġà¦¬",
        "à¦Ļ"
      ],
      [
        "Ġà¦ª",
        "à¦¶"
      ],
      [
        "Ġà¦¤",
        "à¦°"
      ],
      [
        "à¦ĵ",
        "à¦¦"
      ],
      [
        "Ġà¦ľ",
        "à¦¬"
      ],
      [
        "à¦¥",
        "à¦²"
      ],
      [
        "Ġà¦Ĺ",
        "à¦°"
      ],
      [
        "Ġà§",
        "©"
      ],
      [
        "à¦¬",
        "à¦¡"
      ],
      [
        "à¦¬",
        "à¦§"
      ],
      [
        "à¦¬",
        "à¦Ľà¦°"
      ],
      [
        "à¦Ł",
        "à¦¬à¦²"
      ],
      [
        "Ġà¦¨",
        "à¦®"
      ],
      [
        "à¦ĵ",
        "à¦Ł"
      ],
      [
        "à¦ľà¦¨",
        "à¦ķ"
      ],
      [
        "Ġà¦ļà¦²",
        "à¦ļ"
      ],
      [
        "à§",
        "§"
      ],
      [
        "Ġà¦",
        "ĭ"
      ],
      [
        "Ġà¦ķ",
        "à¦¨"
      ],
      [
        "à¦¸",
        "à¦ļ"
      ],
      [
        "Ġà¦Ĩ",
        "à¦Łà¦ķ"
      ],
      [
        "Ġà¦¡à¦Łà¦ķà¦®",
        "à¦ķ"
      ],
      [
        "Ġà¦ķ",
        "à¦·"
      ],
      [
        "Ġà¦ª",
        "à¦Ľà¦¨"
      ],
      [
        "Ġà¦Ĩ",
        "à¦ĩ"
      ],
      [
        "Ġà¦ħ",
        "à¦ŀ"
      ],
      [
        "Ġà¦¶",
        "à¦¬"
      ],
      [
        "Ġà¦ī",
        "à¦ĩà¦ķ"
      ],
      [
        "Ġà¦ıà¦ķ",
        "à¦¦"
      ],
      [
        "Ġà¦ıà¦ĸà¦¨",
        "à¦ĵ"
      ],
      [
        "à¦¯",
        "à¦¤à¦®"
      ],
      [
        "à¦ķ",
        "à¦¥"
      ],
      [
        "à¦Ł",
        "à¦¤"
      ],
      [
        "Ġà¦¤",
        "à¦¦à¦¨"
      ],
      [
        "à¦§",
        "à¦¤"
      ],
      [
        "Ġà¦ĵ",
        "à¦¦"
      ],
      [
        "Ġà¦§",
        "à¦¨"
      ],
      [
        "Ġà¦¬",
        "à¦¦à¦²"
      ],
      [
        "Ġà¦¸",
        "à¦ª"
      ],
      [
        "à¦ª",
        "à¦Ł"
      ],
      [
        "à¦ľ",
        "à¦Ł"
      ],
      [
        "à¦·",
        "à¦®"
      ],
      [
        "à¦ī",
        "à¦Ł"
      ],
      [
        "à¦°à¦¸",
        "à¦¨"
      ],
      [
        "Ġà¦Ĺà¦¤",
        "à¦ķ"
      ],
      [
        "à¦ķ",
        "à¦¨"
      ],
      [
        "à¦²",
        "à¦¸"
      ],
      [
        "à¦¸",
        "à¦Ł"
      ],
      [
        "Ġà¦ļà¦²",
        "à¦¤"
      ],
      [
        "à¦¨",
        "à¦Ń"
      ],
      [
        "à¦¯",
        "à¦¯"
      ],
      [
        "Ġà¦ª",
        "à¦¦à¦ķ"
      ],
      [
        "Ġà¦¨",
        "à¦ĩ"
      ],
      [
        "Ġà¦¨",
        "à¦·"
      ],
      [
        "à¦¶",
        "à¦°"
      ],
      [
        "à¦¶",
        "à¦¬"
      ],
      [
        "Ġà¦ı",
        "à¦®"
      ],
      [
        "Ġà¦ı",
        "à¦Ń"
      ],
      [
        "Ġà¦¤",
        "à¦¬"
      ],
      [
        "à¦¹",
        "à¦¯"
      ],
      [
        "à¦ı",
        "à¦²"
      ],
      [
        "Ġà¦Ĺ",
        "à¦łà¦¨"
      ],
      [
        "Ġà¦ļ",
        "à¦Ł"
      ],
      [
        "Ġà¦ĺ",
        "à¦£"
      ],
      [
        "à¦ħ",
        "à¦¬à¦¶"
      ],
      [
        "Ġà¦¦à¦¶",
        "à¦®"
      ],
      [
        "à§ĩ",
        "-"
      ],
      [
        "à¦¤",
        "à¦²"
      ],
      [
        "à§ĭ",
        "!"
      ],
      [
        "à¦¸",
        "à¦Ń"
      ],
      [
        "à¦Ł",
        "à¦¬"
      ],
      [
        "Ġà¦ª",
        "à¦¯"
      ],
      [
        "Ġà¦ª",
        "à¦²"
      ],
      [
        "Ġà¦¹",
        "à¦ĩà¦²"
      ],
      [
        "à¦¶",
        "à¦Ł"
      ],
      [
        "à¦Ĺ",
        "à¦®"
      ],
      [
        "à¦Ĺ",
        "à¦¬à¦¨"
      ],
      [
        "à¦°à¦ķ",
        "à¦²"
      ],
      [
        "Ġà¦īà¦ª",
        "à¦¦"
      ],
      [
        "à¦²",
        "à¦Ł"
      ],
      [
        "à¦ľ",
        "à¦¸"
      ],
      [
        "Ġà¦¶",
        "à¦¹"
      ],
      [
        "Ġà¦Ĺ",
        "à¦°à¦®"
      ],
      [
        "Ġà¦²",
        "à¦¡"
      ],
      [
        "Ġà§¨",
        "à§¦"
      ],
      [
        "à¦ķ",
        "à¦ĸà¦¨"
      ],
      [
        "à¦®",
        "à¦§"
      ],
      [
        "Ġà¦¹",
        "à¦ķ"
      ],
      [
        "Ġà¦®",
        "à¦¯"
      ],
      [
        "à¦ľ",
        "à¦®"
      ],
      [
        "à¦ı",
        "à¦Ĺ"
      ],
      [
        "à¦Ĩ",
        "à¦¸"
      ],
      [
        "Ġà¦Ń",
        "à¦¬à¦¨"
      ],
      [
        "à¦¾",
        ")"
      ],
      [
        "à¦¸",
        "à¦¡"
      ],
      [
        "Ġà¦¸",
        "à¦ł"
      ],
      [
        "Ġà¦¸",
        "à¦¦à¦°"
      ],
      [
        "Ġà¦ı",
        "à¦¦"
      ],
      [
        "à¦¡",
        "à¦¨"
      ],
      [
        "Ġà¦ħ",
        "à¦²"
      ],
      [
        "à¦Ĩ",
        "à¦¸à¦²"
      ],
      [
        "Ġà¦Ĺ",
        "à¦Ń"
      ],
      [
        "Ġà¦īà¦ª",
        "à¦ķ"
      ],
      [
        "Ġà¦Ĩà¦ļ",
        "à¦°à¦£"
      ],
      [
        "à¦",
        "Ĳ"
      ],
      [
        "à¦¤",
        "à¦¦"
      ],
      [
        "à¦¬",
        "à¦°à¦£"
      ],
      [
        "à¦®",
        "à¦ľ"
      ],
      [
        "à¦¦",
        "à¦¯"
      ],
      [
        "Ġà¦ª",
        "à¦¤"
      ],
      [
        "Ġà¦¨",
        "à¦¬"
      ],
      [
        "à¦ª",
        "à¦¥"
      ],
      [
        "Ġà¦¹",
        "à¦ĩà¦¯"
      ],
      [
        "Ġà¦¹",
        "à¦ĩà¦¤"
      ],
      [
        "à¦Ĩ",
        "à¦¶"
      ],
      [
        "Ġà¦ī",
        "à¦¡"
      ],
      [
        "Ġà¦ıà¦ķ",
        "à¦¬"
      ],
      [
        "Ġà¦ĺ",
        "à¦¨"
      ],
      [
        "à¦¦à¦°",
        "à¦¬à¦¨"
      ],
      [
        "à¦ıà¦ķ",
        "à¦ĩ"
      ],
      [
        "Ġ",
        "Ċ"
      ],
      [
        "à§",
        "©"
      ],
      [
        "Ġà¦",
        "Ī"
      ],
      [
        "à¦¨",
        "à¦Ĺà¦°"
      ],
      [
        "à¦¯",
        "à¦Ł"
      ],
      [
        "à¦¬",
        "à¦¯"
      ],
      [
        "Ġà¦Ĩ",
        "à¦Ł"
      ],
      [
        "à¦ĩ",
        "à¦®"
      ],
      [
        "à¦ĩ",
        "à¦ľ"
      ],
      [
        "à¦¶",
        "à¦²"
      ],
      [
        "Ġà¦®",
        "à¦ŀ"
      ],
      [
        "à¦ļ",
        "à¦°"
      ],
      [
        "Ġà¦ħ",
        "à¦¦"
      ],
      [
        "Ġà¦°",
        "à¦¬"
      ],
      [
        "Ġà¦¸à¦¬",
        "à¦ķ"
      ],
      [
        "Ġà¦¸à¦¹",
        "à¦¯"
      ],
      [
        "Ġà¦īà§İ",
        "à¦ª"
      ],
      [
        "à¦ķ",
        "à¦¯"
      ],
      [
        "à¦¬",
        "à¦¹"
      ],
      [
        "Ġà¦¨",
        "à¦Ĺà¦°"
      ],
      [
        "Ġà¦¨",
        "à¦ľà¦°"
      ],
      [
        "à¦ľ",
        "à¦¤"
      ],
      [
        "à¦¹",
        "à¦¬"
      ],
      [
        "Ġà¦ħ",
        "à¦¬à¦°"
      ],
      [
        "à¦Ĩ",
        "à¦²"
      ],
      [
        "à¦ī",
        "à¦ª"
      ],
      [
        "Ġà¦īà¦ł",
        "à¦¤"
      ],
      [
        "à¦Ĩà¦ľ",
        "à¦ķ"
      ],
      [
        "Ġà¦ĭ",
        "à¦¤"
      ],
      [
        "à§",
        "Ń"
      ],
      [
        "à¦¯",
        "à¦ķà¦°"
      ],
      [
        "à¦Ł",
        "à¦²"
      ],
      [
        "Ġà¦ª",
        "à¦£"
      ],
      [
        "Ġà¦Ĩ",
        "à¦«"
      ],
      [
        "Ġà¦Ĩ",
        "à¦¹à¦¤"
      ],
      [
        "Ġà¦¹",
        "à¦ĩà¦¬"
      ],
      [
        "à¦ĸ",
        "à¦ķ"
      ],
      [
        "à¦ĵ",
        "à¦¨"
      ],
      [
        "à¦¥",
        "à¦ķ"
      ],
      [
        "à¦£",
        "à¦¤"
      ],
      [
        "Ġà¦Ń",
        "à¦¬"
      ],
      [
        "Ġà¦ĵ",
        "à¦Ł"
      ],
      [
        "Ġà¦ľà¦¨",
        "à¦ª"
      ],
      [
        "à¦ħ",
        "à¦°"
      ],
      [
        "Ġà¦īà¦ª",
        "à¦²à¦ķ"
      ],
      [
        "Ġà¦¸à¦¹",
        "à¦ķ"
      ],
      [
        "à¦ıà¦¸",
        "à¦¸"
      ],
      [
        "à¦",
        "Ī"
      ],
      [
        "à¦¤",
        "à¦°à¦£"
      ],
      [
        "à¦²",
        "à¦¶"
      ],
      [
        "à¦®",
        "à¦£"
      ],
      [
        "Ġà¦®",
        "à¦¸"
      ],
      [
        "à¦§",
        "à¦°"
      ],
      [
        "Ġà¦Ĺ",
        "à¦¨"
      ],
      [
        "à¦ħ",
        "à¦¤"
      ],
      [
        "à¦¬à¦²",
        "à¦²"
      ],
      [
        "à¦Ĺà¦¤",
        "à¦ķ"
      ],
      [
        "Ġà¦Ĺà¦£",
        "à¦¤à¦¨"
      ],
      [
        "à§¨",
        "à§¦"
      ],
      [
        "à¦¨",
        "à¦²"
      ],
      [
        "à¦¯",
        "à¦ª"
      ],
      [
        "à¦²",
        "à¦Ĺ"
      ],
      [
        "à¦¼",
        "!"
      ],
      [
        "à¦®",
        "à¦Ł"
      ],
      [
        "à¦®",
        "à§İà¦ķ"
      ],
      [
        "Ġà¦Ĩ",
        "à¦§"
      ],
      [
        "Ġà¦¨",
        "à¦Ń"
      ],
      [
        "Ġà¦ı",
        "à¦¡"
      ],
      [
        "à¦Ĺ",
        "à¦ľ"
      ],
      [
        "à¦ĵ",
        "à¦¤"
      ],
      [
        "à¦Ĩ",
        "à¦¨"
      ],
      [
        "Ġà¦ıà¦ķ",
        "à¦¸"
      ],
      [
        "à¦ī",
        "à¦¸"
      ],
      [
        "Ġà¦Ĩà¦ľ",
        "à¦ķ"
      ],
      [
        "à¦°",
        "à¦°"
      ],
      [
        "à¦¿",
        "à¦ĥ"
      ],
      [
        "à¦²",
        "à¦¦"
      ],
      [
        "à¦¬",
        "à¦¹à¦¨"
      ],
      [
        "à¦ª",
        "à¦®"
      ],
      [
        "à¦ª",
        "à¦¸"
      ],
      [
        "à¦ª",
        "à¦£"
      ],
      [
        "Ġà¦¹",
        "à¦ĵ"
      ],
      [
        "Ġà¦¹",
        "à¦°à¦¤"
      ],
      [
        "Ġà¦ı",
        "à¦ª"
      ],
      [
        "à¦·",
        "à¦°"
      ],
      [
        "Ġà¦¯",
        "à¦¨"
      ],
      [
        "à¦Ń",
        "à¦°"
      ],
      [
        "à¦Ĩà¦°",
        "à¦ĵ"
      ],
      [
        "à¦ıà¦ķ",
        "à¦ľà¦¨"
      ],
      [
        "Ġà¦īà¦ł",
        "à¦²"
      ],
      [
        "Ġà¦¦à¦°",
        "à¦ľ"
      ],
      [
        "à¦°",
        "à¦¦à¦°"
      ],
      [
        "à¦¯",
        "à¦ĸà¦¨"
      ],
      [
        "à¦®",
        "à¦ª"
      ],
      [
        "Ġà¦ª",
        "à¦ŀ"
      ],
      [
        "à¦ĩ",
        "à¦Ń"
      ],
      [
        "à¦¡",
        "à¦²"
      ],
      [
        "à¦ļ",
        "à¦¤"
      ],
      [
        "à¦¼à¦¾",
        ","
      ],
      [
        "Ġà¦°",
        "à¦ļà¦¨"
      ],
      [
        "Ġà¦«",
        "à¦°"
      ],
      [
        "à¦°à¦£",
        "à¦¤"
      ],
      [
        "Ġà¦Ĩà¦¸",
        "à¦¨"
      ],
      [
        "Ġà¦¡",
        "à¦²"
      ],
      [
        "à¦ħ",
        "à¦¸"
      ],
      [
        "à¦ĺ",
        "à¦¨"
      ],
      [
        "à¦ıà¦ĩ",
        "à¦ļ"
      ],
      [
        "Ġà§",
        "«"
      ],
      [
        "à¦¤",
        "à¦Ń"
      ],
      [
        "à¦²",
        "à¦ľ"
      ],
      [
        "Ġà¦¸",
        "à¦«à¦²"
      ],
      [
        "à¦Ł",
        "à¦¸à¦®"
      ],
      [
        "à¦ĩ",
        "à¦«"
      ],
      [
        "à¦Ĺ",
        "à¦ķ"
      ],
      [
        "à¦Ĺ",
        "à¦¡"
      ],
      [
        "Ġà¦ľ",
        "à¦Ł"
      ],
      [
        "Ġà¦ħ",
        "à¦ľ"
      ],
      [
        "à¦Ĩ",
        "à¦¯"
      ],
      [
        "Ġà¦ļ",
        "à¦®à§İà¦ķ"
      ],
      [
        "à¦ī",
        "à¦¤"
      ],
      [
        "Ġà¦ĩ",
        "à¦¸"
      ],
      [
        "à¦ŀ",
        "à¦¤"
      ],
      [
        "Ġà§",
        "Ń"
      ],
      [
        "à¦ıà¦ķ",
        "à¦¦"
      ],
      [
        "à§",
        "¬"
      ],
      [
        "à¦¿",
        "-"
      ],
      [
        "à¦ķ",
        "à¦ĩ"
      ],
      [
        "à¦¼",
        "à¦¿à¥¤"
      ],
      [
        "Ġà¦¸",
        "à¦«à¦°"
      ],
      [
        "à¦Ľ",
        "à¦¬"
      ],
      [
        "Ġà¦Ĩ",
        "à¦ĺ"
      ],
      [
        "à¦ª",
        "à¦²"
      ],
      [
        "à¦ľ",
        "à¦Ĺ"
      ],
      [
        "à¦§",
        "à¦ķ"
      ],
      [
        "Ġà¦ľ",
        "à¦Ļ"
      ],
      [
        "à¦ı",
        "à¦Ń"
      ],
      [
        "Ġà¦°",
        "à¦ª"
      ],
      [
        "Ġà¦ĵ",
        "à¦Ń"
      ],
      [
        "Ġà¦ľà¦¨",
        "à¦ķ"
      ],
      [
        "Ġà¦ĩ",
        "à¦¯"
      ],
      [
        "à¦°à¦¸",
        "à¦Ļ"
      ],
      [
        "à¦¬à¦²",
        "à¦®"
      ],
      [
        "Ġà¦¬à¦ĩ",
        "à¦¯"
      ],
      [
        "Ġà¦Ĩà¦¶",
        "à¦°"
      ],
      [
        "Ġà¦ķà¦¤",
        "à¦Ł"
      ],
      [
        "à§",
        "«"
      ],
      [
        "à¦°",
        "à¦ľ"
      ],
      [
        "à¦¨",
        "à¦ĩ"
      ],
      [
        "à¦¨",
        "à¦¹"
      ],
      [
        "à¦Ł",
        "à¦®"
      ],
      [
        "Ġà¦Ĩ",
        "à¦¡"
      ],
      [
        "à¦ľ",
        "à¦¶"
      ],
      [
        "Ġà¦ı",
        "à¦¶"
      ],
      [
        "à¦ĸ",
        "à¦°"
      ],
      [
        "à¦¹",
        "à¦°à¦£"
      ],
      [
        "à¦¥",
        "à¦ļ"
      ],
      [
        "Ġà¦ħ",
        "à¦®"
      ],
      [
        "à¦ı",
        "à¦«"
      ],
      [
        "Ġà¦Ĺ",
        "à¦ł"
      ],
      [
        "Ġà¦ļ",
        "à¦¤"
      ],
      [
        "Ġà¦ļ",
        "à¦ķ"
      ],
      [
        "Ġà¦ī",
        "à¦Ńà¦¯"
      ],
      [
        "Ġà¦ĩ",
        "à¦īà¦°"
      ],
      [
        "Ġà¦Ĩà¦Ĺ",
        "à¦¸"
      ],
      [
        "Ġà§",
        "¬"
      ],
      [
        ".",
        "."
      ],
      [
        "à¦®",
        "à¦Ļ"
      ],
      [
        "à¦¸",
        "à¦ķà¦²"
      ],
      [
        "à¦¦",
        "à¦¶"
      ],
      [
        "Ġà¦Ĩ",
        "à¦¦à¦°"
      ],
      [
        "Ġà¦¨",
        "à¦¨"
      ],
      [
        "Ġà¦¦",
        "à¦ĸà¦²"
      ],
      [
        "Ġà¦®",
        "à¦¶"
      ],
      [
        "Ġà¦¤",
        "à¦²"
      ],
      [
        "Ġà¦ĵ",
        "à¦·"
      ],
      [
        "Ġà¦ıà¦ķ",
        "à¦®"
      ],
      [
        "Ġà¦ĸ",
        "à¦°à¦ļ"
      ],
      [
        "Ġà¦«",
        "à¦¸à¦²"
      ],
      [
        "à¦ī",
        "à¦¡"
      ],
      [
        "Ġà¦¸à¦¬",
        "à¦¸à¦®à¦¯"
      ],
      [
        "à§İ",
        "à¦¸à¦ķ"
      ],
      [
        "Ġà¦Ĩà¦²",
        "à¦®"
      ],
      [
        "Ġà¦ħà¦¬",
        "à¦¦"
      ],
      [
        "Ġà¦Ŀ",
        "à¦¡"
      ],
      [
        "à¦ıà¦¸",
        "à¦ĩ"
      ],
      [
        "à§§à§",
        "¯à§"
      ],
      [
        "à¦¿",
        "à¦ģ"
      ],
      [
        "à¦¨",
        "à¦®"
      ],
      [
        "à¦ķ",
        "à¦Ľ"
      ],
      [
        "à¦²",
        "à¦Ľ"
      ],
      [
        "à¦²",
        "à¦Ļ"
      ],
      [
        "à¦¼",
        "à§Ĥ"
      ],
      [
        "Ġà¦ķ",
        "à¦ª"
      ],
      [
        "Ġà¦ķ",
        "à¦«"
      ],
      [
        "à¥¤",
        "\""
      ],
      [
        "Ġà¦¬",
        "à¦ķà¦°"
      ],
      [
        "Ġà¦¸",
        "à¦¤à¦°"
      ],
      [
        "à¦Ĺ",
        "à¦¨"
      ],
      [
        "à¦ļ",
        "à¦®"
      ]
    ]
  }
}