{
  "version": "1.0",
  "truncation": null,
  "padding": null,
  "added_tokens": [],
  "normalizer": null,
  "pre_tokenizer": {
    "type": "Whitespace"
  },
  "post_processor": null,
  "decoder": null,
  "model": {
    "type": "BPE",
    "dropout": null,
    "unk_token": null,
    "continuing_subword_prefix": null,
    "end_of_word_suffix": null,
    "fuse_unk": false,
    "byte_fallback": false,
    "ignore_merges": false,
    "vocab": {
      "!": 0,
      "\"": 1,
      "%": 2,
      "'": 3,
      "(": 4,
      ")": 5,
      ",": 6,
      "-": 7,
      ".": 8,
      "/": 9,
      "1": 10,
      ":": 11,
      ";": 12,
      "?": 13,
      "[": 14,
      "]": 15,
      "a": 16,
      "c": 17,
      "d": 18,
      "e": 19,
      "f": 20,
      "g": 21,
      "h": 22,
      "i": 23,
      "j": 24,
      "k": 25,
      "l": 26,
      "m": 27,
      "n": 28,
      "o": 29,
      "p": 30,
      "r": 31,
      "s": 32,
      "t": 33,
      "u": 34,
      "v": 35,
      "w": 36,
      "x": 37,
      "y": 38,
      "।": 39,
      "ঁ": 40,
      "ং": 41,
      "ঃ": 42,
      "অ": 43,
      "আ": 44,
      "ই": 45,
      "ঈ": 46,
      "উ": 47,
      "ঊ": 48,
      "ঋ": 49,
      "এ": 50,
      "ঐ": 51,
      "ও": 52,
      "ঔ": 53,
      "ক": 54,
      "খ": 55,
      "গ": 56,
      "ঘ": 57,
      "ঙ": 58,
      "চ": 59,
      "ছ": 60,
      "জ": 61,
      "ঝ": 62,
      "ঞ": 63,
      "ট": 64,
      "ঠ": 65,
      "ড": 66,
      "ঢ": 67,
      "ণ": 68,
      "ত": 69,
      "থ": 70,
      "দ": 71,
      "ধ": 72,
      "ন": 73,
      "প": 74,
      "ফ": 75,
      "ব": 76,
      "ভ": 77,
      "ম": 78,
      "য": 79,
      "র": 80,
      "ল": 81,
      "শ": 82,
      "ষ": 83,
      "স": 84,
      "হ": 85,
      "়": 86,
      "া": 87,
      "ি": 88,
      "ী": 89,
      "ু": 90,
      "ূ": 91,
      "ৃ": 92,
      "ে": 93,
      "ৈ": 94,
      "ো": 95,
      "ৌ": 96,
      "্": 97,
      "ৎ": 98,
      "০": 99,
      "১": 100,
      "২": 101,
      "৩": 102,
      "৪": 103,
      "৫": 104,
      "৬": 105,
      "৭": 106,
      "৮": 107,
      "৯": 108,
      "√": 109,
      "য়": 110,
      "ার": 111,
      "ের": 112,
      "্র": 113,
      "্য": 114,
      "ান": 115,
      "কর": 116,
      "েন": 117,
      "য়ে": 118,
      "নি": 119,
      "কে": 120,
      "্ত": 121,
      "না": 122,
      "বা": 123,
      "তে": 124,
      "বে": 125,
      "বি": 126,
      "ছে": 127,
      "লে": 128,
      "কা": 129,
      "মা": 130,
      "তি": 131,
      "তা": 132,
      "প্র": 133,
      "লা": 134,
      "ড়": 135,
      "রা": 136,
      "দে": 137,
      "মি": 138,
      "টি": 139,
      "নে": 140,
      "দি": 141,
      "টা": 142,
      "র্": 143,
      "স্": 144,
      "সে": 145,
      "কি": 146,
      "ায়": 147,
      "দের": 148,
      "ছি": 149,
      "পর": 150,
      "সা": 151,
      "ক্": 152,
      "্যা": 153,
      "ভা": 154,
      "থা": 155,
      "লো": 156,
      "এক": 157,
      "পা": 158,
      "করে": 159,
      "জন": 160,
      "য়া": 161,
      "কার": 162,
      "ন্": 163,
      "ক্ষ": 164,
      "তো": 165,
      "ুর": 166,
      "ন্ত": 167,
      "মার": 168,
      "বল": 169,
      "সম": 170,
      "হা": 171,
      "গে": 172,
      "বার": 173,
      "শি": 174,
      "লি": 175,
      "রে": 176,
      "তার": 177,
      "ষ্": 178,
      "কো": 179,
      "পার": 180,
      "যা": 181,
      "িত": 182,
      "থে": 183,
      "মে": 184,
      "হয়ে": 185,
      "আমি": 186,
      "হয়": 187,
      "সি": 188,
      "মান": 189,
      "আর": 190,
      "ছিল": 191,
      "শে": 192,
      "চ্": 193,
      "তিনি": 194,
      "দ্": 195,
      "তু": 196,
      "দা": 197,
      "চা": 198,
      "দু": 199,
      "িক": 200,
      "খা": 201,
      "জান": 202,
      "এই": 203,
      "খন": 204,
      "্ব": 205,
      "ক্ত": 206,
      "খে": 207,
      "ঙ্": 208,
      "য়ার": 209,
      "হবে": 210,
      "জা": 211,
      "থেকে": 212,
      "সব": 213,
      "ছেন": 214,
      "নের": 215,
      "আমা": 216,
      "আমার": 217,
      "যে": 218,
      "িয়ে": 219,
      "করা": 220,
      "ওয়া": 221,
      "জে": 222,
      "মু": 223,
      "দেশ": 224,
      "ব্য": 225,
      "ত্র": 226,
      "ানে": 227,
      "পরি": 228,
      "ছু": 229,
      "োগ": 230,
      "ভি": 231,
      "আছে": 232,
      "স্ত": 233,
      "জন্য": 234,
      "গ্র": 235,
      "জি": 236,
      "সং": 237,
      "স্থ": 238,
      "ড়া": 239,
      "অন": 240,
      "সু": 241,
      "কথা": 242,
      "গু": 243,
      "কোন": 244,
      "ডি": 245,
      "চে": 246,
      "কী": 247,
      "্প": 248,
      "নিয়ে": 249,
      "করতে": 250,
      "লের": 251,
      "গা": 252,
      "টে": 253,
      "শা": 254,
      "ধ্য": 255,
      "প্রতি": 256,
      "ির": 257,
      "বো": 258,
      "শু": 259,
      "হয়েছে": 260,
      "বলে": 261,
      "এটা": 262,
      "ছা": 263,
      "নার": 264,
      "ীর": 265,
      "্ম": 266,
      "েন্": 267,
      "আম": 268,
      "খু": 269,
      "হি": 270,
      "কিছু": 271,
      "দ্ধ": 272,
      "মন": 273,
      "দিয়ে": 274,
      "পে": 275,
      "সর": 276,
      "করেন": 277,
      "আপ": 278,
      "ড়ে": 279,
      "ীয়": 280,
      "আমাদের": 281,
      "আস": 282,
      "দিন": 283,
      "এর": 284,
      "কাজ": 285,
      "সময়": 286,
      "ন্ত্র": 287,
      "যোগ": 288,
      "চি": 289,
      "অনে": 290,
      "বর": 291,
      "ক্র": 292,
      "চ্ছে": 293,
      "পি": 294,
      "ুল": 295,
      "এখন": 296,
      "বলেন": 297,
      "ধান": 298,
      "যায়": 299,
      "আমরা": 300,
      "দেখ": 301,
      "শ্": 302,
      "খানে": 303,
      "ন্তু": 304,
      "অব": 305,
      "ট্র": 306,
      "কম": 307,
      "নির্": 308,
      "শেষ": 309,
      "অনেক": 310,
      "তুমি": 311,
      "লেন": 312,
      "নয়": 313,
      "লাম": 314,
      "কিন্তু": 315,
      "চার": 316,
      "মনে": 317,
      "ভালো": 318,
      "সঙ্": 319,
      "পুর": 320,
      "কোনো": 321,
      "োর": 322,
      "ড়ি": 323,
      "বাং": 324,
      "থাক": 325,
      "ষ্ঠ": 326,
      "বং": 327,
      "রি": 328,
      "ভাবে": 329,
      "নেই": 330,
      "উপ": 331,
      "এবং": 332,
      "ন্দ": 333,
      "বু": 334,
      "সহ": 335,
      "একটি": 336,
      "শিক্ষ": 337,
      "ন্ধ": 338,
      "বাংলা": 339,
      "ওয়ার": 340,
      "সরকার": 341,
      "্ড": 342,
      "সঙ্গে": 343,
      "মো": 344,
      "রো": 345,
      "মধ্য": 346,
      "হার": 347,
      "তাদের": 348,
      "ক্তি": 349,
      "স্য": 350,
      "ুরু": 351,
      "গুলো": 352,
      "তাঁ": 353,
      "ুষ": 354,
      "য়ের": 355,
      "একটা": 356,
      "ছিলেন": 357,
      "চিত": 358,
      "জ্": 359,
      "জার": 360,
      "ঞ্": 361,
      "টার": 362,
      "মন্ত্র": 363,
      "পু": 364,
      "যু": 365,
      "ব্যা": 366,
      "সম্": 367,
      "কের": 368,
      "বাই": 369,
      "মধ্যে": 370,
      "দেশের": 371,
      "অনু": 372,
      "বাস": 373,
      "করি": 374,
      "পারে": 375,
      "ত্য": 376,
      "ত্ত": 377,
      "ঠিক": 378,
      "তারা": 379,
      "বছ": 380,
      "মানুষ": 381,
      "লার": 382,
      "হলে": 383,
      "বন্ধ": 384,
      "ান্ত": 385,
      "তোমার": 386,
      "দ্র": 387,
      "ল্প": 388,
      "্যান": 389,
      "কর্ম": 390,
      "ফি": 391,
      "কেন": 392,
      "বড়": 393,
      "কু": 394,
      "চল": 395,
      "গত": 396,
      "ঢা": 397,
      "বিষ": 398,
      "বেন": 399,
      "শ্ব": 400,
      "োট": 401,
      "বেশ": 402,
      "ব্যব": 403,
      "মী": 404,
      "বছর": 405,
      "হচ্ছে": 406,
      "টু": 407,
      "লী": 408,
      "ধার": 409,
      "গো": 410,
      "ভার": 411,
      "জী": 412,
      "ল্": 413,
      "দেখা": 414,
      "নী": 415,
      "সো": 416,
      "সাথে": 417,
      "শুরু": 418,
      "এসে": 419,
      "র্থ": 420,
      "প্রধান": 421,
      "সার": 422,
      "খুব": 423,
      "নাম": 424,
      "ন্ন": 425,
      "আগে": 426,
      "প্ত": 427,
      "বিশ্ব": 428,
      "ানি": 429,
      "্যাল": 430,
      "ফে": 431,
      "কাল": 432,
      "দল": 433,
      "বিদ": 434,
      "প্রথ": 435,
      "সের": 436,
      "ঙ্গ": 437,
      "আই": 438,
      "স্থা": 439,
      "মন্ত্রী": 440,
      "ঢাকা": 441,
      "জের": 442,
      "অভি": 443,
      "রু": 444,
      "দিকে": 445,
      "এখানে": 446,
      "মের": 447,
      "ক্ষে": 448,
      "টির": 449,
      "গিয়ে": 450,
      "ধি": 451,
      "স্বা": 452,
      "ণা": 453,
      "জীব": 454,
      "টো": 455,
      "ানা": 456,
      "দুই": 457,
      "কাছে": 458,
      "গেছে": 459,
      "ঘট": 460,
      "তের": 461,
      "ানের": 462,
      "করার": 463,
      "তীয়": 464,
      "শী": 465,
      "চাই": 466,
      "ষ্ট": 467,
      "আমাকে": 468,
      "গ্রা": 469,
      "তাই": 470,
      "ধু": 471,
      "মতো": 472,
      "জ্ঞ": 473,
      "সদ": 474,
      "হত": 475,
      "প্রা": 476,
      "কারণ": 477,
      "প্রথম": 478,
      "রাজ": 479,
      "সেই": 480,
      "শ্র": 481,
      "পরে": 482,
      "বৃ": 483,
      "য়েছে": 484,
      "বাবা": 485,
      "অন্য": 486,
      "আজ": 487,
      "উদ্": 488,
      "ঠে": 489,
      "পতি": 490,
      "ডা": 491,
      "পূ": 492,
      "পড়": 493,
      "বাদ": 494,
      "তাকে": 495,
      "সমা": 496,
      "বেশি": 497,
      "দেশে": 498,
      "স্ব": 499,
      "নির্বা": 500,
      "প্": 501,
      "তিন": 502,
      "ভাব": 503,
      "গের": 504,
      "ধী": 505,
      "ানো": 506,
      "রের": 507,
      "বাড়ি": 508,
      "ভাই": 509,
      "তবে": 510,
      "হে": 511,
      "হলো": 512,
      "য়েন্": 513,
      "কৃ": 514,
      "এন": 515,
      "পর্য": 516,
      "চলে": 517,
      "সেন": 518,
      "য়ো": 519,
      "রাখ": 520,
      "তুন": 521,
      "হো": 522,
      "নায়": 523,
      "যাবে": 524,
      "গ্রহ": 525,
      "দেওয়া": 526,
      "বর্ত": 527,
      "স্যার": 528,
      "তাঁর": 529,
      "চাল": 530,
      "আপনার": 531,
      "ংশ": 532,
      "নতুন": 533,
      "ফা": 534,
      "বই": 535,
      "ছোট": 536,
      "ভে": 537,
      "ধর": 538,
      "পড়ে": 539,
      "এমন": 540,
      "গর": 541,
      "শো": 542,
      "ারা": 543,
      "সম্প": 544,
      "ক্রি": 545,
      "বের": 546,
      "তখন": 547,
      "ব্": 548,
      "কাশ": 549,
      "হাস": 550,
      "আরও": 551,
      "গণ": 552,
      "দী": 553,
      "নিউ": 554,
      "ম্ব": 555,
      "রয়েছে": 556,
      "সবাই": 557,
      "করেছে": 558,
      "ব্র": 559,
      "ঠা": 560,
      "শন": 561,
      "তিক": 562,
      "আপনি": 563,
      "দিতে": 564,
      "ধা": 565,
      "দেখে": 566,
      "র্ণ": 567,
      "ভিন্ন": 568,
      "লাগ": 569,
      "লায়": 570,
      "টাকা": 571,
      "ূল": 572,
      "নিয়": 573,
      "থাকে": 574,
      "হন": 575,
      "লিশ": 576,
      "চু": 577,
      "তির": 578,
      "ক্ষা": 579,
      "লোক": 580,
      "ওই": 581,
      "জানান": 582,
      "থায়": 583,
      "একজন": 584,
      "্থ": 585,
      "রাষ্": 586,
      "স্ট": 587,
      "রাষ্ট্র": 588,
      "আবার": 589,
      "ত্ব": 590,
      "সূ": 591,
      "বিদ্যাল": 592,
      "ইউ": 593,
      "কেউ": 594,
      "ফোর": 595,
      "করো": 596,
      "শিক্ষা": 597,
      "দায়": 598,
      "হু": 599,
      "হতে": 600,
      "ছাড়া": 601,
      "দার": 602,
      "রণ": 603,
      "পারি": 604,
      "ইস": 605,
      "ুন": 606,
      "করছে": 607,
      "নির্বাচ": 608,
      "ভব": 609,
      "চেয়ে": 610,
      "পুলিশ": 611,
      "আহ": 612,
      "এস": 613,
      "যান": 614,
      "করবে": 615,
      "সেটা": 616,
      "বলা": 617,
      "শুধু": 618,
      "সী": 619,
      "করেছেন": 620,
      "মুখ": 621,
      "আরে": 622,
      "দর": 623,
      "আন": 624,
      "ীদের": 625,
      "বিডি": 626,
      "ষ্টি": 627,
      "য়েন্টি": 628,
      "মূল": 629,
      "হই": 630,
      "তোমা": 631,
      "হাসি": 632,
      "বিভিন্ন": 633,
      "ডট": 634,
      "উত্ত": 635,
      "কখন": 636,
      "একটু": 637,
      "হাজার": 638,
      "যেতে": 639,
      "ধারণ": 640,
      "নিউজ": 641,
      "অধি": 642,
      "ষ্টা": 643,
      "ডটকম": 644,
      "আলো": 645,
      "উন্": 646,
      "টের": 647,
      "বিএন": 648,
      "শেখ": 649,
      "দুর্": 650,
      "প্রতিষ্ঠ": 651,
      "ছাত্র": 652,
      "বিডিনিউজ": 653,
      "দেন": 654,
      "য়েন্টিফোর": 655,
      "বিষয়": 656,
      "ন্দর": 657,
      "নাই": 658,
      "তৈ": 659,
      "দ্য": 660,
      "পো": 661,
      "যদি": 662,
      "লন": 663,
      "য়েক": 664,
      "রহ": 665,
      "নিজে": 666,
      "স্থান": 667,
      "পর্যন্ত": 668,
      "য়োজন": 669,
      "হী": 670,
      "করছি": 671,
      "মিক": 672,
      "জানা": 673,
      "বুঝ": 674,
      "অংশ": 675,
      "এম": 676,
      "দলের": 677,
      "ফু": 678,
      "ভূ": 679,
      "বাড়": 680,
      "হিসে": 681,
      "এসব": 682,
      "কয়েক": 683,
      "কর্ত": 684,
      "পাঠ": 685,
      "দাও": 686,
      "অর্থ": 687,
      "ফো": 688,
      "প্রকাশ": 689,
      "জানিয়ে": 690,
      "ডে": 691,
      "শ্য": 692,
      "দেখতে": 693,
      "টোয়েন্টিফোর": 694,
      "হিসেবে": 695,
      "কায়": 696,
      "কালে": 697,
      "প্রধানমন্ত্রী": 698,
      "খান": 699,
      "ছবি": 700,
      "জায়": 701,
      "ধরে": 702,
      "ফল": 703,
      "ম্যা": 704,
      "বাংলাদেশ": 705,
      "ওকে": 706,
      "খো": 707,
      "বিশেষ": 708,
      "গেল": 709,
      "মুক্তি": 710,
      "কল": 711,
      "ম্": 712,
      "কত": 713,
      "লু": 714,
      "আওয়া": 715,
      "তৃ": 716,
      "ার্থ": 717,
      "মাত্র": 718,
      "বলতে": 719,
      "মানে": 720,
      "বাংলাদেশের": 721,
      "অনুষ্ঠ": 722,
      "উৎ": 723,
      "দূ": 724,
      "মতা": 725,
      "মাধ্য": 726,
      "রাজন": 727,
      "যাও": 728,
      "সুন্দর": 729,
      "কমি": 730,
      "জু": 731,
      "মৃ": 732,
      "ছেলে": 733,
      "সাধারণ": 734,
      "ভাষ": 735,
      "গ্রহণ": 736,
      "ওর": 737,
      "মত": 738,
      "দিক": 739,
      "পাদ": 740,
      "েন্দ্র": 741,
      "বন্ধু": 742,
      "ইসলাম": 743,
      "সদস্য": 744,
      "বী": 745,
      "নিজের": 746,
      "লেখ": 747,
      "যুক্ত": 748,
      "ধরনের": 749,
      "হ্যা": 750,
      "প্রি": 751,
      "প্রে": 752,
      "ড়িয়ে": 753,
      "গঠ": 754,
      "দাঁ": 755,
      "রহমান": 756,
      "দর্": 757,
      "পারেন": 758,
      "মেয়ে": 759,
      "ঘটনা": 760,
      "ম্বর": 761,
      "অর্": 762,
      "প্রশ্": 763,
      "মানুষের": 764,
      "ঁচ": 765,
      "ধর্": 766,
      "করলে": 767,
      "দাবি": 768,
      "জীবন": 769,
      "দো": 770,
      "ভর": 771,
      "ভয়": 772,
      "্ট": 773,
      "পরী": 774,
      "হয়নি": 775,
      "চ্ছা": 776,
      "পের": 777,
      "ুত": 778,
      "ান্": 779,
      "ক্স": 780,
      "ব্যবস্থা": 781,
      "সম্পর্": 782,
      "আওয়ামী": 783,
      "আব": 784,
      "ত্যা": 785,
      "বৈ": 786,
      "বেদ": 787,
      "কোথায়": 788,
      "চ্ছি": 789,
      "ণ্ড": 790,
      "পৌ": 791,
      "যেন": 792,
      "বিষয়ে": 793,
      "ঘা": 794,
      "ঠি": 795,
      "সভা": 796,
      "মাণ": 797,
      "সরকারি": 798,
      "সরকারের": 799,
      "বিশ্ববিদ্যাল": 800,
      "কারণে": 801,
      "তৈরি": 802,
      "এতে": 803,
      "চনা": 804,
      "পদ": 805,
      "নেতা": 806,
      "খেলা": 807,
      "আপনা": 808,
      "ফিরে": 809,
      "উচিত": 810,
      "বস": 811,
      "মর": 812,
      "প্রায়": 813,
      "সেখানে": 814,
      "থাকবে": 815,
      "পরা": 816,
      "সত্য": 817,
      "দেয়": 818,
      "করেছি": 819,
      "মারা": 820,
      "বলি": 821,
      "কখনো": 822,
      "এলা": 823,
      "তাহলে": 824,
      "লাই": 825,
      "র্ব": 826,
      "সালে": 827,
      "গামী": 828,
      "পেয়ে": 829,
      "ঞ্চ": 830,
      "যুদ্ধ": 831,
      "এবার": 832,
      "ত্": 833,
      "থ্য": 834,
      "ৈতিক": 835,
      "নিশ্": 836,
      "বির": 837,
      "চেষ্টা": 838,
      "একা": 839,
      "বক্ত": 840,
      "িতে": 841,
      "হাম": 842,
      "জাতীয়": 843,
      "ত্রে": 844,
      "্যান্ড": 845,
      "তোমাকে": 846,
      "ওপর": 847,
      "ঘো": 848,
      "নানা": 849,
      "মহ": 850,
      "হাতে": 851,
      "পূর্ণ": 852,
      "কেন্দ্র": 853,
      "জয়": 854,
      "মাম": 855,
      "র্ষ": 856,
      "পাতা": 857,
      "জেলা": 858,
      "বোধ": 859,
      "চিত্র": 860,
      "সাং": 861,
      "রেখে": 862,
      "খালে": 863,
      "খ্যা": 864,
      "গল্প": 865,
      "ঘু": 866,
      "চো": 867,
      "ন্য": 868,
      "শহ": 869,
      "হাত": 870,
      "শ্বাস": 871,
      "মাধ্যমে": 872,
      "এটি": 873,
      "গুরু": 874,
      "নো": 875,
      "করব": 876,
      "বিচার": 877,
      "যাত্র": 878,
      "কলে": 879,
      "তথ্য": 880,
      "থি": 881,
      "বিক": 882,
      "প্রয়োজন": 883,
      "টিতে": 884,
      "পক্ষ": 885,
      "েনে": 886,
      "বিরো": 887,
      "ভাগ": 888,
      "শিশু": 889,
      "জিয়া": 890,
      "স্থায়": 891,
      "ছো": 892,
      "একই": 893,
      "মার্": 894,
      "আরো": 895,
      "েন্ট": 896,
      "বয়": 897,
      "ীরা": 898,
      "কেট": 899,
      "আইন": 900,
      "মৃত্য": 901,
      "পানি": 902,
      "বলো": 903,
      "হওয়ার": 904,
      "নিতে": 905,
      "পাওয়া": 906,
      "িত্ব": 907,
      "তুলে": 908,
      "চিন্ত": 909,
      "উত্তর": 910,
      "ক্যা": 911,
      "যখন": 912,
      "ুয়ার": 913,
      "সামনে": 914,
      "হোসেন": 915,
      "অ্যা": 916,
      "এত": 917,
      "সন্ত": 918,
      "নিক": 919,
      "বায়": 920,
      "অবশ্য": 921,
      "আয়": 922,
      "আসা": 923,
      "উঠ": 924,
      "পান": 925,
      "করবেন": 926,
      "নির": 927,
      "ল্লা": 928,
      "খালেদা": 929,
      "জল": 930,
      "ভিত": 931,
      "স্যা": 932,
      "্যে": 933,
      "নামে": 934,
      "বাঁ": 935,
      "বাজার": 936,
      "সাহা": 937,
      "কিছুই": 938,
      "সম্ভব": 939,
      "আগামী": 940,
      "উঠে": 941,
      "পথ": 942,
      "ভু": 943,
      "কেমন": 944,
      "সাই": 945,
      "ক্ষণ": 946,
      "পরিচাল": 947,
      "আসলে": 948,
      "পৌঁ": 949,
      "রকম": 950,
      "ানোর": 951,
      "তায়": 952,
      "প্রস্ত": 953,
      "রাতে": 954,
      "শিল্প": 955,
      "জানি": 956,
      "ব্যবহার": 957,
      "বাড়িতে": 958,
      "হ্যাঁ": 959,
      "খি": 960,
      "তী": 961,
      "ময়": 962,
      "নাকি": 963,
      "রাত": 964,
      "বারের": 965,
      "যাচ্ছে": 966,
      "গুলি": 967,
      "ঘরে": 968,
      "ষণা": 969,
      "স্ক": 970,
      "বিএনপি": 971,
      "প্রশ্ন": 972,
      "দশ": 973,
      "ধে": 974,
      "দিনের": 975,
      "বললেন": 976,
      "শেষে": 977,
      "ধীন": 978,
      "বক্তব্য": 979,
      "তম": 980,
      "পির": 981,
      "ম্প": 982,
      "সন্": 983,
      "হের": 984,
      "পাই": 985,
      "লিয়ে": 986,
      "যাই": 987,
      "জানতে": 988,
      "চিকি": 989,
      "এখনো": 990,
      "আসে": 991,
      "তেন": 992,
      "য্য": 993,
      "লতে": 994,
      "সমস্যা": 995,
      "স্ত্র": 996,
      "শিক্ষার্থ": 997,
      "ক্ষেত্রে": 998,
      "গ্রাম": 999,
      "চিকিৎ": 1000,
      "ওরা": 1001,
      "ঝা": 1002,
      "ভুল": 1003,
      "শর": 1004,
      "দ্বি": 1005,
      "গাছ": 1006,
      "ক্রম": 1007,
      "বাইরে": 1008,
      "বছরের": 1009,
      "আট": 1010,
      "চর": 1011,
      "হল": 1012,
      "স্টে": 1013,
      "কিস্ত": 1014,
      "সালের": 1015,
      "ক্ষমতা": 1016,
      "ব্যক্তি": 1017,
      "থাকতে": 1018,
      "ঞ্জ": 1019,
      "নির্বাচন": 1020,
      "দরকার": 1021,
      "হাসিনা": 1022,
      "ফোন": 1023,
      "গান": 1024,
      "পক্ষে": 1025,
      "বান": 1026,
      "পাকিস্ত": 1027,
      "জন্ম": 1028,
      "গেলে": 1029,
      "শুন": 1030,
      "কর্মকর্ত": 1031,
      "এসেছে": 1032,
      "উন্নয়": 1033,
      "ইতি": 1034,
      "পৃ": 1035,
      "সকাল": 1036,
      "বিশ্বাস": 1037,
      "গাড়ি": 1038,
      "রুদ্ধ": 1039,
      "হত্যা": 1040,
      "সেনা": 1041,
      "খবর": 1042,
      "ীতি": 1043,
      "মাঝ": 1044,
      "পাঁচ": 1045,
      "কোটি": 1046,
      "পুরো": 1047,
      "সাহায্য": 1048,
      "ওয়": 1049,
      "শান্ত": 1050,
      "সৃ": 1051,
      "লাখ": 1052,
      "ছিলাম": 1053,
      "সাবে": 1054,
      "ুরে": 1055,
      "হাসপাতা": 1056,
      "আল": 1057,
      "দান": 1058,
      "পড়া": 1059,
      "্যের": 1060,
      "লাগে": 1061,
      "সিদ্ধ": 1062,
      "চেয়ার": 1063,
      "ব্যাং": 1064,
      "ঙ্গল": 1065,
      "দর্শ": 1066,
      "সভাপতি": 1067,
      "বিরোধী": 1068,
      "দৃ": 1069,
      "ূপ": 1070,
      "বাহি": 1071,
      "লেখা": 1072,
      "জনের": 1073,
      "সিনে": 1074,
      "দুল": 1075,
      "সংবাদ": 1076,
      "স্থি": 1077,
      "শিক্ষক": 1078,
      "গুলোর": 1079,
      "লীগের": 1080,
      "জ্ঞান": 1081,
      "প্রতিষ্ঠান": 1082,
      "উই": 1083,
      "চায়": 1084,
      "ণ্": 1085,
      "শার": 1086,
      "বিরুদ্ধ": 1087,
      "দেওয়ার": 1088,
      "পাশে": 1089,
      "পারবে": 1090,
      "সুযোগ": 1091,
      "লীগ": 1092,
      "দায়িত্ব": 1093,
      "বিরুদ্ধে": 1094,
      "অতি": 1095,
      "আছি": 1096,
      "আদা": 1097,
      "তর": 1098,
      "বসে": 1099,
      "শনি": 1100,
      "সবার": 1101,
      "হিত": 1102,
      "তেই": 1103,
      "স্কু": 1104,
      "সবচেয়ে": 1105,
      "সম্মে": 1106,
      "ফেলে": 1107,
      "ওদের": 1108,
      "জর": 1109,
      "ছিলো": 1110,
      "পার্": 1111,
      "দুঃ": 1112,
      "খুঁ": 1113,
      "দেখি": 1114,
      "অধিকার": 1115,
      "প্রিয়": 1116,
      "ধর্ম": 1117,
      "গুরুত্ব": 1118,
      "ইন": 1119,
      "ইন্": 1120,
      "গার": 1121,
      "চলো": 1122,
      "ত্ম": 1123,
      "লক্ষ": 1124,
      "সকালে": 1125,
      "াযোগ": 1126,
      "খুশি": 1127,
      "যোগাযোগ": 1128,
      "গতকাল": 1129,
      "সারা": 1130,
      "ভূমি": 1131,
      "সম্পর্কে": 1132,
      "ুয়ারি": 1133,
      "শনিবার": 1134,
      "ংস": 1135,
      "উল্": 1136,
      "ণে": 1137,
      "তন": 1138,
      "মহা": 1139,
      "যো": 1140,
      "্তি": 1141,
      "বিত": 1142,
      "বিয়ে": 1143,
      "মাল": 1144,
      "য়াল": 1145,
      "তোর": 1146,
      "চ্চ": 1147,
      "দুটি": 1148,
      "আসছে": 1149,
      "এরপর": 1150,
      "ট্রো": 1151,
      "থাকলে": 1152,
      "স্বাধীন": 1153,
      "মৃত্যু": 1154,
      "সিদ্ধান্ত": 1155,
      "ওটা": 1156,
      "খারা": 1157,
      "ছয়": 1158,
      "মঙ্গল": 1159,
      "শের": 1160,
      "সন": 1161,
      "টায়": 1162,
      "ুরি": 1163,
      "জেলার": 1164,
      "পরিবেশ": 1165,
      "পরিবর্ত": 1166,
      "কীভাবে": 1167,
      "খুন": 1168,
      "অবস্থা": 1169,
      "ব্যাপার": 1170,
      "সম্পাদ": 1171,
      "আরেক": 1172,
      "আপনাকে": 1173,
      "সাংবা": 1174,
      "কবি": 1175,
      "চয়": 1176,
      "ফের": 1177,
      "বীর": 1178,
      "২০": 1179,
      "নিরা": 1180,
      "নাও": 1181,
      "কাজে": 1182,
      "রাজা": 1183,
      "সময়ে": 1184,
      "গ্রে": 1185,
      "দিয়েছে": 1186,
      "আসবে": 1187,
      "নীতি": 1188,
      "বৃহ": 1189,
      "চোখ": 1190,
      "আছেন": 1191,
      "ইং": 1192,
      "ণের": 1193,
      "ফুল": 1194,
      "যারা": 1195,
      "বেঁ": 1196,
      "মিনি": 1197,
      "নেওয়া": 1198,
      "থাকা": 1199,
      "পাখি": 1200,
      "কারী": 1201,
      "কার্য": 1202,
      "ড়াই": 1203,
      "যোগ্য": 1204,
      "কর্মসূ": 1205,
      "দলীয়": 1206,
      "দ্বিতীয়": 1207,
      "খারাপ": 1208,
      "পত্র": 1209,
      "ফ্র": 1210,
      "ল্যান্ড": 1211,
      "করছেন": 1212,
      "কেটে": 1213,
      "যাওয়ার": 1214,
      "যেমন": 1215,
      "জ্ঞা": 1216,
      "হোক": 1217,
      "জায়গা": 1218,
      "অধ": 1219,
      "ফির": 1220,
      "সড়": 1221,
      "হওয়া": 1222,
      "১৯": 1223,
      "ছেড়ে": 1224,
      "স্কার": 1225,
      "কোথা": 1226,
      "যাওয়া": 1227,
      "দাম": 1228,
      "মুখে": 1229,
      "উদ্দিন": 1230,
      "ঘোষণা": 1231,
      "মহান": 1232,
      "সাংবাদিক": 1233,
      "উদ্য": 1234,
      "জিত": 1235,
      "নেন": 1236,
      "মৌ": 1237,
      "সক": 1238,
      "করবো": 1239,
      "লিক": 1240,
      "ষ্কার": 1241,
      "হয়েছিল": 1242,
      "থেকেই": 1243,
      "স্থিত": 1244,
      "বিএনপির": 1245,
      "রাজনৈতিক": 1246,
      "চিন্তা": 1247,
      "পরিচালক": 1248,
      "মঙ্গলবার": 1249,
      "এগিয়ে": 1250,
      "চের": 1251,
      "জো": 1252,
      "ডার": 1253,
      "দক্ষ": 1254,
      "নদী": 1255,
      "পক": 1256,
      "পন": 1257,
      "ম্যান": 1258,
      "রোগ": 1259,
      "শক্তি": 1260,
      "বাব": 1261,
      "পর্যা": 1262,
      "তারপর": 1263,
      "তুই": 1264,
      "খাবার": 1265,
      "পরিস্থি": 1266,
      "আসতে": 1267,
      "ট্রা": 1268,
      "ব্যাপারে": 1269,
      "গ্রামের": 1270,
      "ল্লাহ": 1271,
      "সিনেমা": 1272,
      "।\"": 1273,
      "উপর": 1274,
      "কমে": 1275,
      "ঘর": 1276,
      "দুর": 1277,
      "ধুর": 1278,
      "ন্যা": 1279,
      "ফলে": 1280,
      "সৈ": 1281,
      "বাচ্": 1282,
      "বেড়ে": 1283,
      "দিনে": 1284,
      "মেট্রো": 1285,
      "তুল": 1286,
      "খেতে": 1287,
      "ছুটি": 1288,
      "বলেছেন": 1289,
      "সহায়": 1290,
      "রোব": 1291,
      "যুক্তি": 1292,
      "অভিযোগ": 1293,
      "লাগবে": 1294,
      "বেদন": 1295,
      "উল্লেখ": 1296,
      "সম্পাদক": 1297,
      "ওহ": 1298,
      "থান": 1299,
      "পায়": 1300,
      "করুন": 1301,
      "কেল": 1302,
      "তাম": 1303,
      "স্টার": 1304,
      "স্পতি": 1305,
      "জনগণ": 1306,
      "জিনি": 1307,
      "সহজ": 1308,
      "তাঁদের": 1309,
      "সোম": 1310,
      "খুবই": 1311,
      "ফুট": 1312,
      "গঠন": 1313,
      "বিশ্ববিদ্যালয়ের": 1314,
      "নিশ্চিত": 1315,
      "বৃহস্পতি": 1316,
      "আশা": 1317,
      "আগের": 1318,
      "একে": 1319,
      "এভাবে": 1320,
      "এছাড়া": 1321,
      "ভো": 1322,
      "বাস্ত": 1323,
      "মিত": 1324,
      "নেতৃ": 1325,
      "পাশা": 1326,
      "পালন": 1327,
      "বলল": 1328,
      "লিত": 1329,
      "ন্দো": 1330,
      "জ্জা": 1331,
      "স্বাস্থ": 1332,
      "শ্রে": 1333,
      "পৃথি": 1334,
      "বৃহস্পতিবার": 1335,
      "অপে": 1336,
      "আচ্ছা": 1337,
      "কহি": 1338,
      "ঘটে": 1339,
      "মর্": 1340,
      "রান": 1341,
      "নিচে": 1342,
      "র্ঘ": 1343,
      "যেখানে": 1344,
      "চিব": 1345,
      "বিশ্বকা": 1346,
      "গ্রামে": 1347,
      "রাখতে": 1348,
      "চুপ": 1349,
      "মামলা": 1350,
      "অবশ্যই": 1351,
      "দুঃখ": 1352,
      "আশ": 1353,
      "আব্": 1354,
      "চৌ": 1355,
      "তদ": 1356,
      "যত": 1357,
      "ূর": 1358,
      "নিজ": 1359,
      "বাহ": 1360,
      "বিল": 1361,
      "লাভ": 1362,
      "দেয়া": 1363,
      "টাই": 1364,
      "স্টি": 1365,
      "সাম": 1366,
      "ক্লা": 1367,
      "হয়তো": 1368,
      "চ্ছেন": 1369,
      "সুবি": 1370,
      "বোন": 1371,
      "পিতা": 1372,
      "যায়ী": 1373,
      "রাজধান": 1374,
      "কৃষ": 1375,
      "আলোচনা": 1376,
      "উৎসব": 1377,
      "কর্মকর্তা": 1378,
      "রোববার": 1379,
      "চট": 1380,
      "বন": 1381,
      "লনে": 1382,
      "ষণ": 1383,
      "সর্ব": 1384,
      "েক": 1385,
      "জানো": 1386,
      "তাঁরা": 1387,
      "দ্রুত": 1388,
      "সত্যি": 1389,
      "তদন্ত": 1390,
      "ওয়ে": 1391,
      "গি": 1392,
      "গ্": 1393,
      "গড়ে": 1394,
      "সায়": 1395,
      "মাস": 1396,
      "মাহ": 1397,
      "মাসে": 1398,
      "মির": 1399,
      "পাশি": 1400,
      "সমর্থ": 1401,
      "যাবো": 1402,
      "্মদ": 1403,
      "অনুযায়ী": 1404,
      "ঘটনায়": 1405,
      "উদ্বোধ": 1406,
      "পরীক্ষা": 1407,
      "কোথাও": 1408,
      "এল": 1409,
      "কল্প": 1410,
      "চলা": 1411,
      "পথে": 1412,
      "মহি": 1413,
      "কেই": 1414,
      "বাল": 1415,
      "বেলা": 1416,
      "মাঠে": 1417,
      "তিতে": 1418,
      "প্রত্য": 1419,
      "রাস্ত": 1420,
      "ক্ষতি": 1421,
      "মেদ": 1422,
      "স্থানে": 1423,
      "শুক্র": 1424,
      "দ্ধা": 1425,
      "তাঁকে": 1426,
      "মন্ত্রণা": 1427,
      "প্তা": 1428,
      "প্রাণ": 1429,
      "তিনটি": 1430,
      "রাজনীতি": 1431,
      "সৃষ্টি": 1432,
      "কর্মসূচি": 1433,
      "পাশাপাশি": 1434,
      "স্বাস্থ্য": 1435,
      "অফি": 1436,
      "আন্দো": 1437,
      "চক": 1438,
      "দলে": 1439,
      "পত্ত": 1440,
      "বঙ্গ": 1441,
      "ুক": 1442,
      "্রা": 1443,
      "মাথা": 1444,
      "তাতে": 1445,
      "রায়": 1446,
      "একবার": 1447,
      "স্তি": 1448,
      "ডিসে": 1449,
      "আসো": 1450,
      "হলেও": 1451,
      "গণত": 1452,
      "জানিয়েছেন": 1453,
      "অনুষ্ঠানে": 1454,
      "পরীক্ষ": 1455,
      "মাঝে": 1456,
      "চট্ট": 1457,
      "মন্ত্রণাল": 1458,
      "উদ্ধ": 1459,
      "ক্য": 1460,
      "কুর": 1461,
      "পছ": 1462,
      "বহু": 1463,
      "মজা": 1464,
      "কিন": 1465,
      "পরিক": 1466,
      "সাত": 1467,
      "হাই": 1468,
      "যাব": 1469,
      "চ্চিত্র": 1470,
      "দুপুর": 1471,
      "জানে": 1472,
      "মুক্ত": 1473,
      "শুনে": 1474,
      "নারী": 1475,
      "যোগি": 1476,
      "এখনও": 1477,
      "অবস্থায়": 1478,
      "বুধ": 1479,
      "মন্ত্রীর": 1480,
      "চলচ্চিত্র": 1481,
      "ফেল": 1482,
      "প্রাথ": 1483,
      "স্বপ্": 1484,
      "কৃত": 1485,
      "আহ্ব": 1486,
      "নিজেদের": 1487,
      "ভর্তি": 1488,
      "বৈঠ": 1489,
      "গুরুত্বপূর্ণ": 1490,
      "সোমবার": 1491,
      "শুক্রবার": 1492,
      "অন্ত": 1493,
      "আন্ত": 1494,
      "আসি": 1495,
      "গল": 1496,
      "চী": 1497,
      "টক": 1498,
      "ফার": 1499,
      "ৎকার": 1500,
      "বাকি": 1501,
      "তাল": 1502,
      "পাল": 1503,
      "কার্যাল": 1504,
      "বলার": 1505,
      "বলছি": 1506,
      "বার্": 1507,
      "লিখ": 1508,
      "লিজ": 1509,
      "খাদ্য": 1510,
      "ডিও": 1511,
      "বাংলাদেশে": 1512,
      "চলছে": 1513,
      "গোল": 1514,
      "আগেই": 1515,
      "শীল": 1516,
      "ব্দ": 1517,
      "মূল্য": 1518,
      "বুঝতে": 1519,
      "গবে": 1520,
      "রঙ": 1521,
      "শতা": 1522,
      "হর": 1523,
      "োধ": 1524,
      "রাখা": 1525,
      "স্ট্র": 1526,
      "ক্ষু": 1527,
      "হাঁ": 1528,
      "ঙ্গা": 1529,
      "জাহা": 1530,
      "সুস্থ": 1531,
      "দ্ধি": 1532,
      "ক্রান্ত": 1533,
      "ফেব্র": 1534,
      "চাইলে": 1535,
      "দীর্ঘ": 1536,
      "লাগছে": 1537,
      "এলাকায়": 1538,
      "সন্তান": 1539,
      "উন্নয়ন": 1540,
      "হাসপাতালে": 1541,
      "দক্ষি": 1542,
      "প্রাথমিক": 1543,
      "আত্ম": 1544,
      "গী": 1545,
      "ঘণ্": 1546,
      "চম": 1547,
      "চান": 1548,
      "তত": 1549,
      "ফর": 1550,
      "মতি": 1551,
      "মরা": 1552,
      "রত": 1553,
      "রূপ": 1554,
      "শত": 1555,
      "সর্": 1556,
      "নিহত": 1557,
      "বিমান": 1558,
      "ন্ড": 1559,
      "লিখে": 1560,
      "সংসদ": 1561,
      "বোর্": 1562,
      "এটাই": 1563,
      "থাকেন": 1564,
      "উপস্থিত": 1565,
      "ভারত": 1566,
      "ভারতের": 1567,
      "প্তার": 1568,
      "আহমেদ": 1569,
      "স্থানীয়": 1570,
      "যুক্তরাষ্ট্র": 1571,
      "দাঁড়া": 1572,
      "ত্বে": 1573,
      "স্কুলে": 1574,
      "বাচ্চা": 1575,
      "চৌধুর": 1576,
      "উদ্ধার": 1577,
      "বুধবার": 1578,
      "অপরা": 1579,
      "কষ্ট": 1580,
      "কঠি": 1581,
      "গায়": 1582,
      "নই": 1583,
      "নৈতিক": 1584,
      "বর্ষ": 1585,
      "ভ্যা": 1586,
      "মন্ত": 1587,
      "সভ": 1588,
      "বিভা": 1589,
      "র্জা": 1590,
      "সাব": 1591,
      "করেছিলেন": 1592,
      "যাক": 1593,
      "যাতে": 1594,
      "চ্ছ": 1595,
      "সংখ্যা": 1596,
      "অবস্থান": 1597,
      "সম্মান": 1598,
      "বর্তী": 1599,
      "ব্রা": 1600,
      "ভাষা": 1601,
      "হাম্মদ": 1602,
      "স্কুল": 1603,
      "খুঁজে": 1604,
      "পরিবর্তন": 1605,
      "গ্রেপ্তার": 1606,
      "সাংবাদিকদের": 1607,
      "শ্রেণ": 1608,
      "পরিকল্প": 1609,
      "আহ্বান": 1610,
      "কঠিন": 1611,
      "অপ": 1612,
      "আলা": 1613,
      "আলী": 1614,
      "আহত": 1615,
      "উনি": 1616,
      "এনে": 1617,
      "ধ্ব": 1618,
      "নীর": 1619,
      "পণ": 1620,
      "পর্": 1621,
      "ভোগ": 1622,
      "ভোট": 1623,
      "রং": 1624,
      "শনের": 1625,
      "সকল": 1626,
      "ীকে": 1627,
      "করলেন": 1628,
      "তেমন": 1629,
      "প্রযুক্তি": 1630,
      "থাকার": 1631,
      "পাস": 1632,
      "এইচ": 1633,
      "গাঁ": 1634,
      "আসেন": 1635,
      "শ্চি": 1636,
      "ট্রেন": 1637,
      "সার্": 1638,
      "স্বাভা": 1639,
      "কৃতি": 1640,
      "আনন্দ": 1641,
      "দূর": 1642,
      "আপনাদের": 1643,
      "সাবেক": 1644,
      "ব্যাংক": 1645,
      "অধ্যা": 1646,
      "পর্যায়ে": 1647,
      "সুবিধা": 1648,
      "আসব": 1649,
      "আয়োজন": 1650,
      "কৌ": 1651,
      "খর": 1652,
      "চরণ": 1653,
      "জিক": 1654,
      "টেন": 1655,
      "ভীর": 1656,
      "শনে": 1657,
      "সল": 1658,
      "ান্ড": 1659,
      "প্রভাব": 1660,
      "দেহ": 1661,
      "দেবে": 1662,
      "পরিবারের": 1663,
      "ডিয়া": 1664,
      "দিয়েছেন": 1665,
      "পেছ": 1666,
      "নির্দেশ": 1667,
      "বিদ্য": 1668,
      "স্বী": 1669,
      "ডটকমকে": 1670,
      "বিষয়টি": 1671,
      "কয়েকটি": 1672,
      "নিরাপত্ত": 1673,
      "অপেক্ষা": 1674,
      "পছন্দ": 1675,
      "স্বপ্ন": 1676,
      "উচ্চ": 1677,
      "গঞ্জ": 1678,
      "জনে": 1679,
      "ঝু": 1680,
      "দম": 1681,
      "পশ্চি": 1682,
      "শব্দ": 1683,
      "নাগর": 1684,
      "প্রচার": 1685,
      "মিন": 1686,
      "টিং": 1687,
      "কিং": 1688,
      "ভাল": 1689,
      "ন্দি": 1690,
      "বারে": 1691,
      "সিং": 1692,
      "সংখ": 1693,
      "বলেছে": 1694,
      "মনো": 1695,
      "চিঠি": 1696,
      "কেরা": 1697,
      "বাসায়": 1698,
      "প্লিজ": 1699,
      "বাহিনী": 1700,
      "জিনিস": 1701,
      "ডিসেম্বর": 1702,
      "দক্ষিণ": 1703,
      "স্বাভাবিক": 1704,
      "নাগরিক": 1705,
      "ইচ্ছা": 1706,
      "চুর": 1707,
      "টর": 1708,
      "নষ্ট": 1709,
      "নগর": 1710,
      "সুর": 1711,
      "ুণ": 1712,
      "কর্": 1713,
      "কেবল": 1714,
      "বিক্রি": 1715,
      "কাঠ": 1716,
      "তালি": 1717,
      "লাল": 1718,
      "ড়ায়": 1719,
      "দেশি": 1720,
      "ন্দু": 1721,
      "সমান": 1722,
      "লিয়া": 1723,
      "পরিচিত": 1724,
      "সংঘ": 1725,
      "শাল": 1726,
      "কাজের": 1727,
      "গোষ্ঠ": 1728,
      "জীবনে": 1729,
      "প্রাপ্ত": 1730,
      "অন্যতম": 1731,
      "পড়েছে": 1732,
      "শোধ": 1733,
      "শোনা": 1734,
      "নিয়োগ": 1735,
      "হীন": 1736,
      "বাড়ির": 1737,
      "সন্তানের": 1738,
      "বেঁচে": 1739,
      "কহিল": 1740,
      "চট্টগ্রাম": 1741,
      "ইত্যা": 1742,
      "ওঠে": 1743,
      "জ্য": 1744,
      "ডো": 1745,
      "বরা": 1746,
      "বর্": 1747,
      "মনি": 1748,
      "মহাস": 1749,
      "ূর্ণ": 1750,
      "য়ন": 1751,
      "য়ান": 1752,
      "বিজ্ঞান": 1753,
      "লেই": 1754,
      "কাউ": 1755,
      "কাণ্ড": 1756,
      "লাশ": 1757,
      "নেয়": 1758,
      "দিল": 1759,
      "পালা": 1760,
      "যাচ্ছি": 1761,
      "মেয়ের": 1762,
      "সির": 1763,
      "জানায়": 1764,
      "ক্তার": 1765,
      "আসার": 1766,
      "পুরস্কার": 1767,
      "উপজেলার": 1768,
      "সেরা": 1769,
      "ঢাকায়": 1770,
      "পড়তে": 1771,
      "সমাজ": 1772,
      "ভাবনা": 1773,
      "সবাইকে": 1774,
      "নিয়ন্ত্র": 1775,
      "নিজেকে": 1776,
      "দাঁড়িয়ে": 1777,
      "মার্চ": 1778,
      "ওয়ায়": 1779,
      "অবর": 1780,
      "এদের": 1781,
      "এদিকে": 1782,
      "ণি": 1783,
      "তরু": 1784,
      "ফিক": 1785,
      "বাবার": 1786,
      "কাছ": 1787,
      "তাহার": 1788,
      "প্রতিনি": 1789,
      "প্রশা": 1790,
      "টিয়ে": 1791,
      "টাকার": 1792,
      "র্ক": 1793,
      "র্ট": 1794,
      "কিয়ে": 1795,
      "সামা": 1796,
      "সাড়ে": 1797,
      "কারা": 1798,
      "কারো": 1799,
      "শিত": 1800,
      "সিড": 1801,
      "সিরি": 1802,
      "জাতি": 1803,
      "স্থার": 1804,
      "টেলি": 1805,
      "নির্মাণ": 1806,
      "ন্দ্র": 1807,
      "করিয়া": 1808,
      "বছরে": 1809,
      "বর্তমানে": 1810,
      "ফাঁ": 1811,
      "খোলা": 1812,
      "দর্শন": 1813,
      "পরামর্": 1814,
      "যাত্রা": 1815,
      "যাত্রী": 1816,
      "আদাল": 1817,
      "চৌধুরী": 1818,
      "ইত্যাদি": 1819,
      "অথ": 1820,
      "আগু": 1821,
      "আচরণ": 1822,
      "গতি": 1823,
      "গভীর": 1824,
      "জোট": 1825,
      "দপ্ত": 1826,
      "ধরা": 1827,
      "ধন্য": 1828,
      "নদ": 1829,
      "নৌ": 1830,
      "ভী": 1831,
      "মস": 1832,
      "ম্য": 1833,
      "শুর": 1834,
      "সঠিক": 1835,
      "সচিব": 1836,
      "সপ্তা": 1837,
      "হক": 1838,
      "হৃ": 1839,
      "িয়া": 1840,
      "নিষ": 1841,
      "বাসা": 1842,
      "কাঁ": 1843,
      "প্রমাণ": 1844,
      "পরের": 1845,
      "তোমরা": 1846,
      "জামা": 1847,
      "মুভি": 1848,
      "জন্যে": 1849,
      "উপজেলা": 1850,
      "মোবাই": 1851,
      "ঢাকার": 1852,
      "সোনার": 1853,
      "বৃষ্টি": 1854,
      "বর্তমান": 1855,
      "নির্বাচনে": 1856,
      "তোমাদের": 1857,
      "তৃতীয়": 1858,
      "পেরে": 1859,
      "এলাকা": 1860,
      "কেন্দ্রীয়": 1861,
      "শহর": 1862,
      "শহরের": 1863,
      "পক্ষের": 1864,
      "ভিত্ত": 1865,
      "ভুলে": 1866,
      "মন্তব্য": 1867,
      "তরুণ": 1868,
      "উপরে": 1869,
      "এগুলো": 1870,
      "এসো": 1871,
      "ঙা": 1872,
      "ঝড়": 1873,
      "পয়েন্": 1874,
      "যন্ত্র": 1875,
      "রক্ষা": 1876,
      "কাপড়": 1877,
      "মাছ": 1878,
      "মাথায়": 1879,
      "প্রার্থ": 1880,
      "প্রত্যা": 1881,
      "ড়ার": 1882,
      "রেল": 1883,
      "চাপ": 1884,
      "চাকরি": 1885,
      "দুটো": 1886,
      "বরণ": 1887,
      "মোহাম্মদ": 1888,
      "পৌঁছে": 1889,
      "চিকিৎসা": 1890,
      "শান্তি": 1891,
      "ফুটবল": 1892,
      "অক্": 1893,
      "আক্রম": 1894,
      "আল্লাহ": 1895,
      "ঘরের": 1896,
      "ঙে": 1897,
      "দৌ": 1898,
      "লড়াই": 1899,
      "্স": 1900,
      "বাতা": 1901,
      "বাসে": 1902,
      "কাটা": 1903,
      "প্রকল্প": 1904,
      "মিল": 1905,
      "ভাড়া": 1906,
      "জনক": 1907,
      "বললাম": 1908,
      "কোম্প": 1909,
      "িত্র": 1910,
      "সিক": 1911,
      "সিটি": 1912,
      "জানুয়ারি": 1913,
      "সংস্": 1914,
      "অন্যান": 1915,
      "শাহ": 1916,
      "প্রতিটি": 1917,
      "দেখো": 1918,
      "উপায়": 1919,
      "শীত": 1920,
      "উদ্দেশ": 1921,
      "ডাক্তার": 1922,
      "মুক্তিযুদ্ধ": 1923,
      "দোষ": 1924,
      "স্থায়ী": 1925,
      "ভূমিকা": 1926,
      "মিনিট": 1927,
      "পরিস্থিতি": 1928,
      "আন্তর্জা": 1929,
      "বিদ্যু": 1930,
      "নিরাপত্তা": 1931,
      "সংখ্য": 1932,
      "পরামর্শ": 1933,
      "আন্তর্জাতিক": 1934,
      "আর্": 1935,
      "আয়ো": 1936,
      "আগ্রহ": 1937,
      "আবেদন": 1938,
      "ইল": 1939,
      "এক্স": 1940,
      "ওঠ": 1941,
      "কান": 1942,
      "কদের": 1943,
      "ছড়িয়ে": 1944,
      "টন": 1945,
      "মেনে": 1946,
      "হতা": 1947,
      "িকা": 1948,
      "করতেন": 1949,
      "বিজয়": 1950,
      "মায়ের": 1951,
      "মালিক": 1952,
      "নেওয়ার": 1953,
      "সাহ": 1954,
      "পাবে": 1955,
      "বলছে": 1956,
      "মেঘ": 1957,
      "মেলা": 1958,
      "জানেন": 1959,
      "পরিষ্কার": 1960,
      "জির": 1961,
      "দিয়েছি": 1962,
      "ব্যাট": 1963,
      "ধারণা": 1964,
      "প্রথমে": 1965,
      "অভিনয়": 1966,
      "আজকে": 1967,
      "পূর্ব": 1968,
      "সমালো": 1969,
      "ভেত": 1970,
      "গরম": 1971,
      "ক্রিকেট": 1972,
      "চুক্তি": 1973,
      "পাঠানো": 1974,
      "অনুষ্ঠান": 1975,
      "কমিটির": 1976,
      "সন্ধ্য": 1977,
      "দৃশ্য": 1978,
      "সম্মেলনে": 1979,
      "জনগণের": 1980,
      "শতাংশ": 1981,
      "ফেব্রুয়ারি": 1982,
      "সভায়": 1983,
      "অধ্যাপক": 1984,
      "সামাজিক": 1985,
      "ধন্যবাদ": 1986,
      "ইনি": 1987,
      "ইয়া": 1988,
      "এলো": 1989,
      "ঘুরে": 1990,
      "জমি": 1991,
      "তত্ত": 1992,
      "রয়ে": 1993,
      "ীতে": 1994,
      "বেগ": 1995,
      "ছেলের": 1996,
      "মাদ": 1997,
      "প্রকা": 1998,
      "দেব": 1999,
      "মিথ": 2000,
      "পাশের": 2001,
      "জনকে": 2002,
      "জানানো": 2003,
      "ক্তির": 2004,
      "খেয়ে": 2005,
      "খেলার": 2006,
      "জেলায়": 2007,
      "মুহ": 2008,
      "সময়ের": 2009,
      "অব্যা": 2010,
      "পুরি": 2011,
      "উপল": 2012,
      "মোট": 2013,
      "পুন": 2014,
      "সোনা": 2015,
      "রাষ্ট্রপতি": 2016,
      "দারুণ": 2017,
      "হইয়া": 2018,
      "আলোচ": 2019,
      "জানিয়েছে": 2020,
      "জায়গায়": 2021,
      "সম্পর্ক": 2022,
      "নেতাকর্ম": 2023,
      "পৌঁছ": 2024,
      "ইংরে": 2025,
      "বাস্তবায়": 2026,
      "ূর্ত": 2027,
      "পরিকল্পনা": 2028,
      "প্রতিনিধি": 2029,
      "মোবাইল": 2030,
      "ঁকি": 2031,
      "আগ": 2032,
      "এফ": 2033,
      "নান": 2034,
      "নভে": 2035,
      "পী": 2036,
      "যার": 2037,
      "শত্র": 2038,
      "্রি": 2039,
      "নাল": 2040,
      "লেও": 2041,
      "কালো": 2042,
      "মামা": 2043,
      "প্রবেশ": 2044,
      "নেমে": 2045,
      "একদিন": 2046,
      "বলব": 2047,
      "লিম": 2048,
      "পারো": 2049,
      "চালিয়ে": 2050,
      "খাওয়া": 2051,
      "সবকিছু": 2052,
      "ব্যস্ত": 2053,
      "পরিষ": 2054,
      "পরিচয়": 2055,
      "জিজ্ঞা": 2056,
      "প্রতিবেদ": 2057,
      "যায়নি": 2058,
      "বাসের": 2059,
      "চলতে": 2060,
      "ধারা": 2061,
      "প্রধানমন্ত্রীর": 2062,
      "ডাক": 2063,
      "নির্বাচিত": 2064,
      "ক্রিয়া": 2065,
      "মূলক": 2066,
      "দূরে": 2067,
      "নিশ্চয়": 2068,
      "কলেজ": 2069,
      "প্রস্তুত": 2070,
      "শিক্ষার্থী": 2071,
      "চরিত্র": 2072,
      "চেয়ারম্যান": 2073,
      "কৃষি": 2074,
      "বোর্ড": 2075,
      "অন্যান্য": 2076,
      "জিজ্ঞাসা": 2077,
      "অ্যান্ড": 2078,
      "আকাশ": 2079,
      "উল": 2080,
      "ওভার": 2081,
      "ধিক": 2082,
      "ধানে": 2083,
      "পদ্ধ": 2084,
      "বস্ত": 2085,
      "বহন": 2086,
      "যথে": 2087,
      "রক্ষ": 2088,
      "শোর": 2089,
      "হলেন": 2090,
      "হঠা": 2091,
      "েস": 2092,
      "য়ায়": 2093,
      "ানির": 2094,
      "নাকে": 2095,
      "বাক": 2096,
      "বেল": 2097,
      "কাট": 2098,
      "মায়": 2099,
      "মাতা": 2100,
      "মিলে": 2101,
      "সাদা": 2102,
      "সাহিত": 2103,
      "পাওয়ার": 2104,
      "হাড়": 2105,
      "গেছি": 2106,
      "পারবো": 2107,
      "চাঁ": 2108,
      "সবু": 2109,
      "সবসময়": 2110,
      "মুল": 2111,
      "ব্যথা": 2112,
      "পরিবার": 2113,
      "ভিডিও": 2114,
      "সংগঠন": 2115,
      "হিসাবে": 2116,
      "কিছুটা": 2117,
      "আসছি": 2118,
      "পিঠা": 2119,
      "নির্দি": 2120,
      "উপদে": 2121,
      "হারা": 2122,
      "গুলোতে": 2123,
      "যুগ": 2124,
      "এসেছি": 2125,
      "সদর": 2126,
      "লাগল": 2127,
      "সূত্র": 2128,
      "অনুষ্ঠিত": 2129,
      "জুড়ে": 2130,
      "চোখে": 2131,
      "আলম": 2132,
      "সহায়তা": 2133,
      "থানার": 2134,
      "পৃথিবী": 2135,
      "গণতন্ত্র": 2136,
      "ঘণ্টা": 2137,
      "অপরাধ": 2138,
      "কাউকে": 2139,
      "নদীর": 2140,
      "পয়েন্ট": 2141,
      "বিদ্যুৎ": 2142,
      "ভেতরে": 2143,
      "যথেষ্ট": 2144,
      "হঠাৎ": 2145,
      "এরা": 2146,
      "এপ্রি": 2147,
      "ওখানে": 2148,
      "খায়": 2149,
      "জড়": 2150,
      "থার": 2151,
      "নব": 2152,
      "ভ্র": 2153,
      "লনের": 2154,
      "সান": 2155,
      "সরে": 2156,
      "সফল": 2157,
      "হতো": 2158,
      "বিপক্ষে": 2159,
      "কাদের": 2160,
      "মাঠ": 2161,
      "মাতে": 2162,
      "রাম": 2163,
      "টিভি": 2164,
      "ায়া": 2165,
      "পরবর্তী": 2166,
      "বলবে": 2167,
      "গেলেন": 2168,
      "লির": 2169,
      "পারব": 2170,
      "পারবেন": 2171,
      "আমিও": 2172,
      "সিয়া": 2173,
      "ঙ্কা": 2174,
      "মুদ": 2175,
      "গ্রি": 2176,
      "সুখ": 2177,
      "প্রতিদিন": 2178,
      "বোঝা": 2179,
      "পেশা": 2180,
      "পুরুষ": 2181,
      "ওয়ার্": 2182,
      "রোকে": 2183,
      "মানুষকে": 2184,
      "মেরে": 2185,
      "জীবনের": 2186,
      "শীর্ষ": 2187,
      "পূরণ": 2188,
      "নায়ক": 2189,
      "চালু": 2190,
      "বেরিয়ে": 2191,
      "হুম": 2192,
      "নির্বাচনের": 2193,
      "হইতে": 2194,
      "বিষয়ক": 2195,
      "কর্তৃ": 2196,
      "ম্যাচ": 2197,
      "প্রেস": 2198,
      "হামলা": 2199,
      "খ্যাত": 2200,
      "ঘুম": 2201,
      "আদালতে": 2202,
      "লক্ষ্য": 2203,
      "উদ্যো": 2204,
      "সৈয়": 2205,
      "বিশ্বকাপ": 2206,
      "রাজধানীর": 2207,
      "কৌশ": 2208,
      "পেছনে": 2209,
      "প্রকাশিত": 2210,
      "নির্দিষ্ট": 2211,
      "অসুস্থ": 2212,
      "উর": 2213,
      "উপাদ": 2214,
      "চির": 2215,
      "জোর": 2216,
      "নম্বর": 2217,
      "ফ্": 2218,
      "বনে": 2219,
      "বদ্ধ": 2220,
      "মুর": 2221,
      "ল্যা": 2222,
      "শৈ": 2223,
      "ুতি": 2224,
      "বিস্": 2225,
      "বিয়ের": 2226,
      "দিচ্ছে": 2227,
      "দেরি": 2228,
      "সাহে": 2229,
      "পাচার": 2230,
      "করেছ": 2231,
      "য়াত": 2232,
      "য়াড়": 2233,
      "ন্থ": 2234,
      "তোকে": 2235,
      "বললে": 2236,
      "হাল": 2237,
      "শিখ": 2238,
      "ষ্টির": 2239,
      "হয়েছেন": 2240,
      "চাও": 2241,
      "খেলো": 2242,
      "খেলতে": 2243,
      "ত্রি": 2244,
      "সংস্থা": 2245,
      "প্রতিযোগি": 2246,
      "এরকম": 2247,
      "মধ্যেই": 2248,
      "ত্তি": 2249,
      "ভারতীয়": 2250,
      "ঙ্গি": 2251,
      "ক্ষেপ": 2252,
      "স্বামী": 2253,
      "টোবর": 2254,
      "ঘটনার": 2255,
      "শ্রমিক": 2256,
      "পূর্": 2257,
      "সমাবেশ": 2258,
      "প্টে": 2259,
      "আপনারা": 2260,
      "ইউরো": 2261,
      "ইউনিয়": 2262,
      "হইবে": 2263,
      "অংশগ্রহণ": 2264,
      "উৎপাদ": 2265,
      "বিশ্ববিদ্যালয়": 2266,
      "প্রস্তা": 2267,
      "দশমিক": 2268,
      "পাকিস্তান": 2269,
      "উইকেট": 2270,
      "স্বাধীনতা": 2271,
      "ল্যান্ডের": 2272,
      "উদ্বোধন": 2273,
      "রাস্তা": 2274,
      "বঙ্গবন্ধু": 2275,
      "বিভাগের": 2276,
      "আলাদা": 2277,
      "গাঁও": 2278,
      "অক্টোবর": 2279,
      "উপলক্ষে": 2280,
      "সৈয়দ": 2281,
      "অঞ্": 2282,
      "আবু": 2283,
      "কন": 2284,
      "গঞ্": 2285,
      "গানের": 2286,
      "চ্যা": 2287,
      "নর": 2288,
      "নজর": 2289,
      "বুল": 2290,
      "যথা": 2291,
      "হও": 2292,
      "িল": 2293,
      "ারি": 2294,
      "করছ": 2295,
      "করল": 2296,
      "নিয়া": 2297,
      "বাধ্য": 2298,
      "বিপ": 2299,
      "বিকে": 2300,
      "বিবে": 2301,
      "বিধান": 2302,
      "মাতার": 2303,
      "মাটিতে": 2304,
      "তাড়া": 2305,
      "রাজি": 2306,
      "মিয়া": 2307,
      "নেতাদের": 2308,
      "দিও": 2309,
      "সেটি": 2310,
      "সেপ্টে": 2311,
      "ক্কা": 2312,
      "বলুন": 2313,
      "হাতি": 2314,
      "গেছেন": 2315,
      "কোর্": 2316,
      "পারছি": 2317,
      "জিয়ার": 2318,
      "খুলে": 2319,
      "পুরের": 2320,
      "হারিয়ে": 2321,
      "টুকু": 2322,
      "শীতের": 2323,
      "বাদী": 2324,
      "ফাই": 2325,
      "তৈর": 2326,
      "ম্যাচে": 2327,
      "ম্বা": 2328,
      "আবদুল": 2329,
      "বাজারে": 2330,
      "শরীর": 2331,
      "সড়ক": 2332,
      "প্রত্যেক": 2333,
      "রঙের": 2334,
      "ব্রাজি": 2335,
      "স্বীকার": 2336,
      "ইংরেজি": 2337,
      "উপদেষ্টা": 2338,
      "খেলোয়াড়": 2339,
      "আনা": 2340,
      "আক্রান্ত": 2341,
      "উন্ন": 2342,
      "ঋতু": 2343,
      "খ্রি": 2344,
      "গ্যা": 2345,
      "জটি": 2346,
      "তর্ক": 2347,
      "ভবিষ": 2348,
      "র্যা": 2349,
      "সফ": 2350,
      "সন্ত্র": 2351,
      "হান": 2352,
      "হওয়ায়": 2353,
      "ীল": 2354,
      "ারে": 2355,
      "বাধা": 2356,
      "বেসরকারি": 2357,
      "বিন": 2358,
      "বিজি": 2359,
      "বিহার": 2360,
      "কাগ": 2361,
      "কাউন্": 2362,
      "তাপ": 2363,
      "রাজার": 2364,
      "দিব": 2365,
      "দিলেন": 2366,
      "সেগুলো": 2367,
      "সাল": 2368,
      "পাশ": 2369,
      "পাগল": 2370,
      "চাক": 2371,
      "চালা": 2372,
      "িক্ত": 2373,
      "ব্যর্থ": 2374,
      "জন্যই": 2375,
      "সংস": 2376,
      "সংগ্রহ": 2377,
      "ড়াল": 2378,
      "চেতন": 2379,
      "নিয়েছে": 2380,
      "অনেকে": 2381,
      "ভাবেই": 2382,
      "করিতে": 2383,
      "ব্যবসায়": 2384,
      "নীল": 2385,
      "বিদায়": 2386,
      "রাজ্য": 2387,
      "রাখার": 2388,
      "রাখেন": 2389,
      "ভেঙে": 2390,
      "পুলিশের": 2391,
      "অধিদপ্ত": 2392,
      "অর্থনৈতিক": 2393,
      "মুক্তিযো": 2394,
      "মাত্রা": 2395,
      "ঘাত": 2396,
      "মৃত্যুর": 2397,
      "আসামি": 2398,
      "সন্দেহ": 2399,
      "স্ত্রী": 2400,
      "পাকিস্তানি": 2401,
      "শুনতে": 2402,
      "জরুরি": 2403,
      "থানায়": 2404,
      "পৃথিবীর": 2405,
      "বৈঠক": 2406,
      "চমৎকার": 2407,
      "ঝুঁকি": 2408,
      "অবরোধ": 2409,
      "মুহূর্ত": 2410,
      "ভবিষ্য": 2411,
      "ঁচু": 2412,
      "অং": 2413,
      "অত্য": 2414,
      "আপা": 2415,
      "উঁচু": 2416,
      "ওসি": 2417,
      "কতো": 2418,
      "ক্যান": 2419,
      "ঘন": 2420,
      "জেন্": 2421,
      "ডলার": 2422,
      "তরা": 2423,
      "পড়ি": 2424,
      "মনের": 2425,
      "মরণ": 2426,
      "রক্ত": 2427,
      "রপ্ত": 2428,
      "রানের": 2429,
      "ষা": 2430,
      "সনের": 2431,
      "সন্ধ": 2432,
      "্ন": 2433,
      "্রিক": 2434,
      "ানিক": 2435,
      "েনা": 2436,
      "বাসি": 2437,
      "বিনি": 2438,
      "মাই": 2439,
      "মাসের": 2440,
      "রাখে": 2441,
      "সাফল": 2442,
      "থাকো": 2443,
      "তোলা": 2444,
      "মানব": 2445,
      "খালি": 2446,
      "ছুটির": 2447,
      "জিজ্ঞ": 2448,
      "ছাড়": 2449,
      "আমের": 2450,
      "হিদ": 2451,
      "বাসী": 2452,
      "শ্রদ্ধা": 2453,
      "ভেবে": 2454,
      "এমনকি": 2455,
      "হাসান": 2456,
      "দেখেছি": 2457,
      "এসসি": 2458,
      "কখনও": 2459,
      "দুর্ঘটনা": 2460,
      "বুঝে": 2461,
      "কমিটি": 2462,
      "কমিশন": 2463,
      "রহমানের": 2464,
      "মেয়েদের": 2465,
      "অর্জন": 2466,
      "আবুল": 2467,
      "বিশ্ববিদ্যালয়ে": 2468,
      "বয়সী": 2469,
      "ক্যাপ্": 2470,
      "উঠতে": 2471,
      "ভিতরে": 2472,
      "উঠেছে": 2473,
      "বাহিনীর": 2474,
      "সম্মেলন": 2475,
      "নেতৃত্বে": 2476,
      "স্টিমার": 2477,
      "চলাচল": 2478,
      "পরীক্ষার": 2479,
      "মন্ত্রণালয়": 2480,
      "দুপুরে": 2481,
      "অন্তত": 2482,
      "কার্যালয়ে": 2483,
      "সর্বো": 2484,
      "দাঁড়াও": 2485,
      "খরচ": 2486,
      "গোষ্ঠীর": 2487,
      "কোম্পানি": 2488,
      "অব্যাহত": 2489,
      "জড়িত": 2490,
      "সন্ত্রা": 2491,
      "অত্যন্ত": 2492,
      "জিজ্ঞেস": 2493,
      "?\"": 2494,
      "আছো": 2495,
      "আফ্র": 2496,
      "কবর": 2497,
      "খল": 2498,
      "ডু": 2499,
      "ধায়": 2500,
      "যরত": 2501,
      "রিক": 2502,
      "রান্": 2503,
      "লন্ড": 2504,
      "হযরত": 2505,
      "ৈধ": 2506,
      "করণ": 2507,
      "নাটক": 2508,
      "বাজে": 2509,
      "বিস্ত": 2510,
      "কালের": 2511,
      "মাটি": 2512,
      "রাতের": 2513,
      "মিটার": 2514,
      "দিলে": 2515,
      "সেল": 2516,
      "সেখান": 2517,
      "থাৎ": 2518,
      "পাত": 2519,
      "করেছিল": 2520,
      "কারে": 2521,
      "বলছেন": 2522,
      "সম্যান": 2523,
      "শিয়ার": 2524,
      "লিং": 2525,
      "যাবেন": 2526,
      "শেয়ার": 2527,
      "পরিণ": 2528,
      "সংক": 2529,
      "ডিগ্রি": 2530,
      "পেতে": 2531,
      "পেয়েছে": 2532,
      "দেখছি": 2533,
      "অবৈধ": 2534,
      "লেনদেন": 2535,
      "ভালোই": 2536,
      "বাংলার": 2537,
      "ষ্ঠানিক": 2538,
      "সহজে": 2539,
      "সরকারকে": 2540,
      "্ডার": 2541,
      "মোস্ত": 2542,
      "ান্ত্রিক": 2543,
      "বিশ্বের": 2544,
      "ডাকে": 2545,
      "পড়েন": 2546,
      "সমাধান": 2547,
      "তিরিক্ত": 2548,
      "ইউনি": 2549,
      "ভূত": 2550,
      "মতামত": 2551,
      "সাধারণত": 2552,
      "প্রেসিড": 2553,
      "গঠিত": 2554,
      "গঠনের": 2555,
      "অর্থাৎ": 2556,
      "ত্যাগ": 2557,
      "কখনোই": 2558,
      "মামলার": 2559,
      "কলেজে": 2560,
      "শিশুদের": 2561,
      "প্রস্তুতি": 2562,
      "শিক্ষার্থীদের": 2563,
      "আটক": 2564,
      "ইতিহা": 2565,
      "চেয়ারপার": 2566,
      "দর্শক": 2567,
      "মহানগর": 2568,
      "উদ্যোগ": 2569,
      "মৌসু": 2570,
      "মহিলা": 2571,
      "হরতাল": 2572,
      "পণ্য": 2573,
      "পশ্চিম": 2574,
      "মেয়েরা": 2575,
      "ব্যাটসম্যান": 2576,
      "মাদক": 2577,
      "এপ্রিল": 2578,
      "উপাদান": 2579,
      "সেপ্টেম্বর": 2580,
      "সর্বোচ্চ": 2581,
      "অদ্": 2582,
      "অগ্র": 2583,
      "অবাক": 2584,
      "অতিরিক্ত": 2585,
      "আবি": 2586,
      "আকা": 2587,
      "ইচ্ছে": 2588,
      "এখান": 2589,
      "ওষ": 2590,
      "জেন": 2591,
      "জুর": 2592,
      "প্য": 2593,
      "বর্ণ": 2594,
      "ভোর": 2595,
      "শহী": 2596,
      "সৌ": 2597,
      "সচেতন": 2598,
      "হরণ": 2599,
      "ুধ": 2600,
      "্বাব": 2601,
      "করছো": 2602,
      "কেও": 2603,
      "তেল": 2604,
      "প্রচুর": 2605,
      "নেতারা": 2606,
      "সেবা": 2607,
      "কিভাবে": 2608,
      "কিশোর": 2609,
      "ছিলে": 2610,
      "থাকি": 2611,
      "পাঠা": 2612,
      "পালিয়ে": 2613,
      "জনপ্রিয়": 2614,
      "ন্দের": 2615,
      "মেয়া": 2616,
      "দ্বার": 2617,
      "গায়ে": 2618,
      "সরি": 2619,
      "বুদ্ধি": 2620,
      "সহকারী": 2621,
      "শিক্ষকের": 2622,
      "জার্": 2623,
      "করিনি": 2624,
      "বন্ধুর": 2625,
      "জীবী": 2626,
      "ধুনিক": 2627,
      "সম্পূর্ণ": 2628,
      "ব্রি": 2629,
      "নিয়ম": 2630,
      "সূচক": 2631,
      "সেটাই": 2632,
      "সীমান": 2633,
      "দরজা": 2634,
      "আনু": 2635,
      "দুর্নীতি": 2636,
      "দূত": 2637,
      "ভাষায়": 2638,
      "লেখক": 2639,
      "প্রশ্নের": 2640,
      "বিচারপতি": 2641,
      "প্রয়োজনীয়": 2642,
      "জলদি": 2643,
      "গাছের": 2644,
      "ক্ষমতায়": 2645,
      "জন্মগ্রহণ": 2646,
      "স্কুলের": 2647,
      "ফিরিয়ে": 2648,
      "জ্জামান": 2649,
      "দুঃখিত": 2650,
      "আশরা": 2651,
      "মাহমুদ": 2652,
      "গবেষণা": 2653,
      "স্ট্রে": 2654,
      "যুক্তরাষ্ট্রের": 2655,
      "কিংবা": 2656,
      "আদালত": 2657,
      "আগুন": 2658,
      "সন্ধ্যায়": 2659,
      "তত্ত্বাব": 2660,
      "মিথ্যা": 2661,
      "আগস্ট": 2662,
      "নভেম্বর": 2663,
      "শত্রু": 2664,
      "প্রতিবেদনে": 2665,
      "সবুজ": 2666,
      "উৎপাদন": 2667,
      "জটিল": 2668,
      "ক্যাপ্টেন": 2669,
      "ওষুধ": 2670,
      "অন্ধ": 2671,
      "অস্ত্র": 2672,
      "আদেশ": 2673,
      "আধুনিক": 2674,
      "কঠ": 2675,
      "কমান": 2676,
      "গড়া": 2677,
      "চতু": 2678,
      "পঞ্চ": 2679,
      "বদ": 2680,
      "ভ্য": 2681,
      "মতে": 2682,
      "ষিক": 2683,
      "সই": 2684,
      "১০": 2685,
      "য়েল": 2686,
      "নাট": 2687,
      "বাতি": 2688,
      "বাঁচ": 2689,
      "বেশে": 2690,
      "বিসি": 2691,
      "মিষ্টি": 2692,
      "টিউ": 2693,
      "টিন": 2694,
      "টিকে": 2695,
      "নেট": 2696,
      "স্প": 2697,
      "সেদিন": 2698,
      "কিসের": 2699,
      "থাকায়": 2700,
      "একদম": 2701,
      "পাট": 2702,
      "পাড়া": 2703,
      "পাহাড়": 2704,
      "কারি": 2705,
      "সমু": 2706,
      "বার্ত": 2707,
      "শিয়া": 2708,
      "শিকার": 2709,
      "কোর": 2710,
      "মানসিক": 2711,
      "খাওয়ার": 2712,
      "জাতির": 2713,
      "যেকোনো": 2714,
      "পরিবহন": 2715,
      "গ্রস্ত": 2716,
      "সংশোধ": 2717,
      "স্থির": 2718,
      "সুতরা": 2719,
      "ডিএস": 2720,
      "শাক": 2721,
      "শাহী": 2722,
      "েন্স": 2723,
      "চিহ": 2724,
      "নির্ভর": 2725,
      "সম্প্রতি": 2726,
      "কুয়া": 2727,
      "ব্যবসা": 2728,
      "লীন": 2729,
      "নামের": 2730,
      "এখানেই": 2731,
      "বৃদ্ধি": 2732,
      "পড়ার": 2733,
      "রাখো": 2734,
      "নিয়মিত": 2735,
      "কর্তব্য": 2736,
      "পাঠিয়ে": 2737,
      "খোঁ": 2738,
      "ভাষার": 2739,
      "ঘাট": 2740,
      "শহরে": 2741,
      "বয়স": 2742,
      "তীব্র": 2743,
      "ব্যক্তিগত": 2744,
      "ইতিহাস": 2745,
      "হত্যাকাণ্ড": 2746,
      "ওয়ান": 2747,
      "ইন্টার": 2748,
      "মৃত্যুবরণ": 2749,
      "বেঁধে": 2750,
      "কার্যক্রম": 2751,
      "বেড়েছে": 2752,
      "কিনতে": 2753,
      "বার্ষিক": 2754,
      "অথচ": 2755,
      "হৃদ": 2756,
      "নিষে": 2757,
      "ভিত্তিক": 2758,
      "রয়েছেন": 2759,
      "পদ্ধতি": 2760,
      "বিকেলে": 2761,
      "প্রেসিডেন্ট": 2762,
      "অদ্ভ": 2763,
      "কঠোর": 2764,
      "চতুর্থ": 2765,
      "সুতরাং": 2766,
      "..": 2767,
      "অত": 2768,
      "অল্প": 2769,
      "আত": 2770,
      "ঈশ্ব": 2771,
      "কন্যা": 2772,
      "জরি": 2773,
      "ঢ়": 2774,
      "ণু": 2775,
      "দৈ": 2776,
      "দয়া": 2777,
      "ধো": 2778,
      "নন": 2779,
      "প্যা": 2780,
      "ফায়": 2781,
      "বক": 2782,
      "বনের": 2783,
      "বহি": 2784,
      "বানা": 2785,
      "মল": 2786,
      "সহি": 2787,
      "সতর্ক": 2788,
      "হির": 2789,
      "হত্য": 2790,
      "েই": 2791,
      "নিঃ": 2792,
      "নিচের": 2793,
      "বাণি": 2794,
      "বিশ্": 2795,
      "বিশাল": 2796,
      "বিনিয়োগ": 2797,
      "কাকে": 2798,
      "কামাল": 2799,
      "মাকে": 2800,
      "প্রক্রিয়া": 2801,
      "দিচ্ছি": 2802,
      "কিনা": 2803,
      "কিনে": 2804,
      "ায়ণ": 2805,
      "করেই": 2806,
      "কারও": 2807,
      "ক্ষম": 2808,
      "ক্ষো": 2809,
      "মেডি": 2810,
      "সিন": 2811,
      "মান্য": 2812,
      "চাহি": 2813,
      "ক্তা": 2814,
      "খেলায়": 2815,
      "জাদু": 2816,
      "থেকেও": 2817,
      "পরিমাণ": 2818,
      "সুন": 2819,
      "গাছে": 2820,
      "টেস্ট": 2821,
      "েন্ড": 2822,
      "করেনি": 2823,
      "পিছি": 2824,
      "চারটি": 2825,
      "পুরে": 2826,
      "কর্মী": 2827,
      "নীতির": 2828,
      "সমাজের": 2829,
      "নির্বাহী": 2830,
      "ভাবতে": 2831,
      "ক্রিয়": 2832,
      "বিদ্যালয়": 2833,
      "হুমায়": 2834,
      "ভবন": 2835,
      "হইল": 2836,
      "দুর্বল": 2837,
      "নিজেই": 2838,
      "কলকা": 2839,
      "জুলাই": 2840,
      "সদস্যরা": 2841,
      "ঘটনাস্থ": 2842,
      "করলেও": 2843,
      "দাবিতে": 2844,
      "এলাকার": 2845,
      "ঞ্চলের": 2846,
      "বিরক্ত": 2847,
      "পানির": 2848,
      "বক্তব্যে": 2849,
      "উন্নয়নে": 2850,
      "দৃষ্টি": 2851,
      "যোগে": 2852,
      "বিতরণ": 2853,
      "ব্যাপারটা": 2854,
      "সকলের": 2855,
      "আব্দুল": 2856,
      "ক্ষতিগ্রস্ত": 2857,
      "প্রাণী": 2858,
      "চীন": 2859,
      "শ্রেণিতে": 2860,
      "ধ্বংস": 2861,
      "ান্ডা": 2862,
      "মহাসড়": 2863,
      "সমালোচনা": 2864,
      "প্রস্তাব": 2865,
      "তৈরির": 2866,
      "সাফল্য": 2867,
      "পরিণত": 2868,
      "তত্ত্বাবধায়": 2869,
      "হত্যার": 2870,
      "অভ্যা": 2871,
      "আঁ": 2872,
      "ইঞ্": 2873,
      "উপাচার": 2874,
      "কানে": 2875,
      "কফি": 2876,
      "খলি": 2877,
      "গরি": 2878,
      "চুল": 2879,
      "জমা": 2880,
      "ঠান্ডা": 2881,
      "ডের": 2882,
      "ড্র": 2883,
      "দন": 2884,
      "নৃ": 2885,
      "ফেন": 2886,
      "বণ": 2887,
      "বকর": 2888,
      "বদলে": 2889,
      "ভরে": 2890,
      "যৌ": 2891,
      "রবি": 2892,
      "রানে": 2893,
      "রচনা": 2894,
      "লম্বা": 2895,
      "শর্": 2896,
      "ূন": 2897,
      "করলাম": 2898,
      "নিন": 2899,
      "নাজ": 2900,
      "বাম": 2901,
      "বাদে": 2902,
      "বাচক": 2903,
      "তেও": 2904,
      "বিখ্যাত": 2905,
      "লেট": 2906,
      "কালীন": 2907,
      "মাটির": 2908,
      "প্রান্ত": 2909,
      "ড়ানো": 2910,
      "রাগ": 2911,
      "দেবেন": 2912,
      "মিয়ে": 2913,
      "মিছিল": 2914,
      "টিক": 2915,
      "টিশ": 2916,
      "কিট": 2917,
      "সাঁ": 2918,
      "পাখ": 2919,
      "পাচ্ছি": 2920,
      "কারের": 2921,
      "মারি": 2922,
      "বলম্ব": 2923,
      "শিষ্ট": 2924,
      "লিট": 2925,
      "লিন": 2926,
      "রেলের": 2927,
      "সিম": 2928,
      "চ্ছু": 2929,
      "জানতাম": 2930,
      "খেলে": 2931,
      "যেটা": 2932,
      "স্তে": 2933,
      "গ্রু": 2934,
      "সংযোগ": 2935,
      "ড়াতে": 2936,
      "সুপারি": 2937,
      "কথাটা": 2938,
      "গুল": 2939,
      "কোনও": 2940,
      "বলেও": 2941,
      "খুল": 2942,
      "দিয়েছিলেন": 2943,
      "আসল": 2944,
      "অনেকেই": 2945,
      "পিছু": 2946,
      "এখনই": 2947,
      "ন্দকার": 2948,
      "সহ্য": 2949,
      "সহযোগি": 2950,
      "মোকা": 2951,
      "ব্যাপক": 2952,
      "বন্ধন": 2953,
      "দ্রো": 2954,
      "ফিলি": 2955,
      "দলকে": 2956,
      "অভিযান": 2957,
      "গিয়েছিল": 2958,
      "রাজশাহী": 2959,
      "শ্রীল": 2960,
      "বৃত্ত": 2961,
      "পড়ছে": 2962,
      "সমাজে": 2963,
      "বেশির": 2964,
      "হেই": 2965,
      "হেল": 2966,
      "চালক": 2967,
      "বইয়ের": 2968,
      "প্রতিষ্ঠানে": 2969,
      "যদিও": 2970,
      "ডেকে": 2971,
      "সদস্যদের": 2972,
      "পারেনি": 2973,
      "ব্যবস্থাপ": 2974,
      "একাডে": 2975,
      "ঘোড়া": 2976,
      "বয়সে": 2977,
      "বায়ু": 2978,
      "পার্টির": 2979,
      "চোখের": 2980,
      "কার্যকর": 2981,
      "যোগ্যতা": 2982,
      "একেবারে": 2983,
      "আশঙ্কা": 2984,
      "রাজধানী": 2985,
      "সমর্থন": 2986,
      "উদ্বোধনী": 2987,
      "অফিসে": 2988,
      "আন্দোলন": 2989,
      "গণতান্ত্রিক": 2990,
      "সংঘর্ষ": 2991,
      "নিয়ন্ত্রণ": 2992,
      "উদ্দেশ্য": 2993,
      "আর্জেন্": 2994,
      "আয়োজিত": 2995,
      "কৌশল": 2996,
      "সাহেব": 2997,
      "নজরুল": 2998,
      "আপাতত": 2999,
      "রপ্তানি": 3000,
      "সন্ধ্যা": 3001,
      "সমুদ্র": 3002,
      "অদ্ভুত": 3003,
      "বাণিজ্য": 3004,
      "ক্ষোভ": 3005,
      "তত্ত্বাবধায়ক": 3006,
      "',": 3007,
      "অপারে": 3008,
      "আফ": 3009,
      "আনার": 3010,
      "আশ্": 3011,
      "আর্থ": 3012,
      "আঘাত": 3013,
      "আস্তে": 3014,
      "এটার": 3015,
      "গড়": 3016,
      "জনা": 3017,
      "জুন": 3018,
      "জড়িয়ে": 3019,
      "জেনে": 3020,
      "জবাব": 3021,
      "ঝো": 3022,
      "ডান": 3023,
      "দখল": 3024,
      "নু": 3025,
      "বউ": 3026,
      "বহ": 3027,
      "বন্দ": 3028,
      "বান্": 3029,
      "মীর": 3030,
      "যথ": 3031,
      "র্য": 3032,
      "শৃ": 3033,
      "শান": 3034,
      "শক্ত": 3035,
      "ষিত": 3036,
      "স্র": 3037,
      "সরা": 3038,
      "ুকে": 3039,
      "েনি": 3040,
      "নাচ": 3041,
      "নাথ": 3042,
      "বাগ": 3043,
      "বাদের": 3044,
      "বাহী": 3045,
      "বিজ্ঞ": 3046,
      "বিভাগ": 3047,
      "লেগে": 3048,
      "প্রশিক্ষ": 3049,
      "প্রমুখ": 3050,
      "রাই": 3051,
      "নেয়া": 3052,
      "নেত্র": 3053,
      "দিবে": 3054,
      "দিল্": 3055,
      "সেমি": 3056,
      "ায়ন": 3057,
      "সাক্ষা": 3058,
      "সামর": 3059,
      "ন্দা": 3060,
      "মারে": 3061,
      "বলবো": 3062,
      "তারি": 3063,
      "মেলায়": 3064,
      "সিল": 3065,
      "মান্": 3066,
      "মানের": 3067,
      "দাস": 3068,
      "খেল": 3069,
      "খেয়াল": 3070,
      "ভিড": 3071,
      "গ্রী": 3072,
      "অনুর": 3073,
      "প্রতিরো": 3074,
      "শুভ": 3075,
      "পেলে": 3076,
      "কাজটা": 3077,
      "যোগী": 3078,
      "তুমিও": 3079,
      "রিয়া": 3080,
      "বুক": 3081,
      "জ্বল": 3082,
      "ঞ্চে": 3083,
      "ব্যাখ্যা": 3084,
      "ঠিকই": 3085,
      "চলবে": 3086,
      "চলমান": 3087,
      "গোলাম": 3088,
      "ভারপ্রাপ্ত": 3089,
      "সোজা": 3090,
      "আইডি": 3091,
      "রাজ্যের": 3092,
      "অন্যদের": 3093,
      "পড়বে": 3094,
      "কৃতিক": 3095,
      "কৃতির": 3096,
      "সম্পদ": 3097,
      "বিদ্যালয়ে": 3098,
      "দায়ের": 3099,
      "অধিবেশ": 3100,
      "প্রতিষ্ঠা": 3101,
      "পোর্ট": 3102,
      "ফুলের": 3103,
      "বাড়ানোর": 3104,
      "কয়েকজন": 3105,
      "পদক": 3106,
      "পেয়েছি": 3107,
      "পেয়েছেন": 3108,
      "পানিতে": 3109,
      "পৌঁছা": 3110,
      "চিকিৎসক": 3111,
      "পাকিস্তানের": 3112,
      "পুরোপুরি": 3113,
      "হাসপাতাল": 3114,
      "অতিথি": 3115,
      "ইন্ডি": 3116,
      "ত্মক": 3117,
      "থাকলেও": 3118,
      "স্বাধীনতার": 3119,
      "কবিতা": 3120,
      "মিনিটে": 3121,
      "সড়কের": 3122,
      "নদীতে": 3123,
      "ট্রাক": 3124,
      "ঘটেছে": 3125,
      "লিখেছেন": 3126,
      "মহাসচিব": 3127,
      "মসজি": 3128,
      "আক্রমণ": 3129,
      "পরিষদের": 3130,
      "ভ্রম": 3131,
      "মুক্তিযোদ্ধা": 3132,
      "মোস্তফা": 3133,
      "দ্বারা": 3134,
      "পিছিয়ে": 3135,
      "অভ্যাস": 3136,
      "উপাচার্য": 3137,
      "আর্জেন্টি": 3138,
      "সামরিক": 3139,
      "অ্যাল": 3140,
      "অস্ট্রে": 3141,
      "অভ্য": 3142,
      "অঞ্চলের": 3143,
      "আত্": 3144,
      "উড়": 3145,
      "কবে": 3146,
      "গরে": 3147,
      "ঘুর": 3148,
      "চন্দ্র": 3149,
      "জগ": 3150,
      "ট্": 3151,
      "টতে": 3152,
      "টানা": 3153,
      "তবু": 3154,
      "ধের": 3155,
      "নক": 3156,
      "পল্": 3157,
      "বন্দু": 3158,
      "মধু": 3159,
      "রানি": 3160,
      "ল্ড": 3161,
      "শশী": 3162,
      "সমি": 3163,
      "সেন্": 3164,
      "সকলে": 3165,
      "হলু": 3166,
      "ীন": 3167,
      "১৮": 3168,
      "ানায়": 3169,
      "বিদেশি": 3170,
      "কাঠা": 3171,
      "প্রচ": 3172,
      "ড়ির": 3173,
      "দেখুন": 3174,
      "টাল": 3175,
      "সেট": 3176,
      "সেতু": 3177,
      "ায়ের": 3178,
      "ক্ট": 3179,
      "ভাস": 3180,
      "লোয়ার": 3181,
      "একসাথে": 3182,
      "পায়ে": 3183,
      "পাবেন": 3184,
      "কার্ড": 3185,
      "সমন্": 3186,
      "শির": 3187,
      "শিরো": 3188,
      "শিশুর": 3189,
      "তারেক": 3190,
      "সিদ্": 3191,
      "মানিক": 3192,
      "দাদা": 3193,
      "দুজন": 3194,
      "জাত": 3195,
      "গ্রন্থ": 3196,
      "সংলা": 3197,
      "সংশ্": 3198,
      "সংবিধান": 3199,
      "সুপার": 3200,
      "গাজী": 3201,
      "টেল": 3202,
      "শালী": 3203,
      "প্রতিবেদন": 3204,
      "বোমা": 3205,
      "বলেছি": 3206,
      "এটাকে": 3207,
      "কিছুদিন": 3208,
      "ক্রী": 3209,
      "ক্রে": 3210,
      "ক্রমে": 3211,
      "কম্প": 3212,
      "উপহার": 3213,
      "সম্ভাবনা": 3214,
      "দ্রা": 3215,
      "গোপ": 3216,
      "গোলে": 3217,
      "ভার্": 3218,
      "এসেছেন": 3219,
      "অভিজ্ঞ": 3220,
      "শ্রয়": 3221,
      "বৃদ্ধ": 3222,
      "ধীরে": 3223,
      "শোন": 3224,
      "শোনো": 3225,
      "সীন": 3226,
      "হাসিনার": 3227,
      "প্রতিষ্ঠানের": 3228,
      "পোশাক": 3229,
      "জানাতে": 3230,
      "বুঝি": 3231,
      "ফুলে": 3232,
      "প্রকাশনা": 3233,
      "খোকা": 3234,
      "অর্ধে": 3235,
      "ুয়ারির": 3236,
      "শিল্পী": 3237,
      "হেরে": 3238,
      "শরী": 3239,
      "স্টেশনে": 3240,
      "মহানবি": 3241,
      "নেতৃত্ব": 3242,
      "নিজস্ব": 3243,
      "আন্দোলনের": 3244,
      "পরীক্ষায়": 3245,
      "মনোযোগ": 3246,
      "টেলিভি": 3247,
      "সোনারগাঁও": 3248,
      "বেগম": 3249,
      "সাহিত্য": 3250,
      "রোকেয়া": 3251,
      "উদ্যোক্তা": 3252,
      "আবিষ্কার": 3253,
      "আকাশে": 3254,
      "ডিএসই": 3255,
      "মেডিকেল": 3256,
      "অন্তু": 3257,
      "অধী": 3258,
      "অসাধারণ": 3259,
      "অসংখ্য": 3260,
      "আঙ": 3261,
      "আসুন": 3262,
      "উভয়": 3263,
      "এতো": 3264,
      "ঐতি": 3265,
      "ওনা": 3266,
      "কয়": 3267,
      "কলা": 3268,
      "গলা": 3269,
      "গর্": 3270,
      "গন্ধ": 3271,
      "গলায়": 3272,
      "ছুর": 3273,
      "জতে": 3274,
      "জর্": 3275,
      "ঠো": 3276,
      "ণী": 3277,
      "তুর": 3278,
      "থির": 3279,
      "দণ্ড": 3280,
      "নীয়": 3281,
      "পদে": 3282,
      "পিত": 3283,
      "পদ্": 3284,
      "ফলা": 3285,
      "বরে": 3286,
      "বসো": 3287,
      "ভক্ত": 3288,
      "ভদ্র": 3289,
      "মঞ্চ": 3290,
      "লীর": 3291,
      "লজ্জা": 3292,
      "শূ": 3293,
      "িকার": 3294,
      "০০": 3295,
      "১৫": 3296,
      "য়োগ": 3297,
      "বাছা": 3298,
      "বিলা": 3299,
      "বিকালে": 3300,
      "মাসু": 3301,
      "মাস্টার": 3302,
      "প্রসঙ্গে": 3303,
      "প্রদান": 3304,
      "প্রয়োগ": 3305,
      "লাগিয়ে": 3306,
      "দেই": 3307,
      "দেহের": 3308,
      "মিস": 3309,
      "দিবস": 3310,
      "সেসব": 3311,
      "কিত": 3312,
      "কিল": 3313,
      "সালা": 3314,
      "সাক্ষ": 3315,
      "ভাত": 3316,
      "একসময়": 3317,
      "একমাত্র": 3318,
      "পাল্": 3319,
      "সমস্ত": 3320,
      "শিন": 3321,
      "কোরো": 3322,
      "যাদের": 3323,
      "আমিন": 3324,
      "সিয়ে": 3325,
      "মানা": 3326,
      "চ্ছিল": 3327,
      "দ্বী": 3328,
      "ঙ্খ": 3329,
      "দেশকে": 3330,
      "নিয়েও": 3331,
      "নিয়েছেন": 3332,
      "টেক": 3333,
      "শাখা": 3334,
      "শাস্তি": 3335,
      "বোঝ": 3336,
      "বোনের": 3337,
      "শুটিং": 3338,
      "নারায়ণ": 3339,
      "হিসাব": 3340,
      "কিছুক্ষণ": 3341,
      "দিয়েই": 3342,
      "সরিয়ে": 3343,
      "দেখার": 3344,
      "অবদান": 3345,
      "অনেকের": 3346,
      "যুব": 3347,
      "কেনা": 3348,
      "কুমু": 3349,
      "কুড়াল": 3350,
      "ভারতে": 3351,
      "নীত": 3352,
      "এসেছ": 3353,
      "আইনের": 3354,
      "স্থাপন": 3355,
      "মতোই": 3356,
      "রাজিত": 3357,
      "বৃষ্টির": 3358,
      "উদ্দী": 3359,
      "ডাকা": 3360,
      "তিনজন": 3361,
      "শোক": 3362,
      "ম্বরে": 3363,
      "ধাক্কা": 3364,
      "বিদ্যালয়ের": 3365,
      "দারি": 3366,
      "মুখো": 3367,
      "আনতে": 3368,
      "করছিস": 3369,
      "অর্থনীতি": 3370,
      "প্রকাশের": 3371,
      "ম্যাচের": 3372,
      "ইসলামের": 3373,
      "মেয়েকে": 3374,
      "ণ্ডা": 3375,
      "পদক্ষেপ": 3376,
      "মামলায়": 3377,
      "মার্কিন": 3378,
      "আগামীকাল": 3379,
      "পরিচালনা": 3380,
      "ম্পি": 3381,
      "ক্ষমতাসীন": 3382,
      "গাড়িতে": 3383,
      "পাঁচটি": 3384,
      "গারে": 3385,
      "লক্ষ্যে": 3386,
      "পরিস্থিতির": 3387,
      "তুলনায়": 3388,
      "বিশ্বকাপে": 3389,
      "ক্লাস": 3390,
      "পিতামাতার": 3391,
      "মাহবু": 3392,
      "অফিস": 3393,
      "বৈঠকে": 3394,
      "ক্ষুদ্র": 3395,
      "ভ্যাক": 3396,
      "বরাবর": 3397,
      "জাতিসংঘ": 3398,
      "সপ্তাহ": 3399,
      "আলোচনার": 3400,
      "বাস্তবায়ন": 3401,
      "নিশ্চয়ই": 3402,
      "চাঁদ": 3403,
      "পৃথিবীতে": 3404,
      "অঞ্চলে": 3405,
      "ব্রাজিলের": 3406,
      "চাকমা": 3407,
      "সংসদের": 3408,
      "অধিদপ্তরের": 3409,
      "সন্ত্রাসী": 3410,
      "আনুষ্ঠানিক": 3411,
      "পঞ্চম": 3412,
      "হুমায়ূন": 3413,
      "পাখির": 3414,
      "সুপারিশ": 3415,
      "গ্রীষ্": 3416,
      "বন্দুক": 3417,
      "অনি": 3418,
      "অধ্য": 3419,
      "আদর্শ": 3420,
      "আকর্": 3421,
      "ইক": 3422,
      "ইলে": 3423,
      "কতা": 3424,
      "কপি": 3425,
      "কথায়": 3426,
      "কক্স": 3427,
      "কণ্": 3428,
      "ঘি": 3429,
      "চেনা": 3430,
      "জ্ব": 3431,
      "জঙ্গি": 3432,
      "ঢুক": 3433,
      "পশু": 3434,
      "ফসল": 3435,
      "বুর": 3436,
      "ভয়ে": 3437,
      "মদ": 3438,
      "মশা": 3439,
      "মন্দি": 3440,
      "রী": 3441,
      "লান্ত": 3442,
      "হুল": 3443,
      "োয়ার": 3444,
      "১২": 3445,
      "েরা": 3446,
      "নিত": 3447,
      "নিষ্ঠ": 3448,
      "নালে": 3449,
      "বাঘ": 3450,
      "বাঙা": 3451,
      "তেছে": 3452,
      "তেমনি": 3453,
      "বেলায়": 3454,
      "বিনয়": 3455,
      "বিধি": 3456,
      "বিদ্রো": 3457,
      "কাপ": 3458,
      "মাতৃ": 3459,
      "তাকিয়ে": 3460,
      "প্রয়ো": 3461,
      "দেয়ার": 3462,
      "টিকিট": 3463,
      "নেতার": 3464,
      "নেয়ার": 3465,
      "দির": 3466,
      "দিচ্ছেন": 3467,
      "কিলো": 3468,
      "সাজে": 3469,
      "সাগর": 3470,
      "ক্টর": 3471,
      "ক্লান্ত": 3472,
      "কারীদের": 3473,
      "তোলার": 3474,
      "হাউ": 3475,
      "হাওয়া": 3476,
      "গেলো": 3477,
      "লিষ্ট": 3478,
      "রেকর": 3479,
      "পারলে": 3480,
      "পারুল": 3481,
      "মেশিন": 3482,
      "দামি": 3483,
      "িকান": 3484,
      "খাতে": 3485,
      "সবই": 3486,
      "ব্যয়": 3487,
      "সংসার": 3488,
      "সংস্থার": 3489,
      "সুল": 3490,
      "গুণ": 3491,
      "ডিং": 3492,
      "নিয়েই": 3493,
      "গাই": 3494,
      "বলেই": 3495,
      "পেল": 3496,
      "পেক্ষ": 3497,
      "বরং": 3498,
      "পিছ": 3499,
      "দেখেন": 3500,
      "দেখলাম": 3501,
      "হারে": 3502,
      "পুঁ": 3503,
      "পুষ্টি": 3504,
      "অনুমো": 3505,
      "অনুভূ": 3506,
      "ান্তর": 3507,
      "কুম": 3508,
      "কুকুর": 3509,
      "অন্যদিকে": 3510,
      "আজকের": 3511,
      "উদ্দেশে": 3512,
      "পড়ল": 3513,
      "প্ল": 3514,
      "প্লে": 3515,
      "ভাইরা": 3516,
      "ছোট্ট": 3517,
      "ধরতে": 3518,
      "ক্রিকে": 3519,
      "লোকটা": 3520,
      "লোকজন": 3521,
      "স্টক": 3522,
      "ছাড়াও": 3523,
      "সীমা": 3524,
      "উত্তরা": 3525,
      "বুঝিয়ে": 3526,
      "কতটা": 3527,
      "বন্ধুদের": 3528,
      "ধর্মা": 3529,
      "বসন্ত": 3530,
      "বলিয়া": 3531,
      "লাইন": 3532,
      "যুদ্ধা": 3533,
      "এবারের": 3534,
      "হামলার": 3535,
      "কলেজের": 3536,
      "ভাগ্য": 3537,
      "ক্যাম্": 3538,
      "নির্যা": 3539,
      "ভুক্ত": 3540,
      "আটকে": 3541,
      "চর্য": 3542,
      "স্টেডিয়া": 3543,
      "অতিথির": 3544,
      "কহিলেন": 3545,
      "উৎসবের": 3546,
      "সত্যিই": 3547,
      "তদন্তের": 3548,
      "মিরপুর": 3549,
      "রাস্তায়": 3550,
      "মন্ত্রণালয়ের": 3551,
      "ফারুক": 3552,
      "গবেষ": 3553,
      "জাহাঙ্গ": 3554,
      "গীত": 3555,
      "তালিকা": 3556,
      "তালিকায়": 3557,
      "আদালতের": 3558,
      "অথবা": 3559,
      "শুরুর": 3560,
      "ঝড়ের": 3561,
      "বাতাসে": 3562,
      "মুক্তিযুদ্ধের": 3563,
      "যুগ্ম": 3564,
      "হুমকি": 3565,
      "শ্রমিকদের": 3566,
      "চ্যাম্পি": 3567,
      "গ্যাস": 3568,
      "কাগজ": 3569,
      "তাপমাত্রা": 3570,
      "বিনিময়": 3571,
      "রান্না": 3572,
      "ইতিহাসে": 3573,
      "চেয়ারপারসন": 3574,
      "কমান্ডার": 3575,
      "বার্তা": 3576,
      "ঈশ্বর": 3577,
      "খলিফা": 3578,
      "সহযোগিতা": 3579,
      "তারিখ": 3580,
      "অনুরোধ": 3581,
      "হলুদ": 3582,
      "সংশ্লিষ্ট": 3583,
      "অধীনে": 3584,
      "ভ্যাকসিন": 3585,
      "প্রয়োজনে": 3586,
      "কিলোমিটার": 3587,
      "ংসা": 3588,
      "অল": 3589,
      "অপর": 3590,
      "অপার": 3591,
      "অগা": 3592,
      "আউ": 3593,
      "আলোক": 3594,
      "উদ": 3595,
      "উজ্": 3596,
      "উনাকে": 3597,
      "ঋণ": 3598,
      "ওঠা": 3599,
      "গৌ": 3600,
      "গির": 3601,
      "ঘৃ": 3602,
      "ঘূর্ণ": 3603,
      "চর্": 3604,
      "চক্র": 3605,
      "চোট": 3606,
      "ছড়া": 3607,
      "টেনে": 3608,
      "ড্ড": 3609,
      "ড্রা": 3610,
      "ঢে": 3611,
      "ঢুকে": 3612,
      "তক": 3613,
      "তলা": 3614,
      "দরি": 3615,
      "নও": 3616,
      "পত": 3617,
      "মজার": 3618,
      "মেন্ট": 3619,
      "রবী": 3620,
      "লান": 3621,
      "শনার": 3622,
      "সবে": 3623,
      "সভার": 3624,
      "হব": 3625,
      "১১": 3626,
      "১৭": 3627,
      "৭১": 3628,
      "করবার": 3629,
      "বাড়ে": 3630,
      "বাবু": 3631,
      "বাহন": 3632,
      "বিবৃ": 3633,
      "বিপদ": 3634,
      "লেগেছে": 3635,
      "মাথার": 3636,
      "তাও": 3637,
      "তাহা": 3638,
      "তাড়ি": 3639,
      "রাখুন": 3640,
      "দেবো": 3641,
      "মিলি": 3642,
      "মিলিয়ে": 3643,
      "টিকা": 3644,
      "নেব": 3645,
      "স্মরণ": 3646,
      "কিউ": 3647,
      "সাম্": 3648,
      "ভাঙ": 3649,
      "য়ালি": 3650,
      "ন্স": 3651,
      "ক্ষমা": 3652,
      "মারমা": 3653,
      "গেলাম": 3654,
      "শিখে": 3655,
      "কোচ": 3656,
      "হয়েছি": 3657,
      "চালিত": 3658,
      "জাম": 3659,
      "আমায়": 3660,
      "পরিদর্শন": 3661,
      "ভিড়": 3662,
      "সংস্কার": 3663,
      "কথাই": 3664,
      "কথাও": 3665,
      "চেস্টার": 3666,
      "টেড": 3667,
      "শাখ": 3668,
      "প্রতিবাদ": 3669,
      "করেননি": 3670,
      "আসছেন": 3671,
      "নির্মিত": 3672,
      "অনেকটা": 3673,
      "ভালোবাস": 3674,
      "থাকছে": 3675,
      "উপভোগ": 3676,
      "উপজেলায়": 3677,
      "শিক্ষার": 3678,
      "ওয়ার্ড": 3679,
      "গুলোকে": 3680,
      "ব্যাপী": 3681,
      "অনুমতি": 3682,
      "বাসীর": 3683,
      "করিম": 3684,
      "বড়ো": 3685,
      "ধারিত": 3686,
      "গোলা": 3687,
      "দেখাতে": 3688,
      "সারি": 3689,
      "অভিয": 3690,
      "অভিভাব": 3691,
      "ধিকার": 3692,
      "দুইটি": 3693,
      "রাজ্যে": 3694,
      "বাবাকে": 3695,
      "ডাম": 3696,
      "প্লা": 3697,
      "ভাবছি": 3698,
      "চলেছে": 3699,
      "রাখি": 3700,
      "ারাডো": 3701,
      "ব্দের": 3702,
      "মূলত": 3703,
      "ডটকমএম": 3704,
      "ছাত্রী": 3705,
      "ফুটে": 3706,
      "ফোনে": 3707,
      "ছবির": 3708,
      "প্রেম": 3709,
      "পারেননি": 3710,
      "দোকান": 3711,
      "পদত্যাগ": 3712,
      "মর্যা": 3713,
      "করেছিলাম": 3714,
      "গল্পের": 3715,
      "উঠল": 3716,
      "বাঁধ": 3717,
      "বাঁচা": 3718,
      "বাজারের": 3719,
      "সাইকেল": 3720,
      "ময়লা": 3721,
      "চিকিৎসার": 3722,
      "গেলেও": 3723,
      "কর্মকর্তারা": 3724,
      "ইতিবাচক": 3725,
      "সেনাবাহিনী": 3726,
      "ব্যাংকের": 3727,
      "সভাপতিত্বে": 3728,
      "ধর্মীয়": 3729,
      "আরেকটি": 3730,
      "ফেরত": 3731,
      "নিরাপদ": 3732,
      "ইংল্যান্ড": 3733,
      "ফ্রান্": 3734,
      "সহায়তায়": 3735,
      "উল্লেখযোগ্য": 3736,
      "এভাবেই": 3737,
      "মহিউদ্দিন": 3738,
      "কার্যালয়ের": 3739,
      "লিখিত": 3740,
      "আত্মীয়": 3741,
      "সাবধানে": 3742,
      "নাগরিকের": 3743,
      "জোটের": 3744,
      "ম্যারাডো": 3745,
      "ভিত্তিতে": 3746,
      "প্রত্যাহার": 3747,
      "উদ্দেশ্যে": 3748,
      "হতাশ": 3749,
      "সাহসী": 3750,
      "ইউনিয়নের": 3751,
      "গঞ্জের": 3752,
      "তাড়াতাড়ি": 3753,
      "কোর্টের": 3754,
      "উন্নত": 3755,
      "লন্ডনে": 3756,
      "সংকট": 3757,
      "শহীদ": 3758,
      "সীমান্ত": 3759,
      "আশরাফুল": 3760,
      "চিহ্ন": 3761,
      "হত্যাকাণ্ডের": 3762,
      "সহিংস": 3763,
      "চাহিদা": 3764,
      "বেশিরভাগ": 3765,
      "আশ্চর্য": 3766,
      "সরাসরি": 3767,
      "ভ্রমণ": 3768,
      "কাঠামো": 3769,
      "অর্ধেক": 3770,
      "শরীরে": 3771,
      "ফলাফল": 3772,
      "শূন্য": 3773,
      "ধর্মাবলম্ব": 3774,
      "জাহাঙ্গীর": 3775,
      "দরিদ্র": 3776,
      "রবীন্দ্র": 3777,
      "ঁড়": 3778,
      "অফ": 3779,
      "অস্থির": 3780,
      "আও": 3781,
      "আছ": 3782,
      "আনি": 3783,
      "ইট": 3784,
      "উমর": 3785,
      "ওপরে": 3786,
      "কুল": 3787,
      "কবির": 3788,
      "ঘ্র": 3789,
      "ঘন্": 3790,
      "চনার": 3791,
      "চুরি": 3792,
      "জবা": 3793,
      "ঝি": 3794,
      "তৎ": 3795,
      "ধূ": 3796,
      "পিয়ে": 3797,
      "ফখর": 3798,
      "বৌ": 3799,
      "বক্স": 3800,
      "মরে": 3801,
      "মতের": 3802,
      "মমতা": 3803,
      "রহি": 3804,
      "রক্ষণ": 3805,
      "লুর": 3806,
      "সেন্ট": 3807,
      "সক্রিয়": 3808,
      "হায়": 3809,
      "হিক": 3810,
      "িদ্ধ": 3811,
      "ীতির": 3812,
      "ুলের": 3813,
      "২৩": 3814,
      "করায়": 3815,
      "করিয়ে": 3816,
      "করপো": 3817,
      "নাশ": 3818,
      "বাহিত": 3819,
      "বেই": 3820,
      "বিছ": 3821,
      "বিত্র": 3822,
      "বিদেশে": 3823,
      "বিন্দু": 3824,
      "কাহি": 3825,
      "কাটিয়ে": 3826,
      "মায়া": 3827,
      "মালি": 3828,
      "মাংস": 3829,
      "মাড়াই": 3830,
      "প্রবাহ": 3831,
      "প্রকৃত": 3832,
      "দেহে": 3833,
      "দেলোয়ার": 3834,
      "দিলাম": 3835,
      "স্মার": 3836,
      "স্বল": 3837,
      "স্পি": 3838,
      "সেজন্য": 3839,
      "কিব": 3840,
      "কিছুর": 3841,
      "পরই": 3842,
      "পরও": 3843,
      "সাপ্তা": 3844,
      "সামান্য": 3845,
      "ক্লি": 3846,
      "লোভ": 3847,
      "লোকের": 3848,
      "পাত্র": 3849,
      "পাচ্ছে": 3850,
      "ক্ষায়": 3851,
      "ুরুল": 3852,
      "বলবেন": 3853,
      "বারো": 3854,
      "পার্থ": 3855,
      "যাচ্ছেন": 3856,
      "আমিই": 3857,
      "তিনিও": 3858,
      "দ্দ": 3859,
      "চাষ": 3860,
      "দুস": 3861,
      "খাই": 3862,
      "এইতো": 3863,
      "ঙ্গে": 3864,
      "জাদ": 3865,
      "যেসব": 3866,
      "যেভাবে": 3867,
      "জেগে": 3868,
      "মুন": 3869,
      "মুস": 3870,
      "দেশটির": 3871,
      "দেশগুলোর": 3872,
      "সংক্রান্ত": 3873,
      "সুখে": 3874,
      "গুন": 3875,
      "চেত": 3876,
      "করতেই": 3877,
      "প্রতিমন্ত্রী": 3878,
      "বলেছিলেন": 3879,
      "আম্": 3880,
      "আমলে": 3881,
      "মনসিং": 3882,
      "সরবরা": 3883,
      "এরশা": 3884,
      "কাজী": 3885,
      "ক্রয়": 3886,
      "পিএ": 3887,
      "পিতার": 3888,
      "দেখব": 3889,
      "দেখিয়ে": 3890,
      "দেখানো": 3891,
      "অবসর": 3892,
      "নির্ধারিত": 3893,
      "ভালোভাবে": 3894,
      "ভালোবাসি": 3895,
      "থাকবেন": 3896,
      "উপকার": 3897,
      "সহযোগী": 3898,
      "হার্ট": 3899,
      "তাদেরকে": 3900,
      "স্যু": 3901,
      "জারি": 3902,
      "পুত্র": 3903,
      "অনুশী": 3904,
      "ত্তর": 3905,
      "বেশী": 3906,
      "ব্যবস্থার": 3907,
      "ভারী": 3908,
      "সারে": 3909,
      "সেরে": 3910,
      "অভিনেতা": 3911,
      "অভিযোগে": 3912,
      "গিয়েছে": 3913,
      "স্বামীর": 3914,
      "দুইজন": 3915,
      "হেতু": 3916,
      "পর্যটক": 3917,
      "রাখবে": 3918,
      "সম্পন্ন": 3919,
      "ক্রিকেটে": 3920,
      "ব্ল": 3921,
      "ধাপে": 3922,
      "দায়ী": 3923,
      "নির্বাচনী": 3924,
      "ভবনে": 3925,
      "এসআই": 3926,
      "মুখি": 3927,
      "আনোয়ার": 3928,
      "ছাত্রলীগের": 3929,
      "পোর্": 3930,
      "পাঠান": 3931,
      "ম্যাডাম": 3932,
      "ভাষণ": 3933,
      "অর্জনের": 3934,
      "অর্ডার": 3935,
      "ভর্ত": 3936,
      "বসবাস": 3937,
      "বলিল": 3938,
      "ত্ন": 3939,
      "বক্তৃ": 3940,
      "কেন্দ্রে": 3941,
      "বিচারের": 3942,
      "আইনজীবী": 3943,
      "অ্যাড": 3944,
      "নিকট": 3945,
      "জলবায়ু": 3946,
      "আসলেই": 3947,
      "রকমের": 3948,
      "তীত": 3949,
      "ময়মনসিং": 3950,
      "শিক্ষার্থীরা": 3951,
      "চরম": 3952,
      "শুনুন": 3953,
      "পৃষ্ঠ": 3954,
      "পড়াশোনা": 3955,
      "শিক্ষকদের": 3956,
      "মহাপরিচালক": 3957,
      "ছয়টি": 3958,
      "অধিক": 3959,
      "সড়কে": 3960,
      "ট্রাই": 3961,
      "সিনেমাটি": 3962,
      "কমেছে": 3963,
      "বাস্তব": 3964,
      "চলচ্চিত্রের": 3965,
      "হাঁটতে": 3966,
      "সার্বিক": 3967,
      "আসবেন": 3968,
      "নির্দেশনা": 3969,
      "কাঠুরে": 3970,
      "বর্ধ": 3971,
      "প্রশাসন": 3972,
      "নিষিদ্ধ": 3973,
      "এক্সচে": 3974,
      "ওঠেন": 3975,
      "আলোচনায়": 3976,
      "নেতাকর্মীদের": 3977,
      "বিস্ফোর": 3978,
      "হালকা": 3979,
      "গঞ্জে": 3980,
      "যথাযথ": 3981,
      "খ্রিষ্টা": 3982,
      "সফরে": 3983,
      "চালাতে": 3984,
      "ইউনিভার্": 3985,
      "জেনারে": 3986,
      "বাতিল": 3987,
      "খোঁজ": 3988,
      "আতঙ্": 3989,
      "মোকাবিলা": 3990,
      "ব্যবস্থাপনা": 3991,
      "আর্থিক": 3992,
      "শৃঙ্খ": 3993,
      "বিজ্ঞপ্ত": 3994,
      "প্রতিরোধ": 3995,
      "ঐতিহ": 3996,
      "মুখোমুখি": 3997,
      "ঢুকতে": 3998,
      "অনুভূতি": 3999,
      "যুদ্ধাপরা": 4000,
      "ঘৃণা": 4001,
      "ঘূর্ণি": 4002,
      "ঘ্রই": 4003,
      "ঘন্টা": 4004,
      "জবাবে": 4005,
      "ফখরুল": 4006,
      "করপোরে": 4007,
      "স্বল্প": 4008,
      "সাপ্তাহিক": 4009,
      "শৃঙ্খলা": 4010,
      "''": 4011,
      "ঁক": 4012,
      "অপরি": 4013,
      "অভাব": 4014,
      "অজানা": 4015,
      "আদি": 4016,
      "আচার": 4017,
      "আজাদ": 4018,
      "ইয়": 4019,
      "ইমর": 4020,
      "উড়ে": 4021,
      "উটার": 4022,
      "এখ": 4023,
      "ঐক্য": 4024,
      "ওসমান": 4025,
      "ককে": 4026,
      "কান্": 4027,
      "গৃ": 4028,
      "গিত": 4029,
      "গীর": 4030,
      "গরু": 4031,
      "গতিতে": 4032,
      "চ্য": 4033,
      "চড়": 4034,
      "চনায়": 4035,
      "ডায়া": 4036,
      "দানি": 4037,
      "নূর": 4038,
      "পলি": 4039,
      "পনের": 4040,
      "পনী": 4041,
      "পবিত্র": 4042,
      "ফ্যা": 4043,
      "ফরি": 4044,
      "বয়ে": 4045,
      "মজ": 4046,
      "মেন": 4047,
      "মজু": 4048,
      "মণ্ড": 4049,
      "মণি": 4050,
      "রফিক": 4051,
      "রওনা": 4052,
      "শনা": 4053,
      "শ্যা": 4054,
      "শফিক": 4055,
      "শহিদ": 4056,
      "সকের": 4057,
      "সক্ষম": 4058,
      "িং": 4059,
      "িউটার": 4060,
      "্বে": 4061,
      "২২": 4062,
      "২৫": 4063,
      "নিম্": 4064,
      "কেজি": 4065,
      "বাজ": 4066,
      "বাধীন": 4067,
      "বেড়া": 4068,
      "বিকাল": 4069,
      "কাম": 4070,
      "কাতে": 4071,
      "কাংশ": 4072,
      "মালা": 4073,
      "প্রশ": 4074,
      "প্রদর্শ": 4075,
      "প্রকৃতি": 4076,
      "লাফ": 4077,
      "রাও": 4078,
      "রাট": 4079,
      "রাশিয়া": 4080,
      "দেড়": 4081,
      "মিলিত": 4082,
      "মিডিয়া": 4083,
      "নেবে": 4084,
      "দিই": 4085,
      "দিয়া": 4086,
      "স্বে": 4087,
      "স্টা": 4088,
      "স্মৃ": 4089,
      "সেক": 4090,
      "কির": 4091,
      "পরো": 4092,
      "পররাষ্ট্র": 4093,
      "সালাম": 4094,
      "লোকে": 4095,
      "পাক": 4096,
      "করেছো": 4097,
      "জনসভায়": 4098,
      "ক্ষর": 4099,
      "ক্ষি": 4100,
      "বলছ": 4101,
      "বলছো": 4102,
      "সমৃ": 4103,
      "সম্ম": 4104,
      "সমস্যার": 4105,
      "হাতের": 4106,
      "গেট": 4107,
      "লিউ": 4108,
      "রেডিও": 4109,
      "তারকা": 4110,
      "পার্ব": 4111,
      "পারলেন": 4112,
      "যাপন": 4113,
      "মেলার": 4114,
      "সিসি": 4115,
      "চালায়": 4116,
      "দুদ": 4117,
      "দুজনের": 4118,
      "িকভাবে": 4119,
      "খামার": 4120,
      "খালী": 4121,
      "জানুয়ারির": 4122,
      "এইটা": 4123,
      "ঙ্কার": 4124,
      "জেলে": 4125,
      "মুন্": 4126,
      "মুজি": 4127,
      "মুসল": 4128,
      "ব্যক্তির": 4129,
      "পরিদর্শক": 4130,
      "ছুটে": 4131,
      "ভিটা": 4132,
      "গ্রেনে": 4133,
      "স্থগিত": 4134,
      "ডিজি": 4135,
      "চেক": 4136,
      "টেবি": 4137,
      "প্রতিবন্ধ": 4138,
      "শুক": 4139,
      "নারীর": 4140,
      "কিছুতেই": 4141,
      "দিয়েছিল": 4142,
      "পেঁ": 4143,
      "সরল": 4144,
      "আপন": 4145,
      "আপত্তি": 4146,
      "আসন": 4147,
      "দিনটি": 4148,
      "চিনি": 4149,
      "ক্রো": 4150,
      "ধানের": 4151,
      "দেখলে": 4152,
      "থাকব": 4153,
      "থাকতেন": 4154,
      "মোশার": 4155,
      "জ্বা": 4156,
      "পুরাত": 4157,
      "কর্মীরা": 4158,
      "টুয়েন্টিফোর": 4159,
      "র্থ্য": 4160,
      "মেরা": 4161,
      "শীঘ্রই": 4162,
      "প্রাকৃতিক": 4163,
      "শ্রম": 4164,
      "পরেই": 4165,
      "ডাল": 4166,
      "সমাবেশে": 4167,
      "বেশিদিন": 4168,
      "চালান": 4169,
      "চালানো": 4170,
      "বইগুলো": 4171,
      "ভেতর": 4172,
      "তখনই": 4173,
      "তখনো": 4174,
      "ব্ধ": 4175,
      "ম্বরের": 4176,
      "ঠাকুর": 4177,
      "ধাপ": 4178,
      "রাষ্ট্রীয়": 4179,
      "ভবনের": 4180,
      "এসএসসি": 4181,
      "অধিকাংশ": 4182,
      "আলোর": 4183,
      "বিষয়গুলো": 4184,
      "রহস্য": 4185,
      "কয়েকটা": 4186,
      "অর্থমন্ত্রী": 4187,
      "বিশেষজ্ঞ": 4188,
      "ম্বে": 4189,
      "আওয়াজ": 4190,
      "রাজনীতির": 4191,
      "ধর্মের": 4192,
      "দোকানে": 4193,
      "লাইনে": 4194,
      "ত্বাধীন": 4195,
      "একাধিক": 4196,
      "মহল": 4197,
      "গল্পে": 4198,
      "ঘুমাতে": 4199,
      "বিকল্প": 4200,
      "বিরোধি": 4201,
      "তুলেছে": 4202,
      "চিন্তিত": 4203,
      "হোসেনের": 4204,
      "ভিত্তি": 4205,
      "শিল্পের": 4206,
      "ময়না": 4207,
      "পাইনি": 4208,
      "গাছপালা": 4209,
      "স্টেশন": 4210,
      "বানানো": 4211,
      "জন্মদিন": 4212,
      "ইতিমধ্যে": 4213,
      "লেখাপড়া": 4214,
      "সংবাদপত্র": 4215,
      "উইল": 4216,
      "সম্মেলনের": 4217,
      "মহামার": 4218,
      "ফেরা": 4219,
      "পর্যাপ্ত": 4220,
      "জনগণকে": 4221,
      "শ্রেষ্ঠ": 4222,
      "বিলম্বে": 4223,
      "সামর্থ্য": 4224,
      "সর্বশেষ": 4225,
      "গ্ধ": 4226,
      "আন্দোলনে": 4227,
      "চীনের": 4228,
      "জাহাজ": 4229,
      "অপহরণ": 4230,
      "রংপুর": 4231,
      "আসবো": 4232,
      "পশ্চিমা": 4233,
      "গোষ্ঠী": 4234,
      "নিয়ন্ত্রণে": 4235,
      "সিরিজ": 4236,
      "নৌকা": 4237,
      "পেরেছি": 4238,
      "প্রার্থনা": 4239,
      "কাটাতে": 4240,
      "বিজয়ী": 4241,
      "সাহস": 4242,
      "ইনিং": 4243,
      "ইনিংস": 4244,
      "ছেলেরা": 4245,
      "রোকেয়ার": 4246,
      "কর্তৃপক্ষের": 4247,
      "উদ্যোগে": 4248,
      "শৈশ": 4249,
      "ইউরোপ": 4250,
      "ইউনিয়ন": 4251,
      "ফাইনালে": 4252,
      "মুহূর্তে": 4253,
      "অংশে": 4254,
      "ক্যান্": 4255,
      "সেলসিয়া": 4256,
      "স্পষ্ট": 4257,
      "প্রশিক্ষণ": 4258,
      "দিল্লি": 4259,
      "আর্জেন্টিনার": 4260,
      "সমিতির": 4261,
      "সেন্টার": 4262,
      "কম্পিউটার": 4263,
      "আকর্ষণ": 4264,
      "কক্সবাজার": 4265,
      "রেকর্ড": 4266,
      "পিছনে": 4267,
      "অনুমোদন": 4268,
      "ক্রিকেটার": 4269,
      "অগাস্ট": 4270,
      "উজ্জ্বল": 4271,
      "বাঁচাতে": 4272,
      "বৌদ্ধ": 4273,
      "পার্থক্য": 4274,
      "মুসলিম": 4275,
      "ফরিদ": 4276,
      "মুসলমান": 4277,
      "পুরাতন": 4278,
      "'-": 4279,
      "অনা": 4280,
      "অস্বীকার": 4281,
      "অবিলম্বে": 4282,
      "ঈদ": 4283,
      "উর্": 4284,
      "উচি": 4285,
      "উপার্": 4286,
      "এঁ": 4287,
      "একর": 4288,
      "এজন্য": 4289,
      "ওজন": 4290,
      "কন্": 4291,
      "কানা": 4292,
      "কথার": 4293,
      "খন্দকার": 4294,
      "চোর": 4295,
      "জলে": 4296,
      "জ্যা": 4297,
      "জয়ের": 4298,
      "টান": 4299,
      "ড্যান": 4300,
      "তনে": 4301,
      "নবী": 4302,
      "পল": 4303,
      "পতা": 4304,
      "পন্থ": 4305,
      "বত": 4306,
      "বদল": 4307,
      "ভয়ের": 4308,
      "ভ্যান": 4309,
      "ভঙ্গ": 4310,
      "মকে": 4311,
      "মেন্": 4312,
      "মঞ্চে": 4313,
      "রুল": 4314,
      "লতি": 4315,
      "ষের": 4316,
      "সৎ": 4317,
      "সুরে": 4318,
      "হবার": 4319,
      "হ্ম": 4320,
      "হলাম": 4321,
      "হরি": 4322,
      "হবেন": 4323,
      "হতের": 4324,
      "ৃত": 4325,
      "১৩": 4326,
      "২৬": 4327,
      "য়র": 4328,
      "করত": 4329,
      "করছিল": 4330,
      "নাক": 4331,
      "বাজি": 4332,
      "বাক্য": 4333,
      "বেছে": 4334,
      "বেড়ায়": 4335,
      "বিএস": 4336,
      "বিক্ষোভ": 4337,
      "লেঞ্জ": 4338,
      "লেষণ": 4339,
      "কাছি": 4340,
      "কাব্য": 4341,
      "কাছা": 4342,
      "কালাম": 4343,
      "মাফ": 4344,
      "মাদ্রা": 4345,
      "প্রদর্শন": 4346,
      "লাতে": 4347,
      "ড়ানোর": 4348,
      "রায়ের": 4349,
      "রাঙা": 4350,
      "মিউ": 4351,
      "মিয়ার": 4352,
      "টিয়া": 4353,
      "কিচ্ছু": 4354,
      "পরম": 4355,
      "সাউ": 4356,
      "সাগরে": 4357,
      "ক্সে": 4358,
      "থামো": 4359,
      "একথা": 4360,
      "একসঙ্গে": 4361,
      "পাথ": 4362,
      "জনগোষ্ঠীর": 4363,
      "কারীরা": 4364,
      "ন্দে": 4365,
      "ক্ষিত": 4366,
      "সম্ব": 4367,
      "হাহ": 4368,
      "হামি": 4369,
      "হাতির": 4370,
      "বারবার": 4371,
      "বার্থ": 4372,
      "লিল": 4373,
      "লিয়ার": 4374,
      "রেগে": 4375,
      "মেশ": 4376,
      "সিলেট": 4377,
      "দাই": 4378,
      "চাচা": 4379,
      "খাল": 4380,
      "খাতের": 4381,
      "খেলেন": 4382,
      "জামিন": 4383,
      "পরিবারে": 4384,
      "জিন": 4385,
      "জিৎ": 4386,
      "সংস্থান": 4387,
      "সংগঠনের": 4388,
      "স্থল": 4389,
      "স্থানের": 4390,
      "ডিসি": 4391,
      "প্রতিক": 4392,
      "ছাতা": 4393,
      "চিৎকার": 4394,
      "বরি": 4395,
      "পিসি": 4396,
      "আমরাও": 4397,
      "দেখবে": 4398,
      "দেখছে": 4399,
      "ট্রিক": 4400,
      "কমলা": 4401,
      "নির্ধারণ": 4402,
      "তুমিই": 4403,
      "চারদিকে": 4404,
      "ভালোবাসা": 4405,
      "পুরনো": 4406,
      "বুয়ে": 4407,
      "রোজ": 4408,
      "রোগে": 4409,
      "জ্বাল": 4410,
      "টার্স": 4411,
      "পুড়িয়ে": 4412,
      "ব্যাগ": 4413,
      "কর্মীদের": 4414,
      "কর্মকাণ্ড": 4415,
      "কেনো": 4416,
      "ব্যবহৃ": 4417,
      "গোরা": 4418,
      "গোপন": 4419,
      "গোপাল": 4420,
      "জীবিত": 4421,
      "সোয়া": 4422,
      "শুরুতে": 4423,
      "সারের": 4424,
      "আগেও": 4425,
      "ফেলতে": 4426,
      "রুহুল": 4427,
      "গিয়েছিলেন": 4428,
      "ঘটছে": 4429,
      "প্রাই": 4430,
      "প্রথমবারের": 4431,
      "শ্রমি": 4432,
      "বৃক্ষ": 4433,
      "ভাইয়ের": 4434,
      "হেসে": 4435,
      "এনজি": 4436,
      "পর্যটন": 4437,
      "এমনটা": 4438,
      "ঠাণ্ডা": 4439,
      "টাকায়": 4440,
      "রাষ্ট্রের": 4441,
      "রাষ্ট্রদূত": 4442,
      "শিক্ষামন্ত্রী": 4443,
      "ছাড়াই": 4444,
      "আহসান": 4445,
      "সীম": 4446,
      "মুখের": 4447,
      "আনন্দের": 4448,
      "আনন্দে": 4449,
      "দুর্বৃত্ত": 4450,
      "বাড়তি": 4451,
      "পাঠ্য": 4452,
      "অর্থবছরে": 4453,
      "ফোর্": 4454,
      "খানিক": 4455,
      "যাওয়ায়": 4456,
      "সুন্দরবন": 4457,
      "সুন্দরবনে": 4458,
      "সুন্দরবনের": 4459,
      "কমিশনের": 4460,
      "কমিশনার": 4461,
      "মৃত": 4462,
      "ভাষ্য": 4463,
      "মতন": 4464,
      "ইসলামী": 4465,
      "ভরসা": 4466,
      "ঘাটে": 4467,
      "বসতে": 4468,
      "মরার": 4469,
      "প্রায়ই": 4470,
      "লাইট": 4471,
      "রেখেছে": 4472,
      "পাননি": 4473,
      "বাঁধা": 4474,
      "সাইবার": 4475,
      "সন্ধান": 4476,
      "পাইল": 4477,
      "ক্ষেত্রেও": 4478,
      "উন্নয়নের": 4479,
      "সেনাদের": 4480,
      "সেনাপতি": 4481,
      "দৃঢ়": 4482,
      "উইকেটে": 4483,
      "দেখিনি": 4484,
      "কবিতার": 4485,
      "কর্মসূচির": 4486,
      "ফ্রি": 4487,
      "মৌল": 4488,
      "রোগের": 4489,
      "সৈন্য": 4490,
      "বাচ্চার": 4491,
      "নেতৃত্বাধীন": 4492,
      "আব্বা": 4493,
      "আব্দুর": 4494,
      "সামনের": 4495,
      "ওয়েল": 4496,
      "ওয়েস্ট": 4497,
      "সমর্থিত": 4498,
      "শুনেছি": 4499,
      "লিখতে": 4500,
      "হরতা": 4501,
      "স্ট্রি": 4502,
      "বোর্ডে": 4503,
      "বাচ্চাদের": 4504,
      "চ্ছন্ন": 4505,
      "আসেনি": 4506,
      "মিনহা": 4507,
      "ন্দিত": 4508,
      "কর্ণ": 4509,
      "প্রশাসক": 4510,
      "জামায়াত": 4511,
      "আল্লাহর": 4512,
      "মিলনায়": 4513,
      "শাহজা": 4514,
      "ওঠার": 4515,
      "সন্ধ্যার": 4516,
      "পীড়": 4517,
      "বস্তু": 4518,
      "আলমগীর": 4519,
      "গণতন্ত্রের": 4520,
      "কর্তৃপক্ষ": 4521,
      "মুরগি": 4522,
      "মুরগী": 4523,
      "সমাবেশের": 4524,
      "র্যাব": 4525,
      "জার্মান": 4526,
      "ব্রিটিশ": 4527,
      "নাট্য": 4528,
      "হৃদয়": 4529,
      "নিষেধ": 4530,
      "ফায়ার": 4531,
      "ঘটনাস্থলে": 4532,
      "ফেনী": 4533,
      "গ্রুপ": 4534,
      "গুলশ": 4535,
      "ফিলিস্তি": 4536,
      "সাক্ষাৎকার": 4537,
      "পদ্মা": 4538,
      "ইকবাল": 4539,
      "বাঙালি": 4540,
      "প্ল্যান": 4541,
      "চ্যাম্পিয়ন": 4542,
      "সরবরাহ": 4543,
      "এরশাদ": 4544,
      "জেনারেল": 4545,
      "বিজ্ঞপ্তিতে": 4546,
      "নিম্ন": 4547,
      "স্মৃতি": 4548,
      "গ্রেনেড": 4549,
      "সেলসিয়াস": 4550,
      "উচিৎ": 4551,
      "পতাকা": 4552,
      "লতিফ": 4553,
      "কাছাকাছি": 4554,
      "সম্বন্ধ": 4555,
      "ব্যবহৃত": 4556,
      "\"।": 4557,
      ")।": 4558,
      "ar": 4559,
      "ঁটে": 4560,
      "অমি": 4561,
      "অস্ব": 4562,
      "আদায়": 4563,
      "আশ্বাস": 4564,
      "ইভ": 4565,
      "ঈদের": 4566,
      "উদা": 4567,
      "উনার": 4568,
      "উল্লা": 4569,
      "এলে": 4570,
      "এগো": 4571,
      "ওবায়": 4572,
      "ঔষ": 4573,
      "গম": 4574,
      "ঘেরা": 4575,
      "চূ": 4576,
      "জমে": 4577,
      "জবাই": 4578,
      "ঠার": 4579,
      "তল": 4580,
      "ধন": 4581,
      "ধৈ": 4582,
      "নুরুল": 4583,
      "পট": 4584,
      "পয়": 4585,
      "পেন": 4586,
      "পুল": 4587,
      "বঙ্": 4588,
      "বজায়": 4589,
      "বসিয়ে": 4590,
      "মূ": 4591,
      "মোর": 4592,
      "রফ": 4593,
      "রশি": 4594,
      "রঘু": 4595,
      "শায়": 4596,
      "শস্য": 4597,
      "সকালের": 4598,
      "হরা": 4599,
      "হচ্ছিল": 4600,
      "াই": 4601,
      "িন": 4602,
      "োধে": 4603,
      "৩১": 4604,
      "করবি": 4605,
      "করছিলেন": 4606,
      "নিচ্ছে": 4607,
      "কেশন": 4608,
      "নামা": 4609,
      "নাসির": 4610,
      "বাওয়া": 4611,
      "বাগান": 4612,
      "বাধিকার": 4613,
      "তেজ": 4614,
      "বিনো": 4615,
      "বিরাট": 4616,
      "লেজ": 4617,
      "মাক": 4618,
      "মাছি": 4619,
      "মামার": 4620,
      "তাৎ": 4621,
      "তামি": 4622,
      "প্রণ": 4623,
      "প্রবল": 4624,
      "প্রবন্ধ": 4625,
      "প্রদায়": 4626,
      "প্রতী": 4627,
      "প্রযো": 4628,
      "ড়ান্ত": 4629,
      "রাউন্": 4630,
      "মিশে": 4631,
      "মিজান": 4632,
      "মিশন": 4633,
      "দিত": 4634,
      "দিনাজ": 4635,
      "র্নাম": 4636,
      "স্বার্থ": 4637,
      "সেলিম": 4638,
      "ায়ার": 4639,
      "ছিট": 4640,
      "সাজ": 4641,
      "সাড়া": 4642,
      "সাবান": 4643,
      "একের": 4644,
      "পাবল": 4645,
      "মারতে": 4646,
      "বলী": 4647,
      "সমঝো": 4648,
      "হামে": 4649,
      "হাজির": 4650,
      "শিক": 4651,
      "লিও": 4652,
      "লিগের": 4653,
      "কোলে": 4654,
      "কোচের": 4655,
      "পারবি": 4656,
      "যাবার": 4657,
      "মানবাধিকার": 4658,
      "শেদ": 4659,
      "দামে": 4660,
      "দাওয়া": 4661,
      "চাকর": 4662,
      "চাবি": 4663,
      "দুল্লাহ": 4664,
      "খেজুর": 4665,
      "জাগর": 4666,
      "জামাল": 4667,
      "সবজি": 4668,
      "সবকিছুই": 4669,
      "যেহেতু": 4670,
      "জেকে": 4671,
      "ব্যক্ত": 4672,
      "ব্যান্ড": 4673,
      "োগ্রা": 4674,
      "ভিজে": 4675,
      "জন্যও": 4676,
      "গ্রিক": 4677,
      "জিতে": 4678,
      "সংগীত": 4679,
      "সুই": 4680,
      "ডিএম": 4681,
      "চেপে": 4682,
      "চেম্": 4683,
      "টেও": 4684,
      "শামী": 4685,
      "শাহীন": 4686,
      "প্রতিবাদে": 4687,
      "শুভে": 4688,
      "ছাড়ার": 4689,
      "আমন্ত্র": 4690,
      "হিন্দু": 4691,
      "পেশার": 4692,
      "এরই": 4693,
      "কাজটি": 4694,
      "সময়টা": 4695,
      "অনেকগুলো": 4696,
      "চার্": 4697,
      "সঙ্ক": 4698,
      "থাকল": 4699,
      "উপন্যা": 4700,
      "বাংলাদেশি": 4701,
      "মোহামে": 4702,
      "রোদ": 4703,
      "হারের": 4704,
      "ঞ্জে": 4705,
      "ঞ্জি": 4706,
      "টার্": 4707,
      "পুলি": 4708,
      "ব্যাক": 4709,
      "বাইরের": 4710,
      "দ্রব্য": 4711,
      "কর্মচার": 4712,
      "কর্মসংস্থান": 4713,
      "ফিল": 4714,
      "কুমি": 4715,
      "চলতি": 4716,
      "চলছিল": 4717,
      "চলুন": 4718,
      "টুর্নাম": 4719,
      "ধারে": 4720,
      "গোসল": 4721,
      "ল্লার": 4722,
      "সোহেল": 4723,
      "কালকে": 4724,
      "অভিযুক্ত": 4725,
      "ক্ষেত্র": 4726,
      "গিয়েছিলাম": 4727,
      "চাইতে": 4728,
      "প্রাচীন": 4729,
      "অন্যের": 4730,
      "পূজা": 4731,
      "সমাপনী": 4732,
      "স্বরাষ্ট্র": 4733,
      "হেলা": 4734,
      "হোটে": 4735,
      "বইটা": 4736,
      "ভেদ": 4737,
      "ভেসে": 4738,
      "ব্দে": 4739,
      "হাসতে": 4740,
      "ব্র্যা": 4741,
      "লাগলেন": 4742,
      "আবারও": 4743,
      "সূত্রে": 4744,
      "সূর্য": 4745,
      "করোনা": 4746,
      "হুকুম": 4747,
      "হতেই": 4748,
      "পারিনি": 4749,
      "আহমদ": 4750,
      "সেটাও": 4751,
      "তোমায়": 4752,
      "অধিনায়ক": 4753,
      "দুর্দ": 4754,
      "দুর্নীতির": 4755,
      "প্রতিষ্ঠার": 4756,
      "ছাত্রলীগ": 4757,
      "বাড়ার": 4758,
      "বাড়ছে": 4759,
      "ধরেই": 4760,
      "ম্যাম": 4761,
      "অনুষ্ঠানের": 4762,
      "উৎসবে": 4763,
      "মাধ্যমিক": 4764,
      "গ্রহণের": 4765,
      "সদস্যের": 4766,
      "প্রেক্ষা": 4767,
      "করলেই": 4768,
      "দোয়া": 4769,
      "দোস্ত": 4770,
      "পেরিয়ে": 4771,
      "সম্পর্কের": 4772,
      "আবর্": 4773,
      "বৈশাখ": 4774,
      "কারণেই": 4775,
      "সেখানেই": 4776,
      "যুদ্ধের": 4777,
      "জয়ী": 4778,
      "সাংসদ": 4779,
      "ঘুমিয়ে": 4780,
      "মাধ্যমেই": 4781,
      "গুরুতর": 4782,
      "বিচারক": 4783,
      "যাত্রীদের": 4784,
      "জিয়াউর": 4785,
      "মার্টিন": 4786,
      "বয়স্ক": 4787,
      "ক্যাম্প": 4788,
      "উঠবে": 4789,
      "নিরপেক্ষ": 4790,
      "ভিতর": 4791,
      "সম্ভবত": 4792,
      "ক্ষণে": 4793,
      "দশম": 4794,
      "বক্তব্যের": 4795,
      "যাইতে": 4796,
      "ঝামেলা": 4797,
      "ব্যক্তিদের": 4798,
      "শুনানির": 4799,
      "কর্মকর্তার": 4800,
      "হাসপাতালের": 4801,
      "লেখালেখ": 4802,
      "সিনেমার": 4803,
      "স্থিতি": 4804,
      "অতিক্রম": 4805,
      "ফেলেছে": 4806,
      "ফেলেছি": 4807,
      "গার্ড": 4808,
      "মহাজোট": 4809,
      "মালয়ে": 4810,
      "পরিবেশের": 4811,
      "কাজেই": 4812,
      "ফিরতে": 4813,
      "১৯৭১": 4814,
      "রোগী": 4815,
      "শক্তিশালী": 4816,
      "পায়ের": 4817,
      "জিনিয়ার": 4818,
      "অপেক্ষায়": 4819,
      "বিশ্বকাপের": 4820,
      "ষণার": 4821,
      "ওয়েব": 4822,
      "গিয়া": 4823,
      "গ্নি": 4824,
      "মন্ত্রণালয়ে": 4825,
      "ফেলবে": 4826,
      "আন্তরিক": 4827,
      "আসিয়া": 4828,
      "শতাধিক": 4829,
      "অপরাধী": 4830,
      "বর্ষের": 4831,
      "বিভাগে": 4832,
      "শ্রেণির": 4833,
      "আলাপ": 4834,
      "পর্বে": 4835,
      "পেছন": 4836,
      "সপ্তাহে": 4837,
      "সপ্তাহের": 4838,
      "সংস্কৃতির": 4839,
      "আগ্রহী": 4840,
      "তত্ত্ব": 4841,
      "পুনর্": 4842,
      "নানান": 4843,
      "চরিত্রে": 4844,
      "বোর্ডের": 4845,
      "রক্ষার": 4846,
      "নবম": 4847,
      "পেশাওয়ার": 4848,
      "ওয়ার্ক": 4849,
      "প্রতিযোগিতা": 4850,
      "প্রতিযোগিতায়": 4851,
      "অঞ্চল": 4852,
      "চ্যালেঞ্জ": 4853,
      "নরসিং": 4854,
      "বিপুল": 4855,
      "ব্রাজিল": 4856,
      "উন্নতি": 4857,
      "বিজিবি": 4858,
      "সংসদে": 4859,
      "বিস্তার": 4860,
      "বিস্তৃত": 4861,
      "সহজেই": 4862,
      "মৌসুমের": 4863,
      "এখানকার": 4864,
      "কুয়াশা": 4865,
      "ওয়ানডে": 4866,
      "ইন্টারনেট": 4867,
      "ধোয়া": 4868,
      "বানাতে": 4869,
      "খুলনা": 4870,
      "শ্রীলঙ্কার": 4871,
      "মসজিদ": 4872,
      "অ্যালবাম": 4873,
      "আত্মার": 4874,
      "ঘুরতে": 4875,
      "জগৎ": 4876,
      "ট্টা": 4877,
      "প্রচলিত": 4878,
      "সমন্বয়": 4879,
      "অভিজ্ঞতা": 4880,
      "ভদ্রলোক": 4881,
      "বাছাই": 4882,
      "নারায়ণগঞ্জ": 4883,
      "জাতিসংঘের": 4884,
      "কণ্ঠে": 4885,
      "ঘিরে": 4886,
      "পুঁজি": 4887,
      "স্টেডিয়ামে": 4888,
      "বিবৃতিতে": 4889,
      "মর্যাদা": 4890,
      "ধর্মাবলম্বীদের": 4891,
      "রবীন্দ্রনাথ": 4892,
      "আওতায়": 4893,
      "অনুশীলন": 4894,
      "ইউনিভার্সি": 4895,
      "ঐতিহ্য": 4896,
      "মণিপুরি": 4897,
      "স্বেচ্ছা": 4898,
      "সমৃদ্ধ": 4899,
      "মুজিবুর": 4900,
      "ভিটামিন": 4901,
      "খানিকটা": 4902,
      "মিলনায়তনে": 4903,
      "সম্বন্ধে": 4904,
      "উদাহরণ": 4905,
      "চূড়ান্ত": 4906,
      "বঙ্গোপ": 4907,
      "ঁট": 4908,
      "ংকর": 4909,
      "অহ": 4910,
      "অস্ত": 4911,
      "অসম্ভব": 4912,
      "আলে": 4913,
      "আনে": 4914,
      "আশে": 4915,
      "আলু": 4916,
      "আরাম": 4917,
      "আকবর": 4918,
      "আশ্রয়": 4919,
      "ইসি": 4920,
      "ওম": 4921,
      "ওল": 4922,
      "কং": 4923,
      "কটি": 4924,
      "কান্ত": 4925,
      "কমাতে": 4926,
      "খস": 4927,
      "গগির": 4928,
      "ঘুষ": 4929,
      "ঘন্য": 4930,
      "চেন": 4931,
      "ছুরি": 4932,
      "জনি": 4933,
      "জলা": 4934,
      "জ্যে": 4935,
      "জঘন্য": 4936,
      "ঝিল": 4937,
      "ঝগড়া": 4938,
      "ট্যা": 4939,
      "টনের": 4940,
      "টরি": 4941,
      "দানের": 4942,
      "ধব": 4943,
      "নয়া": 4944,
      "নন্দ": 4945,
      "নোট": 4946,
      "নহে": 4947,
      "পরাজিত": 4948,
      "ফস": 4949,
      "ফজল": 4950,
      "বমি": 4951,
      "বন্": 4952,
      "বসার": 4953,
      "বন্দর": 4954,
      "বন্দি": 4955,
      "ভরা": 4956,
      "ভক্তি": 4957,
      "যত্ন": 4958,
      "রই": 4959,
      "রীতি": 4960,
      "লজ্": 4961,
      "শনাল": 4962,
      "ষে": 4963,
      "ষষ্ঠ": 4964,
      "সঞ্": 4965,
      "সত্ত": 4966,
      "হট": 4967,
      "হস্ত": 4968,
      "হানি": 4969,
      "হানা": 4970,
      "াম": 4971,
      "িকায়": 4972,
      "ুদ্ধ": 4973,
      "োজ": 4974,
      "োপ": 4975,
      "্দা": 4976,
      "২৮": 4977,
      "৩০": 4978,
      "্রু": 4979,
      "ানার": 4980,
      "করলো": 4981,
      "নিষ্": 4982,
      "নিয়ার": 4983,
      "নিলেন": 4984,
      "বাদামি": 4985,
      "বেতন": 4986,
      "বিশ": 4987,
      "বিপর্য": 4988,
      "বিপরী": 4989,
      "বিচ্ছি": 4990,
      "বিজ্ঞা": 4991,
      "বিবাহ": 4992,
      "বিবরণ": 4993,
      "বিশিষ্ট": 4994,
      "কাতার": 4995,
      "মাপ": 4996,
      "তালু": 4997,
      "তায়াত": 4998,
      "তাবাদী": 4999
    },
    "merges": [
      [
        "য",
        "়"
      ],
      [
        "া",
        "র"
      ],
      [
        "ে",
        "র"
      ],
      [
        "্",
        "র"
      ],
      [
        "্",
        "য"
      ],
      [
        "া",
        "ন"
      ],
      [
        "ক",
        "র"
      ],
      [
        "ে",
        "ন"
      ],
      [
        "য়",
        "ে"
      ],
      [
        "ন",
        "ি"
      ],
      [
        "ক",
        "ে"
      ],
      [
        "্",
        "ত"
      ],
      [
        "ন",
        "া"
      ],
      [
        "ব",
        "া"
      ],
      [
        "ত",
        "ে"
      ],
      [
        "ব",
        "ে"
      ],
      [
        "ব",
        "ি"
      ],
      [
        "ছ",
        "ে"
      ],
      [
        "ল",
        "ে"
      ],
      [
        "ক",
        "া"
      ],
      [
        "ম",
        "া"
      ],
      [
        "ত",
        "ি"
      ],
      [
        "ত",
        "া"
      ],
      [
        "প",
        "্র"
      ],
      [
        "ল",
        "া"
      ],
      [
        "ড",
        "়"
      ],
      [
        "র",
        "া"
      ],
      [
        "দ",
        "ে"
      ],
      [
        "ম",
        "ি"
      ],
      [
        "ট",
        "ি"
      ],
      [
        "ন",
        "ে"
      ],
      [
        "দ",
        "ি"
      ],
      [
        "ট",
        "া"
      ],
      [
        "র",
        "্"
      ],
      [
        "স",
        "্"
      ],
      [
        "স",
        "ে"
      ],
      [
        "ক",
        "ি"
      ],
      [
        "া",
        "য়"
      ],
      [
        "দ",
        "ের"
      ],
      [
        "ছ",
        "ি"
      ],
      [
        "প",
        "র"
      ],
      [
        "স",
        "া"
      ],
      [
        "ক",
        "্"
      ],
      [
        "্য",
        "া"
      ],
      [
        "ভ",
        "া"
      ],
      [
        "থ",
        "া"
      ],
      [
        "ল",
        "ো"
      ],
      [
        "এ",
        "ক"
      ],
      [
        "প",
        "া"
      ],
      [
        "কর",
        "ে"
      ],
      [
        "জ",
        "ন"
      ],
      [
        "য়",
        "া"
      ],
      [
        "ক",
        "ার"
      ],
      [
        "ন",
        "্"
      ],
      [
        "ক্",
        "ষ"
      ],
      [
        "ত",
        "ো"
      ],
      [
        "ু",
        "র"
      ],
      [
        "ন",
        "্ত"
      ],
      [
        "ম",
        "ার"
      ],
      [
        "ব",
        "ল"
      ],
      [
        "স",
        "ম"
      ],
      [
        "হ",
        "া"
      ],
      [
        "গ",
        "ে"
      ],
      [
        "ব",
        "ার"
      ],
      [
        "শ",
        "ি"
      ],
      [
        "ল",
        "ি"
      ],
      [
        "র",
        "ে"
      ],
      [
        "ত",
        "ার"
      ],
      [
        "ষ",
        "্"
      ],
      [
        "ক",
        "ো"
      ],
      [
        "প",
        "ার"
      ],
      [
        "য",
        "া"
      ],
      [
        "ি",
        "ত"
      ],
      [
        "থ",
        "ে"
      ],
      [
        "ম",
        "ে"
      ],
      [
        "হ",
        "য়ে"
      ],
      [
        "আ",
        "মি"
      ],
      [
        "হ",
        "য়"
      ],
      [
        "স",
        "ি"
      ],
      [
        "ম",
        "ান"
      ],
      [
        "আ",
        "র"
      ],
      [
        "ছি",
        "ল"
      ],
      [
        "শ",
        "ে"
      ],
      [
        "চ",
        "্"
      ],
      [
        "তি",
        "নি"
      ],
      [
        "দ",
        "্"
      ],
      [
        "ত",
        "ু"
      ],
      [
        "দ",
        "া"
      ],
      [
        "চ",
        "া"
      ],
      [
        "দ",
        "ু"
      ],
      [
        "ি",
        "ক"
      ],
      [
        "খ",
        "া"
      ],
      [
        "জ",
        "ান"
      ],
      [
        "এ",
        "ই"
      ],
      [
        "খ",
        "ন"
      ],
      [
        "্",
        "ব"
      ],
      [
        "ক",
        "্ত"
      ],
      [
        "খ",
        "ে"
      ],
      [
        "ঙ",
        "্"
      ],
      [
        "য়",
        "ার"
      ],
      [
        "হ",
        "বে"
      ],
      [
        "জ",
        "া"
      ],
      [
        "থে",
        "কে"
      ],
      [
        "স",
        "ব"
      ],
      [
        "ছ",
        "েন"
      ],
      [
        "ন",
        "ের"
      ],
      [
        "আ",
        "মা"
      ],
      [
        "আ",
        "মার"
      ],
      [
        "য",
        "ে"
      ],
      [
        "ি",
        "য়ে"
      ],
      [
        "কর",
        "া"
      ],
      [
        "ও",
        "য়া"
      ],
      [
        "জ",
        "ে"
      ],
      [
        "ম",
        "ু"
      ],
      [
        "দে",
        "শ"
      ],
      [
        "ব",
        "্য"
      ],
      [
        "ত",
        "্র"
      ],
      [
        "ান",
        "ে"
      ],
      [
        "পর",
        "ি"
      ],
      [
        "ছ",
        "ু"
      ],
      [
        "ো",
        "গ"
      ],
      [
        "ভ",
        "ি"
      ],
      [
        "আ",
        "ছে"
      ],
      [
        "স",
        "্ত"
      ],
      [
        "জন",
        "্য"
      ],
      [
        "গ",
        "্র"
      ],
      [
        "জ",
        "ি"
      ],
      [
        "স",
        "ং"
      ],
      [
        "স্",
        "থ"
      ],
      [
        "ড়",
        "া"
      ],
      [
        "অ",
        "ন"
      ],
      [
        "স",
        "ু"
      ],
      [
        "ক",
        "থা"
      ],
      [
        "গ",
        "ু"
      ],
      [
        "কো",
        "ন"
      ],
      [
        "ড",
        "ি"
      ],
      [
        "চ",
        "ে"
      ],
      [
        "ক",
        "ী"
      ],
      [
        "্",
        "প"
      ],
      [
        "নি",
        "য়ে"
      ],
      [
        "কর",
        "তে"
      ],
      [
        "ল",
        "ের"
      ],
      [
        "গ",
        "া"
      ],
      [
        "ট",
        "ে"
      ],
      [
        "শ",
        "া"
      ],
      [
        "ধ",
        "্য"
      ],
      [
        "প্র",
        "তি"
      ],
      [
        "ি",
        "র"
      ],
      [
        "ব",
        "ো"
      ],
      [
        "শ",
        "ু"
      ],
      [
        "হয়ে",
        "ছে"
      ],
      [
        "ব",
        "লে"
      ],
      [
        "এ",
        "টা"
      ],
      [
        "ছ",
        "া"
      ],
      [
        "ন",
        "ার"
      ],
      [
        "ী",
        "র"
      ],
      [
        "্",
        "ম"
      ],
      [
        "েন",
        "্"
      ],
      [
        "আ",
        "ম"
      ],
      [
        "খ",
        "ু"
      ],
      [
        "হ",
        "ি"
      ],
      [
        "কি",
        "ছু"
      ],
      [
        "দ্",
        "ধ"
      ],
      [
        "ম",
        "ন"
      ],
      [
        "দি",
        "য়ে"
      ],
      [
        "প",
        "ে"
      ],
      [
        "স",
        "র"
      ],
      [
        "কর",
        "েন"
      ],
      [
        "আ",
        "প"
      ],
      [
        "ড়",
        "ে"
      ],
      [
        "ী",
        "য়"
      ],
      [
        "আমা",
        "দের"
      ],
      [
        "আ",
        "স"
      ],
      [
        "দি",
        "ন"
      ],
      [
        "এ",
        "র"
      ],
      [
        "কা",
        "জ"
      ],
      [
        "সম",
        "য়"
      ],
      [
        "ন্ত",
        "্র"
      ],
      [
        "য",
        "োগ"
      ],
      [
        "চ",
        "ি"
      ],
      [
        "অ",
        "নে"
      ],
      [
        "ব",
        "র"
      ],
      [
        "ক",
        "্র"
      ],
      [
        "চ্",
        "ছে"
      ],
      [
        "প",
        "ি"
      ],
      [
        "ু",
        "ল"
      ],
      [
        "এ",
        "খন"
      ],
      [
        "বল",
        "েন"
      ],
      [
        "ধ",
        "ান"
      ],
      [
        "য",
        "ায়"
      ],
      [
        "আম",
        "রা"
      ],
      [
        "দে",
        "খ"
      ],
      [
        "শ",
        "্"
      ],
      [
        "খ",
        "ানে"
      ],
      [
        "ন্ত",
        "ু"
      ],
      [
        "অ",
        "ব"
      ],
      [
        "ট",
        "্র"
      ],
      [
        "ক",
        "ম"
      ],
      [
        "নি",
        "র্"
      ],
      [
        "শে",
        "ষ"
      ],
      [
        "অনে",
        "ক"
      ],
      [
        "তু",
        "মি"
      ],
      [
        "ল",
        "েন"
      ],
      [
        "ন",
        "য়"
      ],
      [
        "লা",
        "ম"
      ],
      [
        "কি",
        "ন্তু"
      ],
      [
        "চ",
        "ার"
      ],
      [
        "ম",
        "নে"
      ],
      [
        "ভা",
        "লো"
      ],
      [
        "স",
        "ঙ্"
      ],
      [
        "প",
        "ুর"
      ],
      [
        "কোন",
        "ো"
      ],
      [
        "ো",
        "র"
      ],
      [
        "ড়",
        "ি"
      ],
      [
        "বা",
        "ং"
      ],
      [
        "থা",
        "ক"
      ],
      [
        "ষ্",
        "ঠ"
      ],
      [
        "ব",
        "ং"
      ],
      [
        "র",
        "ি"
      ],
      [
        "ভা",
        "বে"
      ],
      [
        "নে",
        "ই"
      ],
      [
        "উ",
        "প"
      ],
      [
        "এ",
        "বং"
      ],
      [
        "ন্",
        "দ"
      ],
      [
        "ব",
        "ু"
      ],
      [
        "স",
        "হ"
      ],
      [
        "এক",
        "টি"
      ],
      [
        "শি",
        "ক্ষ"
      ],
      [
        "ন্",
        "ধ"
      ],
      [
        "বাং",
        "লা"
      ],
      [
        "ও",
        "য়ার"
      ],
      [
        "সর",
        "কার"
      ],
      [
        "্",
        "ড"
      ],
      [
        "সঙ্",
        "গে"
      ],
      [
        "ম",
        "ো"
      ],
      [
        "র",
        "ো"
      ],
      [
        "ম",
        "ধ্য"
      ],
      [
        "হ",
        "ার"
      ],
      [
        "তা",
        "দের"
      ],
      [
        "ক্ত",
        "ি"
      ],
      [
        "স",
        "্য"
      ],
      [
        "ুর",
        "ু"
      ],
      [
        "গু",
        "লো"
      ],
      [
        "তা",
        "ঁ"
      ],
      [
        "ু",
        "ষ"
      ],
      [
        "য়",
        "ের"
      ],
      [
        "এক",
        "টা"
      ],
      [
        "ছিল",
        "েন"
      ],
      [
        "চ",
        "িত"
      ],
      [
        "জ",
        "্"
      ],
      [
        "জ",
        "ার"
      ],
      [
        "ঞ",
        "্"
      ],
      [
        "ট",
        "ার"
      ],
      [
        "ম",
        "ন্ত্র"
      ],
      [
        "প",
        "ু"
      ],
      [
        "য",
        "ু"
      ],
      [
        "ব",
        "্যা"
      ],
      [
        "সম",
        "্"
      ],
      [
        "ক",
        "ের"
      ],
      [
        "বা",
        "ই"
      ],
      [
        "মধ্য",
        "ে"
      ],
      [
        "দেশ",
        "ের"
      ],
      [
        "অন",
        "ু"
      ],
      [
        "বা",
        "স"
      ],
      [
        "কর",
        "ি"
      ],
      [
        "পার",
        "ে"
      ],
      [
        "ত",
        "্য"
      ],
      [
        "ত",
        "্ত"
      ],
      [
        "ঠ",
        "িক"
      ],
      [
        "তার",
        "া"
      ],
      [
        "ব",
        "ছ"
      ],
      [
        "মান",
        "ুষ"
      ],
      [
        "ল",
        "ার"
      ],
      [
        "হ",
        "লে"
      ],
      [
        "ব",
        "ন্ধ"
      ],
      [
        "ান",
        "্ত"
      ],
      [
        "তো",
        "মার"
      ],
      [
        "দ",
        "্র"
      ],
      [
        "ল",
        "্প"
      ],
      [
        "্য",
        "ান"
      ],
      [
        "কর",
        "্ম"
      ],
      [
        "ফ",
        "ি"
      ],
      [
        "ক",
        "েন"
      ],
      [
        "ব",
        "ড়"
      ],
      [
        "ক",
        "ু"
      ],
      [
        "চ",
        "ল"
      ],
      [
        "গ",
        "ত"
      ],
      [
        "ঢ",
        "া"
      ],
      [
        "বি",
        "ষ"
      ],
      [
        "ব",
        "েন"
      ],
      [
        "শ",
        "্ব"
      ],
      [
        "ো",
        "ট"
      ],
      [
        "বে",
        "শ"
      ],
      [
        "ব্য",
        "ব"
      ],
      [
        "ম",
        "ী"
      ],
      [
        "বছ",
        "র"
      ],
      [
        "হ",
        "চ্ছে"
      ],
      [
        "ট",
        "ু"
      ],
      [
        "ল",
        "ী"
      ],
      [
        "ধ",
        "ার"
      ],
      [
        "গ",
        "ো"
      ],
      [
        "ভ",
        "ার"
      ],
      [
        "জ",
        "ী"
      ],
      [
        "ল",
        "্"
      ],
      [
        "দে",
        "খা"
      ],
      [
        "ন",
        "ী"
      ],
      [
        "স",
        "ো"
      ],
      [
        "সা",
        "থে"
      ],
      [
        "শ",
        "ুরু"
      ],
      [
        "এ",
        "সে"
      ],
      [
        "র্",
        "থ"
      ],
      [
        "প্র",
        "ধান"
      ],
      [
        "স",
        "ার"
      ],
      [
        "খু",
        "ব"
      ],
      [
        "না",
        "ম"
      ],
      [
        "ন্",
        "ন"
      ],
      [
        "আ",
        "গে"
      ],
      [
        "প",
        "্ত"
      ],
      [
        "বি",
        "শ্ব"
      ],
      [
        "ান",
        "ি"
      ],
      [
        "্যা",
        "ল"
      ],
      [
        "ফ",
        "ে"
      ],
      [
        "কা",
        "ল"
      ],
      [
        "দ",
        "ল"
      ],
      [
        "বি",
        "দ"
      ],
      [
        "প্র",
        "থ"
      ],
      [
        "স",
        "ের"
      ],
      [
        "ঙ্",
        "গ"
      ],
      [
        "আ",
        "ই"
      ],
      [
        "স্",
        "থা"
      ],
      [
        "মন্ত্র",
        "ী"
      ],
      [
        "ঢা",
        "কা"
      ],
      [
        "জ",
        "ের"
      ],
      [
        "অ",
        "ভি"
      ],
      [
        "র",
        "ু"
      ],
      [
        "দি",
        "কে"
      ],
      [
        "এ",
        "খানে"
      ],
      [
        "ম",
        "ের"
      ],
      [
        "ক্ষ",
        "ে"
      ],
      [
        "টি",
        "র"
      ],
      [
        "গ",
        "িয়ে"
      ],
      [
        "ধ",
        "ি"
      ],
      [
        "স্",
        "বা"
      ],
      [
        "ণ",
        "া"
      ],
      [
        "জী",
        "ব"
      ],
      [
        "ট",
        "ো"
      ],
      [
        "ান",
        "া"
      ],
      [
        "দু",
        "ই"
      ],
      [
        "কা",
        "ছে"
      ],
      [
        "গে",
        "ছে"
      ],
      [
        "ঘ",
        "ট"
      ],
      [
        "ত",
        "ের"
      ],
      [
        "ান",
        "ের"
      ],
      [
        "কর",
        "ার"
      ],
      [
        "ত",
        "ীয়"
      ],
      [
        "শ",
        "ী"
      ],
      [
        "চা",
        "ই"
      ],
      [
        "ষ্",
        "ট"
      ],
      [
        "আমা",
        "কে"
      ],
      [
        "গ্র",
        "া"
      ],
      [
        "তা",
        "ই"
      ],
      [
        "ধ",
        "ু"
      ],
      [
        "ম",
        "তো"
      ],
      [
        "জ্",
        "ঞ"
      ],
      [
        "স",
        "দ"
      ],
      [
        "হ",
        "ত"
      ],
      [
        "প্র",
        "া"
      ],
      [
        "কার",
        "ণ"
      ],
      [
        "প্রথ",
        "ম"
      ],
      [
        "রা",
        "জ"
      ],
      [
        "সে",
        "ই"
      ],
      [
        "শ",
        "্র"
      ],
      [
        "পর",
        "ে"
      ],
      [
        "ব",
        "ৃ"
      ],
      [
        "য়ে",
        "ছে"
      ],
      [
        "বা",
        "বা"
      ],
      [
        "অন",
        "্য"
      ],
      [
        "আ",
        "জ"
      ],
      [
        "উ",
        "দ্"
      ],
      [
        "ঠ",
        "ে"
      ],
      [
        "প",
        "তি"
      ],
      [
        "ড",
        "া"
      ],
      [
        "প",
        "ূ"
      ],
      [
        "প",
        "ড়"
      ],
      [
        "বা",
        "দ"
      ],
      [
        "তা",
        "কে"
      ],
      [
        "স",
        "মা"
      ],
      [
        "বে",
        "শি"
      ],
      [
        "দে",
        "শে"
      ],
      [
        "স্",
        "ব"
      ],
      [
        "নির্",
        "বা"
      ],
      [
        "প",
        "্"
      ],
      [
        "তি",
        "ন"
      ],
      [
        "ভা",
        "ব"
      ],
      [
        "গ",
        "ের"
      ],
      [
        "ধ",
        "ী"
      ],
      [
        "ান",
        "ো"
      ],
      [
        "র",
        "ের"
      ],
      [
        "বা",
        "ড়ি"
      ],
      [
        "ভা",
        "ই"
      ],
      [
        "ত",
        "বে"
      ],
      [
        "হ",
        "ে"
      ],
      [
        "হ",
        "লো"
      ],
      [
        "য়",
        "েন্"
      ],
      [
        "ক",
        "ৃ"
      ],
      [
        "এ",
        "ন"
      ],
      [
        "পর",
        "্য"
      ],
      [
        "চ",
        "লে"
      ],
      [
        "স",
        "েন"
      ],
      [
        "য়",
        "ো"
      ],
      [
        "রা",
        "খ"
      ],
      [
        "তু",
        "ন"
      ],
      [
        "হ",
        "ো"
      ],
      [
        "না",
        "য়"
      ],
      [
        "যা",
        "বে"
      ],
      [
        "গ্র",
        "হ"
      ],
      [
        "দে",
        "ওয়া"
      ],
      [
        "বর",
        "্ত"
      ],
      [
        "স্য",
        "ার"
      ],
      [
        "তাঁ",
        "র"
      ],
      [
        "চা",
        "ল"
      ],
      [
        "আপ",
        "নার"
      ],
      [
        "ং",
        "শ"
      ],
      [
        "ন",
        "তুন"
      ],
      [
        "ফ",
        "া"
      ],
      [
        "ব",
        "ই"
      ],
      [
        "ছ",
        "োট"
      ],
      [
        "ভ",
        "ে"
      ],
      [
        "ধ",
        "র"
      ],
      [
        "প",
        "ড়ে"
      ],
      [
        "এ",
        "মন"
      ],
      [
        "গ",
        "র"
      ],
      [
        "শ",
        "ো"
      ],
      [
        "ার",
        "া"
      ],
      [
        "সম",
        "্প"
      ],
      [
        "ক্র",
        "ি"
      ],
      [
        "ব",
        "ের"
      ],
      [
        "ত",
        "খন"
      ],
      [
        "ব",
        "্"
      ],
      [
        "কা",
        "শ"
      ],
      [
        "হা",
        "স"
      ],
      [
        "আর",
        "ও"
      ],
      [
        "গ",
        "ণ"
      ],
      [
        "দ",
        "ী"
      ],
      [
        "নি",
        "উ"
      ],
      [
        "ম",
        "্ব"
      ],
      [
        "র",
        "য়েছে"
      ],
      [
        "স",
        "বাই"
      ],
      [
        "করে",
        "ছে"
      ],
      [
        "ব",
        "্র"
      ],
      [
        "ঠ",
        "া"
      ],
      [
        "শ",
        "ন"
      ],
      [
        "তি",
        "ক"
      ],
      [
        "আপ",
        "নি"
      ],
      [
        "দি",
        "তে"
      ],
      [
        "ধ",
        "া"
      ],
      [
        "দে",
        "খে"
      ],
      [
        "র্",
        "ণ"
      ],
      [
        "ভি",
        "ন্ন"
      ],
      [
        "লা",
        "গ"
      ],
      [
        "লা",
        "য়"
      ],
      [
        "টা",
        "কা"
      ],
      [
        "ূ",
        "ল"
      ],
      [
        "নি",
        "য়"
      ],
      [
        "থা",
        "কে"
      ],
      [
        "হ",
        "ন"
      ],
      [
        "লি",
        "শ"
      ],
      [
        "চ",
        "ু"
      ],
      [
        "তি",
        "র"
      ],
      [
        "ক্ষ",
        "া"
      ],
      [
        "লো",
        "ক"
      ],
      [
        "ও",
        "ই"
      ],
      [
        "জান",
        "ান"
      ],
      [
        "থ",
        "ায়"
      ],
      [
        "এক",
        "জন"
      ],
      [
        "্",
        "থ"
      ],
      [
        "রা",
        "ষ্"
      ],
      [
        "স্",
        "ট"
      ],
      [
        "রাষ্",
        "ট্র"
      ],
      [
        "আ",
        "বার"
      ],
      [
        "ত",
        "্ব"
      ],
      [
        "স",
        "ূ"
      ],
      [
        "বিদ",
        "্যাল"
      ],
      [
        "ই",
        "উ"
      ],
      [
        "কে",
        "উ"
      ],
      [
        "ফ",
        "োর"
      ],
      [
        "কর",
        "ো"
      ],
      [
        "শিক্ষ",
        "া"
      ],
      [
        "দ",
        "ায়"
      ],
      [
        "হ",
        "ু"
      ],
      [
        "হ",
        "তে"
      ],
      [
        "ছা",
        "ড়া"
      ],
      [
        "দ",
        "ার"
      ],
      [
        "র",
        "ণ"
      ],
      [
        "পার",
        "ি"
      ],
      [
        "ই",
        "স"
      ],
      [
        "ু",
        "ন"
      ],
      [
        "কর",
        "ছে"
      ],
      [
        "নির্বা",
        "চ"
      ],
      [
        "ভ",
        "ব"
      ],
      [
        "চে",
        "য়ে"
      ],
      [
        "পু",
        "লিশ"
      ],
      [
        "আ",
        "হ"
      ],
      [
        "এ",
        "স"
      ],
      [
        "য",
        "ান"
      ],
      [
        "কর",
        "বে"
      ],
      [
        "সে",
        "টা"
      ],
      [
        "ব",
        "লা"
      ],
      [
        "শু",
        "ধু"
      ],
      [
        "স",
        "ী"
      ],
      [
        "করে",
        "ছেন"
      ],
      [
        "মু",
        "খ"
      ],
      [
        "আ",
        "রে"
      ],
      [
        "দ",
        "র"
      ],
      [
        "আ",
        "ন"
      ],
      [
        "ী",
        "দের"
      ],
      [
        "বি",
        "ডি"
      ],
      [
        "ষ্",
        "টি"
      ],
      [
        "য়েন্",
        "টি"
      ],
      [
        "ম",
        "ূল"
      ],
      [
        "হ",
        "ই"
      ],
      [
        "তো",
        "মা"
      ],
      [
        "হা",
        "সি"
      ],
      [
        "বি",
        "ভিন্ন"
      ],
      [
        "ড",
        "ট"
      ],
      [
        "উ",
        "ত্ত"
      ],
      [
        "ক",
        "খন"
      ],
      [
        "এক",
        "টু"
      ],
      [
        "হা",
        "জার"
      ],
      [
        "যে",
        "তে"
      ],
      [
        "ধার",
        "ণ"
      ],
      [
        "নিউ",
        "জ"
      ],
      [
        "অ",
        "ধি"
      ],
      [
        "ষ্",
        "টা"
      ],
      [
        "ডট",
        "কম"
      ],
      [
        "আ",
        "লো"
      ],
      [
        "উ",
        "ন্"
      ],
      [
        "ট",
        "ের"
      ],
      [
        "বি",
        "এন"
      ],
      [
        "শে",
        "খ"
      ],
      [
        "দু",
        "র্"
      ],
      [
        "প্রতি",
        "ষ্ঠ"
      ],
      [
        "ছা",
        "ত্র"
      ],
      [
        "বিডি",
        "নিউজ"
      ],
      [
        "দ",
        "েন"
      ],
      [
        "য়েন্টি",
        "ফোর"
      ],
      [
        "বিষ",
        "য়"
      ],
      [
        "ন্দ",
        "র"
      ],
      [
        "না",
        "ই"
      ],
      [
        "ত",
        "ৈ"
      ],
      [
        "দ",
        "্য"
      ],
      [
        "প",
        "ো"
      ],
      [
        "য",
        "দি"
      ],
      [
        "ল",
        "ন"
      ],
      [
        "য়ে",
        "ক"
      ],
      [
        "র",
        "হ"
      ],
      [
        "নি",
        "জে"
      ],
      [
        "স্থ",
        "ান"
      ],
      [
        "পর্য",
        "ন্ত"
      ],
      [
        "য়ো",
        "জন"
      ],
      [
        "হ",
        "ী"
      ],
      [
        "কর",
        "ছি"
      ],
      [
        "মি",
        "ক"
      ],
      [
        "জান",
        "া"
      ],
      [
        "বু",
        "ঝ"
      ],
      [
        "অ",
        "ংশ"
      ],
      [
        "এ",
        "ম"
      ],
      [
        "দ",
        "লের"
      ],
      [
        "ফ",
        "ু"
      ],
      [
        "ভ",
        "ূ"
      ],
      [
        "বা",
        "ড়"
      ],
      [
        "হি",
        "সে"
      ],
      [
        "এ",
        "সব"
      ],
      [
        "ক",
        "য়েক"
      ],
      [
        "কর",
        "্ত"
      ],
      [
        "পা",
        "ঠ"
      ],
      [
        "দা",
        "ও"
      ],
      [
        "অ",
        "র্থ"
      ],
      [
        "ফ",
        "ো"
      ],
      [
        "প্র",
        "কাশ"
      ],
      [
        "জান",
        "িয়ে"
      ],
      [
        "ড",
        "ে"
      ],
      [
        "শ",
        "্য"
      ],
      [
        "দেখ",
        "তে"
      ],
      [
        "টো",
        "য়েন্টিফোর"
      ],
      [
        "হিসে",
        "বে"
      ],
      [
        "কা",
        "য়"
      ],
      [
        "কা",
        "লে"
      ],
      [
        "প্রধান",
        "মন্ত্রী"
      ],
      [
        "খ",
        "ান"
      ],
      [
        "ছ",
        "বি"
      ],
      [
        "জ",
        "ায়"
      ],
      [
        "ধ",
        "রে"
      ],
      [
        "ফ",
        "ল"
      ],
      [
        "ম",
        "্যা"
      ],
      [
        "বাংলা",
        "দেশ"
      ],
      [
        "ও",
        "কে"
      ],
      [
        "খ",
        "ো"
      ],
      [
        "বি",
        "শেষ"
      ],
      [
        "গে",
        "ল"
      ],
      [
        "মু",
        "ক্তি"
      ],
      [
        "ক",
        "ল"
      ],
      [
        "ম",
        "্"
      ],
      [
        "ক",
        "ত"
      ],
      [
        "ল",
        "ু"
      ],
      [
        "আ",
        "ওয়া"
      ],
      [
        "ত",
        "ৃ"
      ],
      [
        "ার",
        "্থ"
      ],
      [
        "মা",
        "ত্র"
      ],
      [
        "বল",
        "তে"
      ],
      [
        "মান",
        "ে"
      ],
      [
        "বাংলা",
        "দেশের"
      ],
      [
        "অনু",
        "ষ্ঠ"
      ],
      [
        "উ",
        "ৎ"
      ],
      [
        "দ",
        "ূ"
      ],
      [
        "ম",
        "তা"
      ],
      [
        "মা",
        "ধ্য"
      ],
      [
        "রা",
        "জন"
      ],
      [
        "যা",
        "ও"
      ],
      [
        "সু",
        "ন্দর"
      ],
      [
        "ক",
        "মি"
      ],
      [
        "জ",
        "ু"
      ],
      [
        "ম",
        "ৃ"
      ],
      [
        "ছে",
        "লে"
      ],
      [
        "সা",
        "ধারণ"
      ],
      [
        "ভা",
        "ষ"
      ],
      [
        "গ্রহ",
        "ণ"
      ],
      [
        "ও",
        "র"
      ],
      [
        "ম",
        "ত"
      ],
      [
        "দি",
        "ক"
      ],
      [
        "পা",
        "দ"
      ],
      [
        "েন্",
        "দ্র"
      ],
      [
        "বন্ধ",
        "ু"
      ],
      [
        "ইস",
        "লাম"
      ],
      [
        "সদ",
        "স্য"
      ],
      [
        "ব",
        "ী"
      ],
      [
        "নি",
        "জের"
      ],
      [
        "লে",
        "খ"
      ],
      [
        "যু",
        "ক্ত"
      ],
      [
        "ধর",
        "নের"
      ],
      [
        "হ",
        "্যা"
      ],
      [
        "প্র",
        "ি"
      ],
      [
        "প্র",
        "ে"
      ],
      [
        "ড়",
        "িয়ে"
      ],
      [
        "গ",
        "ঠ"
      ],
      [
        "দা",
        "ঁ"
      ],
      [
        "রহ",
        "মান"
      ],
      [
        "দ",
        "র্"
      ],
      [
        "পার",
        "েন"
      ],
      [
        "মে",
        "য়ে"
      ],
      [
        "ঘট",
        "না"
      ],
      [
        "ম্ব",
        "র"
      ],
      [
        "অ",
        "র্"
      ],
      [
        "প্র",
        "শ্"
      ],
      [
        "মানুষ",
        "ের"
      ],
      [
        "ঁ",
        "চ"
      ],
      [
        "ধ",
        "র্"
      ],
      [
        "কর",
        "লে"
      ],
      [
        "দা",
        "বি"
      ],
      [
        "জীব",
        "ন"
      ],
      [
        "দ",
        "ো"
      ],
      [
        "ভ",
        "র"
      ],
      [
        "ভ",
        "য়"
      ],
      [
        "্",
        "ট"
      ],
      [
        "পর",
        "ী"
      ],
      [
        "হয়",
        "নি"
      ],
      [
        "চ্",
        "ছা"
      ],
      [
        "প",
        "ের"
      ],
      [
        "ু",
        "ত"
      ],
      [
        "ান",
        "্"
      ],
      [
        "ক্",
        "স"
      ],
      [
        "ব্যব",
        "স্থা"
      ],
      [
        "সম্প",
        "র্"
      ],
      [
        "আওয়া",
        "মী"
      ],
      [
        "আ",
        "ব"
      ],
      [
        "ত",
        "্যা"
      ],
      [
        "ব",
        "ৈ"
      ],
      [
        "বে",
        "দ"
      ],
      [
        "কো",
        "থায়"
      ],
      [
        "চ্",
        "ছি"
      ],
      [
        "ণ",
        "্ড"
      ],
      [
        "প",
        "ৌ"
      ],
      [
        "য",
        "েন"
      ],
      [
        "বিষ",
        "য়ে"
      ],
      [
        "ঘ",
        "া"
      ],
      [
        "ঠ",
        "ি"
      ],
      [
        "স",
        "ভা"
      ],
      [
        "মা",
        "ণ"
      ],
      [
        "সরকার",
        "ি"
      ],
      [
        "সরকার",
        "ের"
      ],
      [
        "বিশ্ব",
        "বিদ্যাল"
      ],
      [
        "কারণ",
        "ে"
      ],
      [
        "তৈ",
        "রি"
      ],
      [
        "এ",
        "তে"
      ],
      [
        "চ",
        "না"
      ],
      [
        "প",
        "দ"
      ],
      [
        "নে",
        "তা"
      ],
      [
        "খে",
        "লা"
      ],
      [
        "আপ",
        "না"
      ],
      [
        "ফি",
        "রে"
      ],
      [
        "উ",
        "চিত"
      ],
      [
        "ব",
        "স"
      ],
      [
        "ম",
        "র"
      ],
      [
        "প্র",
        "ায়"
      ],
      [
        "সে",
        "খানে"
      ],
      [
        "থাক",
        "বে"
      ],
      [
        "প",
        "রা"
      ],
      [
        "স",
        "ত্য"
      ],
      [
        "দে",
        "য়"
      ],
      [
        "করে",
        "ছি"
      ],
      [
        "মার",
        "া"
      ],
      [
        "বল",
        "ি"
      ],
      [
        "কখন",
        "ো"
      ],
      [
        "এ",
        "লা"
      ],
      [
        "তা",
        "হলে"
      ],
      [
        "লা",
        "ই"
      ],
      [
        "র্",
        "ব"
      ],
      [
        "সা",
        "লে"
      ],
      [
        "গা",
        "মী"
      ],
      [
        "পে",
        "য়ে"
      ],
      [
        "ঞ্",
        "চ"
      ],
      [
        "যু",
        "দ্ধ"
      ],
      [
        "এ",
        "বার"
      ],
      [
        "ত",
        "্"
      ],
      [
        "থ",
        "্য"
      ],
      [
        "ৈ",
        "তিক"
      ],
      [
        "নি",
        "শ্"
      ],
      [
        "বি",
        "র"
      ],
      [
        "চে",
        "ষ্টা"
      ],
      [
        "এ",
        "কা"
      ],
      [
        "ব",
        "ক্ত"
      ],
      [
        "ি",
        "তে"
      ],
      [
        "হা",
        "ম"
      ],
      [
        "জা",
        "তীয়"
      ],
      [
        "ত্র",
        "ে"
      ],
      [
        "্যান",
        "্ড"
      ],
      [
        "তোমা",
        "কে"
      ],
      [
        "ও",
        "পর"
      ],
      [
        "ঘ",
        "ো"
      ],
      [
        "ন",
        "ানা"
      ],
      [
        "ম",
        "হ"
      ],
      [
        "হা",
        "তে"
      ],
      [
        "পূ",
        "র্ণ"
      ],
      [
        "ক",
        "েন্দ্র"
      ],
      [
        "জ",
        "য়"
      ],
      [
        "মা",
        "ম"
      ],
      [
        "র্",
        "ষ"
      ],
      [
        "পা",
        "তা"
      ],
      [
        "জে",
        "লা"
      ],
      [
        "বো",
        "ধ"
      ],
      [
        "চিত",
        "্র"
      ],
      [
        "সা",
        "ং"
      ],
      [
        "রে",
        "খে"
      ],
      [
        "খা",
        "লে"
      ],
      [
        "খ",
        "্যা"
      ],
      [
        "গ",
        "ল্প"
      ],
      [
        "ঘ",
        "ু"
      ],
      [
        "চ",
        "ো"
      ],
      [
        "ন",
        "্য"
      ],
      [
        "শ",
        "হ"
      ],
      [
        "হা",
        "ত"
      ],
      [
        "শ্",
        "বাস"
      ],
      [
        "মাধ্য",
        "মে"
      ],
      [
        "এ",
        "টি"
      ],
      [
        "গ",
        "ুরু"
      ],
      [
        "ন",
        "ো"
      ],
      [
        "কর",
        "ব"
      ],
      [
        "বি",
        "চার"
      ],
      [
        "যা",
        "ত্র"
      ],
      [
        "ক",
        "লে"
      ],
      [
        "ত",
        "থ্য"
      ],
      [
        "থ",
        "ি"
      ],
      [
        "বি",
        "ক"
      ],
      [
        "প্র",
        "য়োজন"
      ],
      [
        "টি",
        "তে"
      ],
      [
        "প",
        "ক্ষ"
      ],
      [
        "েন",
        "ে"
      ],
      [
        "বি",
        "রো"
      ],
      [
        "ভা",
        "গ"
      ],
      [
        "শি",
        "শু"
      ],
      [
        "জি",
        "য়া"
      ],
      [
        "স্থ",
        "ায়"
      ],
      [
        "ছ",
        "ো"
      ],
      [
        "এক",
        "ই"
      ],
      [
        "মার",
        "্"
      ],
      [
        "আর",
        "ো"
      ],
      [
        "েন্",
        "ট"
      ],
      [
        "ব",
        "য়"
      ],
      [
        "ী",
        "রা"
      ],
      [
        "কে",
        "ট"
      ],
      [
        "আই",
        "ন"
      ],
      [
        "মৃ",
        "ত্য"
      ],
      [
        "প",
        "ানি"
      ],
      [
        "ব",
        "লো"
      ],
      [
        "হ",
        "ওয়ার"
      ],
      [
        "নি",
        "তে"
      ],
      [
        "পা",
        "ওয়া"
      ],
      [
        "িত",
        "্ব"
      ],
      [
        "তু",
        "লে"
      ],
      [
        "চি",
        "ন্ত"
      ],
      [
        "উত্ত",
        "র"
      ],
      [
        "ক",
        "্যা"
      ],
      [
        "য",
        "খন"
      ],
      [
        "ু",
        "য়ার"
      ],
      [
        "সা",
        "মনে"
      ],
      [
        "হো",
        "সেন"
      ],
      [
        "অ",
        "্যা"
      ],
      [
        "এ",
        "ত"
      ],
      [
        "স",
        "ন্ত"
      ],
      [
        "নি",
        "ক"
      ],
      [
        "বা",
        "য়"
      ],
      [
        "অব",
        "শ্য"
      ],
      [
        "আ",
        "য়"
      ],
      [
        "আ",
        "সা"
      ],
      [
        "উ",
        "ঠ"
      ],
      [
        "প",
        "ান"
      ],
      [
        "কর",
        "বেন"
      ],
      [
        "নি",
        "র"
      ],
      [
        "ল্",
        "লা"
      ],
      [
        "খালে",
        "দা"
      ],
      [
        "জ",
        "ল"
      ],
      [
        "ভ",
        "িত"
      ],
      [
        "স",
        "্যা"
      ],
      [
        "্য",
        "ে"
      ],
      [
        "না",
        "মে"
      ],
      [
        "বা",
        "ঁ"
      ],
      [
        "বা",
        "জার"
      ],
      [
        "সা",
        "হা"
      ],
      [
        "কিছু",
        "ই"
      ],
      [
        "সম্",
        "ভব"
      ],
      [
        "আ",
        "গামী"
      ],
      [
        "উ",
        "ঠে"
      ],
      [
        "প",
        "থ"
      ],
      [
        "ভ",
        "ু"
      ],
      [
        "কে",
        "মন"
      ],
      [
        "সা",
        "ই"
      ],
      [
        "ক্ষ",
        "ণ"
      ],
      [
        "পরি",
        "চাল"
      ],
      [
        "আস",
        "লে"
      ],
      [
        "পৌ",
        "ঁ"
      ],
      [
        "র",
        "কম"
      ],
      [
        "ান",
        "োর"
      ],
      [
        "তা",
        "য়"
      ],
      [
        "প্র",
        "স্ত"
      ],
      [
        "রা",
        "তে"
      ],
      [
        "শি",
        "ল্প"
      ],
      [
        "জান",
        "ি"
      ],
      [
        "ব্যব",
        "হার"
      ],
      [
        "বাড়ি",
        "তে"
      ],
      [
        "হ্যা",
        "ঁ"
      ],
      [
        "খ",
        "ি"
      ],
      [
        "ত",
        "ী"
      ],
      [
        "ম",
        "য়"
      ],
      [
        "না",
        "কি"
      ],
      [
        "রা",
        "ত"
      ],
      [
        "বার",
        "ের"
      ],
      [
        "যা",
        "চ্ছে"
      ],
      [
        "গু",
        "লি"
      ],
      [
        "ঘ",
        "রে"
      ],
      [
        "ষ",
        "ণা"
      ],
      [
        "স্",
        "ক"
      ],
      [
        "বিএন",
        "পি"
      ],
      [
        "প্রশ্",
        "ন"
      ],
      [
        "দ",
        "শ"
      ],
      [
        "ধ",
        "ে"
      ],
      [
        "দি",
        "নের"
      ],
      [
        "বল",
        "লেন"
      ],
      [
        "শেষ",
        "ে"
      ],
      [
        "ধী",
        "ন"
      ],
      [
        "বক্ত",
        "ব্য"
      ],
      [
        "ত",
        "ম"
      ],
      [
        "প",
        "ির"
      ],
      [
        "ম",
        "্প"
      ],
      [
        "স",
        "ন্"
      ],
      [
        "হ",
        "ের"
      ],
      [
        "পা",
        "ই"
      ],
      [
        "লি",
        "য়ে"
      ],
      [
        "যা",
        "ই"
      ],
      [
        "জান",
        "তে"
      ],
      [
        "চি",
        "কি"
      ],
      [
        "এখন",
        "ো"
      ],
      [
        "আ",
        "সে"
      ],
      [
        "ত",
        "েন"
      ],
      [
        "য",
        "্য"
      ],
      [
        "ল",
        "তে"
      ],
      [
        "সম",
        "স্যা"
      ],
      [
        "স্ত",
        "্র"
      ],
      [
        "শিক্ষ",
        "ার্থ"
      ],
      [
        "ক্ষে",
        "ত্রে"
      ],
      [
        "গ্রা",
        "ম"
      ],
      [
        "চিকি",
        "ৎ"
      ],
      [
        "ও",
        "রা"
      ],
      [
        "ঝ",
        "া"
      ],
      [
        "ভ",
        "ুল"
      ],
      [
        "শ",
        "র"
      ],
      [
        "দ্",
        "বি"
      ],
      [
        "গা",
        "ছ"
      ],
      [
        "ক্র",
        "ম"
      ],
      [
        "বাই",
        "রে"
      ],
      [
        "বছর",
        "ের"
      ],
      [
        "আ",
        "ট"
      ],
      [
        "চ",
        "র"
      ],
      [
        "হ",
        "ল"
      ],
      [
        "স্",
        "টে"
      ],
      [
        "কি",
        "স্ত"
      ],
      [
        "সা",
        "লের"
      ],
      [
        "ক্ষ",
        "মতা"
      ],
      [
        "ব্য",
        "ক্তি"
      ],
      [
        "থাক",
        "তে"
      ],
      [
        "ঞ্",
        "জ"
      ],
      [
        "নির্বাচ",
        "ন"
      ],
      [
        "দর",
        "কার"
      ],
      [
        "হাসি",
        "না"
      ],
      [
        "ফো",
        "ন"
      ],
      [
        "গ",
        "ান"
      ],
      [
        "প",
        "ক্ষে"
      ],
      [
        "ব",
        "ান"
      ],
      [
        "পা",
        "কিস্ত"
      ],
      [
        "জন",
        "্ম"
      ],
      [
        "গে",
        "লে"
      ],
      [
        "শু",
        "ন"
      ],
      [
        "কর্ম",
        "কর্ত"
      ],
      [
        "এসে",
        "ছে"
      ],
      [
        "উন্",
        "নয়"
      ],
      [
        "ই",
        "তি"
      ],
      [
        "প",
        "ৃ"
      ],
      [
        "স",
        "কাল"
      ],
      [
        "বি",
        "শ্বাস"
      ],
      [
        "গা",
        "ড়ি"
      ],
      [
        "রু",
        "দ্ধ"
      ],
      [
        "হত",
        "্যা"
      ],
      [
        "সেন",
        "া"
      ],
      [
        "খ",
        "বর"
      ],
      [
        "ী",
        "তি"
      ],
      [
        "মা",
        "ঝ"
      ],
      [
        "পা",
        "ঁচ"
      ],
      [
        "কো",
        "টি"
      ],
      [
        "পুর",
        "ো"
      ],
      [
        "সাহা",
        "য্য"
      ],
      [
        "ও",
        "য়"
      ],
      [
        "শ",
        "ান্ত"
      ],
      [
        "স",
        "ৃ"
      ],
      [
        "লা",
        "খ"
      ],
      [
        "ছি",
        "লাম"
      ],
      [
        "সা",
        "বে"
      ],
      [
        "ুর",
        "ে"
      ],
      [
        "হাস",
        "পাতা"
      ],
      [
        "আ",
        "ল"
      ],
      [
        "দ",
        "ান"
      ],
      [
        "প",
        "ড়া"
      ],
      [
        "্য",
        "ের"
      ],
      [
        "লা",
        "গে"
      ],
      [
        "সি",
        "দ্ধ"
      ],
      [
        "চে",
        "য়ার"
      ],
      [
        "ব্যা",
        "ং"
      ],
      [
        "ঙ্গ",
        "ল"
      ],
      [
        "দর্",
        "শ"
      ],
      [
        "সভা",
        "পতি"
      ],
      [
        "বিরো",
        "ধী"
      ],
      [
        "দ",
        "ৃ"
      ],
      [
        "ূ",
        "প"
      ],
      [
        "বা",
        "হি"
      ],
      [
        "লে",
        "খা"
      ],
      [
        "জন",
        "ের"
      ],
      [
        "সি",
        "নে"
      ],
      [
        "দু",
        "ল"
      ],
      [
        "সং",
        "বাদ"
      ],
      [
        "স্থ",
        "ি"
      ],
      [
        "শিক্ষ",
        "ক"
      ],
      [
        "গুলো",
        "র"
      ],
      [
        "লী",
        "গের"
      ],
      [
        "জ্ঞ",
        "ান"
      ],
      [
        "প্রতিষ্ঠ",
        "ান"
      ],
      [
        "উ",
        "ই"
      ],
      [
        "চ",
        "ায়"
      ],
      [
        "ণ",
        "্"
      ],
      [
        "শ",
        "ার"
      ],
      [
        "বি",
        "রুদ্ধ"
      ],
      [
        "দে",
        "ওয়ার"
      ],
      [
        "পা",
        "শে"
      ],
      [
        "পার",
        "বে"
      ],
      [
        "সু",
        "যোগ"
      ],
      [
        "লী",
        "গ"
      ],
      [
        "দায়",
        "িত্ব"
      ],
      [
        "বিরুদ্ধ",
        "ে"
      ],
      [
        "অ",
        "তি"
      ],
      [
        "আ",
        "ছি"
      ],
      [
        "আ",
        "দা"
      ],
      [
        "ত",
        "র"
      ],
      [
        "ব",
        "সে"
      ],
      [
        "শ",
        "নি"
      ],
      [
        "স",
        "বার"
      ],
      [
        "হ",
        "িত"
      ],
      [
        "তে",
        "ই"
      ],
      [
        "স্",
        "কু"
      ],
      [
        "সব",
        "চেয়ে"
      ],
      [
        "সম্",
        "মে"
      ],
      [
        "ফে",
        "লে"
      ],
      [
        "ও",
        "দের"
      ],
      [
        "জ",
        "র"
      ],
      [
        "ছি",
        "লো"
      ],
      [
        "পার",
        "্"
      ],
      [
        "দু",
        "ঃ"
      ],
      [
        "খু",
        "ঁ"
      ],
      [
        "দেখ",
        "ি"
      ],
      [
        "অধি",
        "কার"
      ],
      [
        "প্রি",
        "য়"
      ],
      [
        "ধর্",
        "ম"
      ],
      [
        "গুরু",
        "ত্ব"
      ],
      [
        "ই",
        "ন"
      ],
      [
        "ই",
        "ন্"
      ],
      [
        "গ",
        "ার"
      ],
      [
        "চ",
        "লো"
      ],
      [
        "ত",
        "্ম"
      ],
      [
        "ল",
        "ক্ষ"
      ],
      [
        "স",
        "কালে"
      ],
      [
        "া",
        "যোগ"
      ],
      [
        "খু",
        "শি"
      ],
      [
        "যোগ",
        "াযোগ"
      ],
      [
        "গত",
        "কাল"
      ],
      [
        "সার",
        "া"
      ],
      [
        "ভূ",
        "মি"
      ],
      [
        "সম্পর্",
        "কে"
      ],
      [
        "ুয়ার",
        "ি"
      ],
      [
        "শনি",
        "বার"
      ],
      [
        "ং",
        "স"
      ],
      [
        "উ",
        "ল্"
      ],
      [
        "ণ",
        "ে"
      ],
      [
        "ত",
        "ন"
      ],
      [
        "ম",
        "হা"
      ],
      [
        "য",
        "ো"
      ],
      [
        "্ত",
        "ি"
      ],
      [
        "বি",
        "ত"
      ],
      [
        "বি",
        "য়ে"
      ],
      [
        "মা",
        "ল"
      ],
      [
        "য়া",
        "ল"
      ],
      [
        "তো",
        "র"
      ],
      [
        "চ্",
        "চ"
      ],
      [
        "দু",
        "টি"
      ],
      [
        "আস",
        "ছে"
      ],
      [
        "এর",
        "পর"
      ],
      [
        "ট্র",
        "ো"
      ],
      [
        "থাক",
        "লে"
      ],
      [
        "স্বা",
        "ধীন"
      ],
      [
        "মৃত্য",
        "ু"
      ],
      [
        "সিদ্ধ",
        "ান্ত"
      ],
      [
        "ও",
        "টা"
      ],
      [
        "খ",
        "ারা"
      ],
      [
        "ছ",
        "য়"
      ],
      [
        "ম",
        "ঙ্গল"
      ],
      [
        "শ",
        "ের"
      ],
      [
        "স",
        "ন"
      ],
      [
        "টা",
        "য়"
      ],
      [
        "ুর",
        "ি"
      ],
      [
        "জে",
        "লার"
      ],
      [
        "পরি",
        "বেশ"
      ],
      [
        "পরি",
        "বর্ত"
      ],
      [
        "কী",
        "ভাবে"
      ],
      [
        "খু",
        "ন"
      ],
      [
        "অব",
        "স্থা"
      ],
      [
        "ব্যা",
        "পার"
      ],
      [
        "সম্",
        "পাদ"
      ],
      [
        "আরে",
        "ক"
      ],
      [
        "আপনা",
        "কে"
      ],
      [
        "সাং",
        "বা"
      ],
      [
        "ক",
        "বি"
      ],
      [
        "চ",
        "য়"
      ],
      [
        "ফ",
        "ের"
      ],
      [
        "ব",
        "ীর"
      ],
      [
        "২",
        "০"
      ],
      [
        "নি",
        "রা"
      ],
      [
        "না",
        "ও"
      ],
      [
        "কা",
        "জে"
      ],
      [
        "রা",
        "জা"
      ],
      [
        "সম",
        "য়ে"
      ],
      [
        "গ্র",
        "ে"
      ],
      [
        "দিয়ে",
        "ছে"
      ],
      [
        "আস",
        "বে"
      ],
      [
        "নী",
        "তি"
      ],
      [
        "বৃ",
        "হ"
      ],
      [
        "চো",
        "খ"
      ],
      [
        "আ",
        "ছেন"
      ],
      [
        "ই",
        "ং"
      ],
      [
        "ণ",
        "ের"
      ],
      [
        "ফ",
        "ুল"
      ],
      [
        "য",
        "ারা"
      ],
      [
        "বে",
        "ঁ"
      ],
      [
        "মি",
        "নি"
      ],
      [
        "নে",
        "ওয়া"
      ],
      [
        "থা",
        "কা"
      ],
      [
        "পা",
        "খি"
      ],
      [
        "কার",
        "ী"
      ],
      [
        "কার",
        "্য"
      ],
      [
        "ড়া",
        "ই"
      ],
      [
        "যোগ",
        "্য"
      ],
      [
        "কর্ম",
        "সূ"
      ],
      [
        "দল",
        "ীয়"
      ],
      [
        "দ্বি",
        "তীয়"
      ],
      [
        "খারা",
        "প"
      ],
      [
        "প",
        "ত্র"
      ],
      [
        "ফ",
        "্র"
      ],
      [
        "ল",
        "্যান্ড"
      ],
      [
        "কর",
        "ছেন"
      ],
      [
        "কে",
        "টে"
      ],
      [
        "যা",
        "ওয়ার"
      ],
      [
        "যে",
        "মন"
      ],
      [
        "জ্ঞ",
        "া"
      ],
      [
        "হো",
        "ক"
      ],
      [
        "জায়",
        "গা"
      ],
      [
        "অ",
        "ধ"
      ],
      [
        "ফ",
        "ির"
      ],
      [
        "স",
        "ড়"
      ],
      [
        "হ",
        "ওয়া"
      ],
      [
        "১",
        "৯"
      ],
      [
        "ছে",
        "ড়ে"
      ],
      [
        "স্",
        "কার"
      ],
      [
        "কো",
        "থা"
      ],
      [
        "যা",
        "ওয়া"
      ],
      [
        "দা",
        "ম"
      ],
      [
        "মু",
        "খে"
      ],
      [
        "উদ্",
        "দিন"
      ],
      [
        "ঘো",
        "ষণা"
      ],
      [
        "মহ",
        "ান"
      ],
      [
        "সাংবা",
        "দিক"
      ],
      [
        "উ",
        "দ্য"
      ],
      [
        "জ",
        "িত"
      ],
      [
        "ন",
        "েন"
      ],
      [
        "ম",
        "ৌ"
      ],
      [
        "স",
        "ক"
      ],
      [
        "কর",
        "বো"
      ],
      [
        "লি",
        "ক"
      ],
      [
        "ষ্",
        "কার"
      ],
      [
        "হয়ে",
        "ছিল"
      ],
      [
        "থেকে",
        "ই"
      ],
      [
        "স্থ",
        "িত"
      ],
      [
        "বিএন",
        "পির"
      ],
      [
        "রাজন",
        "ৈতিক"
      ],
      [
        "চিন্ত",
        "া"
      ],
      [
        "পরিচাল",
        "ক"
      ],
      [
        "মঙ্গল",
        "বার"
      ],
      [
        "এ",
        "গিয়ে"
      ],
      [
        "চ",
        "ের"
      ],
      [
        "জ",
        "ো"
      ],
      [
        "ড",
        "ার"
      ],
      [
        "দ",
        "ক্ষ"
      ],
      [
        "ন",
        "দী"
      ],
      [
        "প",
        "ক"
      ],
      [
        "প",
        "ন"
      ],
      [
        "ম",
        "্যান"
      ],
      [
        "র",
        "োগ"
      ],
      [
        "শ",
        "ক্তি"
      ],
      [
        "বা",
        "ব"
      ],
      [
        "পর",
        "্যা"
      ],
      [
        "তার",
        "পর"
      ],
      [
        "তু",
        "ই"
      ],
      [
        "খা",
        "বার"
      ],
      [
        "পরি",
        "স্থি"
      ],
      [
        "আস",
        "তে"
      ],
      [
        "ট্র",
        "া"
      ],
      [
        "ব্যা",
        "পারে"
      ],
      [
        "গ্রা",
        "মের"
      ],
      [
        "ল্লা",
        "হ"
      ],
      [
        "সিনে",
        "মা"
      ],
      [
        "।",
        "\""
      ],
      [
        "উ",
        "পর"
      ],
      [
        "ক",
        "মে"
      ],
      [
        "ঘ",
        "র"
      ],
      [
        "দ",
        "ুর"
      ],
      [
        "ধ",
        "ুর"
      ],
      [
        "ন",
        "্যা"
      ],
      [
        "ফ",
        "লে"
      ],
      [
        "স",
        "ৈ"
      ],
      [
        "বা",
        "চ্"
      ],
      [
        "বে",
        "ড়ে"
      ],
      [
        "দি",
        "নে"
      ],
      [
        "মে",
        "ট্রো"
      ],
      [
        "তু",
        "ল"
      ],
      [
        "খে",
        "তে"
      ],
      [
        "ছু",
        "টি"
      ],
      [
        "বলে",
        "ছেন"
      ],
      [
        "সহ",
        "ায়"
      ],
      [
        "রো",
        "ব"
      ],
      [
        "যু",
        "ক্তি"
      ],
      [
        "অভি",
        "যোগ"
      ],
      [
        "লাগ",
        "বে"
      ],
      [
        "বেদ",
        "ন"
      ],
      [
        "উল্",
        "লেখ"
      ],
      [
        "সম্পাদ",
        "ক"
      ],
      [
        "ও",
        "হ"
      ],
      [
        "থ",
        "ান"
      ],
      [
        "প",
        "ায়"
      ],
      [
        "কর",
        "ুন"
      ],
      [
        "কে",
        "ল"
      ],
      [
        "তা",
        "ম"
      ],
      [
        "স্",
        "টার"
      ],
      [
        "স্",
        "পতি"
      ],
      [
        "জন",
        "গণ"
      ],
      [
        "জি",
        "নি"
      ],
      [
        "সহ",
        "জ"
      ],
      [
        "তাঁ",
        "দের"
      ],
      [
        "সো",
        "ম"
      ],
      [
        "খুব",
        "ই"
      ],
      [
        "ফু",
        "ট"
      ],
      [
        "গঠ",
        "ন"
      ],
      [
        "বিশ্ববিদ্যাল",
        "য়ের"
      ],
      [
        "নিশ্",
        "চিত"
      ],
      [
        "বৃহ",
        "স্পতি"
      ],
      [
        "আ",
        "শা"
      ],
      [
        "আ",
        "গের"
      ],
      [
        "এ",
        "কে"
      ],
      [
        "এ",
        "ভাবে"
      ],
      [
        "এ",
        "ছাড়া"
      ],
      [
        "ভ",
        "ো"
      ],
      [
        "বা",
        "স্ত"
      ],
      [
        "মি",
        "ত"
      ],
      [
        "নে",
        "তৃ"
      ],
      [
        "পা",
        "শা"
      ],
      [
        "পা",
        "লন"
      ],
      [
        "বল",
        "ল"
      ],
      [
        "লি",
        "ত"
      ],
      [
        "ন্দ",
        "ো"
      ],
      [
        "জ্",
        "জা"
      ],
      [
        "স্বা",
        "স্থ"
      ],
      [
        "শ্র",
        "ে"
      ],
      [
        "পৃ",
        "থি"
      ],
      [
        "বৃহস্পতি",
        "বার"
      ],
      [
        "অ",
        "পে"
      ],
      [
        "আ",
        "চ্ছা"
      ],
      [
        "ক",
        "হি"
      ],
      [
        "ঘ",
        "টে"
      ],
      [
        "ম",
        "র্"
      ],
      [
        "র",
        "ান"
      ],
      [
        "নি",
        "চে"
      ],
      [
        "র্",
        "ঘ"
      ],
      [
        "যে",
        "খানে"
      ],
      [
        "চি",
        "ব"
      ],
      [
        "বিশ্ব",
        "কা"
      ],
      [
        "গ্রা",
        "মে"
      ],
      [
        "রাখ",
        "তে"
      ],
      [
        "চু",
        "প"
      ],
      [
        "মাম",
        "লা"
      ],
      [
        "অবশ্য",
        "ই"
      ],
      [
        "দুঃ",
        "খ"
      ],
      [
        "আ",
        "শ"
      ],
      [
        "আ",
        "ব্"
      ],
      [
        "চ",
        "ৌ"
      ],
      [
        "ত",
        "দ"
      ],
      [
        "য",
        "ত"
      ],
      [
        "ূ",
        "র"
      ],
      [
        "নি",
        "জ"
      ],
      [
        "বা",
        "হ"
      ],
      [
        "বি",
        "ল"
      ],
      [
        "লা",
        "ভ"
      ],
      [
        "দে",
        "য়া"
      ],
      [
        "টা",
        "ই"
      ],
      [
        "স্",
        "টি"
      ],
      [
        "সা",
        "ম"
      ],
      [
        "ক্",
        "লা"
      ],
      [
        "হয়",
        "তো"
      ],
      [
        "চ্",
        "ছেন"
      ],
      [
        "সু",
        "বি"
      ],
      [
        "বো",
        "ন"
      ],
      [
        "পি",
        "তা"
      ],
      [
        "যায়",
        "ী"
      ],
      [
        "রাজ",
        "ধান"
      ],
      [
        "কৃ",
        "ষ"
      ],
      [
        "আলো",
        "চনা"
      ],
      [
        "উৎ",
        "সব"
      ],
      [
        "কর্মকর্ত",
        "া"
      ],
      [
        "রোব",
        "বার"
      ],
      [
        "চ",
        "ট"
      ],
      [
        "ব",
        "ন"
      ],
      [
        "ল",
        "নে"
      ],
      [
        "ষ",
        "ণ"
      ],
      [
        "স",
        "র্ব"
      ],
      [
        "ে",
        "ক"
      ],
      [
        "জান",
        "ো"
      ],
      [
        "তাঁ",
        "রা"
      ],
      [
        "দ্র",
        "ুত"
      ],
      [
        "সত্য",
        "ি"
      ],
      [
        "তদ",
        "ন্ত"
      ],
      [
        "ও",
        "য়ে"
      ],
      [
        "গ",
        "ি"
      ],
      [
        "গ",
        "্"
      ],
      [
        "গ",
        "ড়ে"
      ],
      [
        "স",
        "ায়"
      ],
      [
        "মা",
        "স"
      ],
      [
        "মা",
        "হ"
      ],
      [
        "মা",
        "সে"
      ],
      [
        "মি",
        "র"
      ],
      [
        "পা",
        "শি"
      ],
      [
        "সম",
        "র্থ"
      ],
      [
        "যা",
        "বো"
      ],
      [
        "্ম",
        "দ"
      ],
      [
        "অনু",
        "যায়ী"
      ],
      [
        "ঘট",
        "নায়"
      ],
      [
        "উদ্",
        "বোধ"
      ],
      [
        "পরী",
        "ক্ষা"
      ],
      [
        "কোথা",
        "ও"
      ],
      [
        "এ",
        "ল"
      ],
      [
        "ক",
        "ল্প"
      ],
      [
        "চ",
        "লা"
      ],
      [
        "প",
        "থে"
      ],
      [
        "ম",
        "হি"
      ],
      [
        "কে",
        "ই"
      ],
      [
        "বা",
        "ল"
      ],
      [
        "বে",
        "লা"
      ],
      [
        "মা",
        "ঠে"
      ],
      [
        "তি",
        "তে"
      ],
      [
        "প্র",
        "ত্য"
      ],
      [
        "রা",
        "স্ত"
      ],
      [
        "ক্ষ",
        "তি"
      ],
      [
        "মে",
        "দ"
      ],
      [
        "স্থ",
        "ানে"
      ],
      [
        "শু",
        "ক্র"
      ],
      [
        "দ্ধ",
        "া"
      ],
      [
        "তাঁ",
        "কে"
      ],
      [
        "মন্ত্র",
        "ণা"
      ],
      [
        "প্ত",
        "া"
      ],
      [
        "প্রা",
        "ণ"
      ],
      [
        "তিন",
        "টি"
      ],
      [
        "রাজন",
        "ীতি"
      ],
      [
        "সৃ",
        "ষ্টি"
      ],
      [
        "কর্মসূ",
        "চি"
      ],
      [
        "পাশা",
        "পাশি"
      ],
      [
        "স্বাস্থ",
        "্য"
      ],
      [
        "অ",
        "ফি"
      ],
      [
        "আ",
        "ন্দো"
      ],
      [
        "চ",
        "ক"
      ],
      [
        "দ",
        "লে"
      ],
      [
        "প",
        "ত্ত"
      ],
      [
        "ব",
        "ঙ্গ"
      ],
      [
        "ু",
        "ক"
      ],
      [
        "্র",
        "া"
      ],
      [
        "মা",
        "থা"
      ],
      [
        "তা",
        "তে"
      ],
      [
        "রা",
        "য়"
      ],
      [
        "এক",
        "বার"
      ],
      [
        "স্ত",
        "ি"
      ],
      [
        "ডি",
        "সে"
      ],
      [
        "আস",
        "ো"
      ],
      [
        "হলে",
        "ও"
      ],
      [
        "গণ",
        "ত"
      ],
      [
        "জানিয়ে",
        "ছেন"
      ],
      [
        "অনুষ্ঠ",
        "ানে"
      ],
      [
        "পরী",
        "ক্ষ"
      ],
      [
        "মাঝ",
        "ে"
      ],
      [
        "চট",
        "্ট"
      ],
      [
        "মন্ত্রণা",
        "ল"
      ],
      [
        "উ",
        "দ্ধ"
      ],
      [
        "ক",
        "্য"
      ],
      [
        "ক",
        "ুর"
      ],
      [
        "প",
        "ছ"
      ],
      [
        "ব",
        "হু"
      ],
      [
        "ম",
        "জা"
      ],
      [
        "কি",
        "ন"
      ],
      [
        "পর",
        "িক"
      ],
      [
        "সা",
        "ত"
      ],
      [
        "হা",
        "ই"
      ],
      [
        "যা",
        "ব"
      ],
      [
        "চ্",
        "চিত্র"
      ],
      [
        "দু",
        "পুর"
      ],
      [
        "জান",
        "ে"
      ],
      [
        "মু",
        "ক্ত"
      ],
      [
        "শু",
        "নে"
      ],
      [
        "নার",
        "ী"
      ],
      [
        "যোগ",
        "ি"
      ],
      [
        "এখন",
        "ও"
      ],
      [
        "অব",
        "স্থায়"
      ],
      [
        "বু",
        "ধ"
      ],
      [
        "মন্ত্র",
        "ীর"
      ],
      [
        "চল",
        "চ্চিত্র"
      ],
      [
        "ফে",
        "ল"
      ],
      [
        "প্রা",
        "থ"
      ],
      [
        "স্ব",
        "প্"
      ],
      [
        "কৃ",
        "ত"
      ],
      [
        "আহ",
        "্ব"
      ],
      [
        "নিজে",
        "দের"
      ],
      [
        "ভর",
        "্তি"
      ],
      [
        "বৈ",
        "ঠ"
      ],
      [
        "গুরুত্ব",
        "পূর্ণ"
      ],
      [
        "সোম",
        "বার"
      ],
      [
        "শুক্র",
        "বার"
      ],
      [
        "অ",
        "ন্ত"
      ],
      [
        "আ",
        "ন্ত"
      ],
      [
        "আ",
        "সি"
      ],
      [
        "গ",
        "ল"
      ],
      [
        "চ",
        "ী"
      ],
      [
        "ট",
        "ক"
      ],
      [
        "ফ",
        "ার"
      ],
      [
        "ৎ",
        "কার"
      ],
      [
        "বা",
        "কি"
      ],
      [
        "তা",
        "ল"
      ],
      [
        "পা",
        "ল"
      ],
      [
        "কার",
        "্যাল"
      ],
      [
        "বল",
        "ার"
      ],
      [
        "বল",
        "ছি"
      ],
      [
        "বার",
        "্"
      ],
      [
        "লি",
        "খ"
      ],
      [
        "লি",
        "জ"
      ],
      [
        "খা",
        "দ্য"
      ],
      [
        "ডি",
        "ও"
      ],
      [
        "বাংলা",
        "দেশে"
      ],
      [
        "চল",
        "ছে"
      ],
      [
        "গো",
        "ল"
      ],
      [
        "আগে",
        "ই"
      ],
      [
        "শী",
        "ল"
      ],
      [
        "ব্",
        "দ"
      ],
      [
        "মূল",
        "্য"
      ],
      [
        "বুঝ",
        "তে"
      ],
      [
        "গ",
        "বে"
      ],
      [
        "র",
        "ঙ"
      ],
      [
        "শ",
        "তা"
      ],
      [
        "হ",
        "র"
      ],
      [
        "ো",
        "ধ"
      ],
      [
        "রা",
        "খা"
      ],
      [
        "স্",
        "ট্র"
      ],
      [
        "ক্ষ",
        "ু"
      ],
      [
        "হা",
        "ঁ"
      ],
      [
        "ঙ্",
        "গা"
      ],
      [
        "জা",
        "হা"
      ],
      [
        "সু",
        "স্থ"
      ],
      [
        "দ্ধ",
        "ি"
      ],
      [
        "ক্র",
        "ান্ত"
      ],
      [
        "ফে",
        "ব্র"
      ],
      [
        "চাই",
        "লে"
      ],
      [
        "দী",
        "র্ঘ"
      ],
      [
        "লাগ",
        "ছে"
      ],
      [
        "এলা",
        "কায়"
      ],
      [
        "সন্ত",
        "ান"
      ],
      [
        "উন্নয়",
        "ন"
      ],
      [
        "হাসপাতা",
        "লে"
      ],
      [
        "দক্ষ",
        "ি"
      ],
      [
        "প্রাথ",
        "মিক"
      ],
      [
        "আ",
        "ত্ম"
      ],
      [
        "গ",
        "ী"
      ],
      [
        "ঘ",
        "ণ্"
      ],
      [
        "চ",
        "ম"
      ],
      [
        "চ",
        "ান"
      ],
      [
        "ত",
        "ত"
      ],
      [
        "ফ",
        "র"
      ],
      [
        "ম",
        "তি"
      ],
      [
        "ম",
        "রা"
      ],
      [
        "র",
        "ত"
      ],
      [
        "র",
        "ূপ"
      ],
      [
        "শ",
        "ত"
      ],
      [
        "স",
        "র্"
      ],
      [
        "নি",
        "হত"
      ],
      [
        "বি",
        "মান"
      ],
      [
        "ন্",
        "ড"
      ],
      [
        "লি",
        "খে"
      ],
      [
        "সং",
        "সদ"
      ],
      [
        "বো",
        "র্"
      ],
      [
        "এটা",
        "ই"
      ],
      [
        "থাক",
        "েন"
      ],
      [
        "উপ",
        "স্থিত"
      ],
      [
        "ভার",
        "ত"
      ],
      [
        "ভার",
        "তের"
      ],
      [
        "প্ত",
        "ার"
      ],
      [
        "আহ",
        "মেদ"
      ],
      [
        "স্থান",
        "ীয়"
      ],
      [
        "যুক্ত",
        "রাষ্ট্র"
      ],
      [
        "দাঁ",
        "ড়া"
      ],
      [
        "ত্",
        "বে"
      ],
      [
        "স্কু",
        "লে"
      ],
      [
        "বাচ্",
        "চা"
      ],
      [
        "চৌ",
        "ধুর"
      ],
      [
        "উদ্ধ",
        "ার"
      ],
      [
        "বুধ",
        "বার"
      ],
      [
        "অ",
        "পরা"
      ],
      [
        "ক",
        "ষ্ট"
      ],
      [
        "ক",
        "ঠি"
      ],
      [
        "গ",
        "ায়"
      ],
      [
        "ন",
        "ই"
      ],
      [
        "ন",
        "ৈতিক"
      ],
      [
        "ব",
        "র্ষ"
      ],
      [
        "ভ",
        "্যা"
      ],
      [
        "ম",
        "ন্ত"
      ],
      [
        "স",
        "ভ"
      ],
      [
        "বি",
        "ভা"
      ],
      [
        "র্",
        "জা"
      ],
      [
        "সা",
        "ব"
      ],
      [
        "করে",
        "ছিলেন"
      ],
      [
        "যা",
        "ক"
      ],
      [
        "যা",
        "তে"
      ],
      [
        "চ্",
        "ছ"
      ],
      [
        "সং",
        "খ্যা"
      ],
      [
        "অব",
        "স্থান"
      ],
      [
        "সম্",
        "মান"
      ],
      [
        "বর্ত",
        "ী"
      ],
      [
        "ব্র",
        "া"
      ],
      [
        "ভাষ",
        "া"
      ],
      [
        "হাম",
        "্মদ"
      ],
      [
        "স্ক",
        "ুল"
      ],
      [
        "খুঁ",
        "জে"
      ],
      [
        "পরিবর্ত",
        "ন"
      ],
      [
        "গ্রে",
        "প্তার"
      ],
      [
        "সাংবাদিক",
        "দের"
      ],
      [
        "শ্রে",
        "ণ"
      ],
      [
        "পরিক",
        "ল্প"
      ],
      [
        "আহ্ব",
        "ান"
      ],
      [
        "কঠি",
        "ন"
      ],
      [
        "অ",
        "প"
      ],
      [
        "আ",
        "লা"
      ],
      [
        "আ",
        "লী"
      ],
      [
        "আ",
        "হত"
      ],
      [
        "উ",
        "নি"
      ],
      [
        "এ",
        "নে"
      ],
      [
        "ধ",
        "্ব"
      ],
      [
        "ন",
        "ীর"
      ],
      [
        "প",
        "ণ"
      ],
      [
        "প",
        "র্"
      ],
      [
        "ভ",
        "োগ"
      ],
      [
        "ভ",
        "োট"
      ],
      [
        "র",
        "ং"
      ],
      [
        "শ",
        "নের"
      ],
      [
        "স",
        "কল"
      ],
      [
        "ী",
        "কে"
      ],
      [
        "কর",
        "লেন"
      ],
      [
        "তে",
        "মন"
      ],
      [
        "প্র",
        "যুক্তি"
      ],
      [
        "থা",
        "কার"
      ],
      [
        "পা",
        "স"
      ],
      [
        "এই",
        "চ"
      ],
      [
        "গা",
        "ঁ"
      ],
      [
        "আস",
        "েন"
      ],
      [
        "শ্",
        "চি"
      ],
      [
        "ট্র",
        "েন"
      ],
      [
        "সার",
        "্"
      ],
      [
        "স্বা",
        "ভা"
      ],
      [
        "কৃ",
        "তি"
      ],
      [
        "আন",
        "ন্দ"
      ],
      [
        "দূ",
        "র"
      ],
      [
        "আপনা",
        "দের"
      ],
      [
        "সাবে",
        "ক"
      ],
      [
        "ব্যাং",
        "ক"
      ],
      [
        "অধ",
        "্যা"
      ],
      [
        "পর্যা",
        "য়ে"
      ],
      [
        "সুবি",
        "ধা"
      ],
      [
        "আ",
        "সব"
      ],
      [
        "আ",
        "য়োজন"
      ],
      [
        "ক",
        "ৌ"
      ],
      [
        "খ",
        "র"
      ],
      [
        "চ",
        "রণ"
      ],
      [
        "জ",
        "িক"
      ],
      [
        "ট",
        "েন"
      ],
      [
        "ভ",
        "ীর"
      ],
      [
        "শ",
        "নে"
      ],
      [
        "স",
        "ল"
      ],
      [
        "ান",
        "্ড"
      ],
      [
        "প্র",
        "ভাব"
      ],
      [
        "দে",
        "হ"
      ],
      [
        "দে",
        "বে"
      ],
      [
        "পরি",
        "বারের"
      ],
      [
        "ডি",
        "য়া"
      ],
      [
        "দিয়ে",
        "ছেন"
      ],
      [
        "পে",
        "ছ"
      ],
      [
        "নির্",
        "দেশ"
      ],
      [
        "বিদ",
        "্য"
      ],
      [
        "স্ব",
        "ী"
      ],
      [
        "ডটকম",
        "কে"
      ],
      [
        "বিষয়",
        "টি"
      ],
      [
        "কয়েক",
        "টি"
      ],
      [
        "নিরা",
        "পত্ত"
      ],
      [
        "অপে",
        "ক্ষা"
      ],
      [
        "পছ",
        "ন্দ"
      ],
      [
        "স্বপ্",
        "ন"
      ],
      [
        "উ",
        "চ্চ"
      ],
      [
        "গ",
        "ঞ্জ"
      ],
      [
        "জ",
        "নে"
      ],
      [
        "ঝ",
        "ু"
      ],
      [
        "দ",
        "ম"
      ],
      [
        "প",
        "শ্চি"
      ],
      [
        "শ",
        "ব্দ"
      ],
      [
        "না",
        "গর"
      ],
      [
        "প্র",
        "চার"
      ],
      [
        "মি",
        "ন"
      ],
      [
        "টি",
        "ং"
      ],
      [
        "কি",
        "ং"
      ],
      [
        "ভা",
        "ল"
      ],
      [
        "ন্",
        "দি"
      ],
      [
        "বার",
        "ে"
      ],
      [
        "সি",
        "ং"
      ],
      [
        "সং",
        "খ"
      ],
      [
        "বলে",
        "ছে"
      ],
      [
        "মন",
        "ো"
      ],
      [
        "চি",
        "ঠি"
      ],
      [
        "কের",
        "া"
      ],
      [
        "বাস",
        "ায়"
      ],
      [
        "প্",
        "লিজ"
      ],
      [
        "বাহি",
        "নী"
      ],
      [
        "জিনি",
        "স"
      ],
      [
        "ডিসে",
        "ম্বর"
      ],
      [
        "দক্ষি",
        "ণ"
      ],
      [
        "স্বাভা",
        "বিক"
      ],
      [
        "নাগর",
        "িক"
      ],
      [
        "ই",
        "চ্ছা"
      ],
      [
        "চ",
        "ুর"
      ],
      [
        "ট",
        "র"
      ],
      [
        "ন",
        "ষ্ট"
      ],
      [
        "ন",
        "গর"
      ],
      [
        "স",
        "ুর"
      ],
      [
        "ু",
        "ণ"
      ],
      [
        "কর",
        "্"
      ],
      [
        "কে",
        "বল"
      ],
      [
        "বি",
        "ক্রি"
      ],
      [
        "কা",
        "ঠ"
      ],
      [
        "তা",
        "লি"
      ],
      [
        "লা",
        "ল"
      ],
      [
        "ড়",
        "ায়"
      ],
      [
        "দে",
        "শি"
      ],
      [
        "ন্",
        "দু"
      ],
      [
        "সম",
        "ান"
      ],
      [
        "লি",
        "য়া"
      ],
      [
        "পরি",
        "চিত"
      ],
      [
        "সং",
        "ঘ"
      ],
      [
        "শা",
        "ল"
      ],
      [
        "কাজ",
        "ের"
      ],
      [
        "গো",
        "ষ্ঠ"
      ],
      [
        "জীব",
        "নে"
      ],
      [
        "প্রা",
        "প্ত"
      ],
      [
        "অন্য",
        "তম"
      ],
      [
        "পড়ে",
        "ছে"
      ],
      [
        "শো",
        "ধ"
      ],
      [
        "শো",
        "না"
      ],
      [
        "নিয়",
        "োগ"
      ],
      [
        "হী",
        "ন"
      ],
      [
        "বাড়",
        "ির"
      ],
      [
        "সন্ত",
        "ানের"
      ],
      [
        "বেঁ",
        "চে"
      ],
      [
        "কহি",
        "ল"
      ],
      [
        "চট্ট",
        "গ্রাম"
      ],
      [
        "ই",
        "ত্যা"
      ],
      [
        "ও",
        "ঠে"
      ],
      [
        "জ",
        "্য"
      ],
      [
        "ড",
        "ো"
      ],
      [
        "ব",
        "রা"
      ],
      [
        "ব",
        "র্"
      ],
      [
        "ম",
        "নি"
      ],
      [
        "ম",
        "হাস"
      ],
      [
        "ূ",
        "র্ণ"
      ],
      [
        "য়",
        "ন"
      ],
      [
        "য়",
        "ান"
      ],
      [
        "বি",
        "জ্ঞান"
      ],
      [
        "লে",
        "ই"
      ],
      [
        "কা",
        "উ"
      ],
      [
        "কা",
        "ণ্ড"
      ],
      [
        "লা",
        "শ"
      ],
      [
        "নে",
        "য়"
      ],
      [
        "দি",
        "ল"
      ],
      [
        "পা",
        "লা"
      ],
      [
        "যা",
        "চ্ছি"
      ],
      [
        "মে",
        "য়ের"
      ],
      [
        "সি",
        "র"
      ],
      [
        "জান",
        "ায়"
      ],
      [
        "ক্ত",
        "ার"
      ],
      [
        "আস",
        "ার"
      ],
      [
        "পুর",
        "স্কার"
      ],
      [
        "উপ",
        "জেলার"
      ],
      [
        "সের",
        "া"
      ],
      [
        "ঢাকা",
        "য়"
      ],
      [
        "পড়",
        "তে"
      ],
      [
        "সমা",
        "জ"
      ],
      [
        "ভাব",
        "না"
      ],
      [
        "সবাই",
        "কে"
      ],
      [
        "নিয়",
        "ন্ত্র"
      ],
      [
        "নিজে",
        "কে"
      ],
      [
        "দাঁ",
        "ড়িয়ে"
      ],
      [
        "মার্",
        "চ"
      ],
      [
        "ওয়",
        "ায়"
      ],
      [
        "অ",
        "বর"
      ],
      [
        "এ",
        "দের"
      ],
      [
        "এ",
        "দিকে"
      ],
      [
        "ণ",
        "ি"
      ],
      [
        "ত",
        "রু"
      ],
      [
        "ফ",
        "িক"
      ],
      [
        "বা",
        "বার"
      ],
      [
        "কা",
        "ছ"
      ],
      [
        "তা",
        "হার"
      ],
      [
        "প্র",
        "তিনি"
      ],
      [
        "প্র",
        "শা"
      ],
      [
        "টি",
        "য়ে"
      ],
      [
        "টা",
        "কার"
      ],
      [
        "র্",
        "ক"
      ],
      [
        "র্",
        "ট"
      ],
      [
        "কি",
        "য়ে"
      ],
      [
        "সা",
        "মা"
      ],
      [
        "সা",
        "ড়ে"
      ],
      [
        "কার",
        "া"
      ],
      [
        "কার",
        "ো"
      ],
      [
        "শি",
        "ত"
      ],
      [
        "সি",
        "ড"
      ],
      [
        "সি",
        "রি"
      ],
      [
        "জা",
        "তি"
      ],
      [
        "স্থ",
        "ার"
      ],
      [
        "টে",
        "লি"
      ],
      [
        "নির্",
        "মাণ"
      ],
      [
        "ন্দ",
        "্র"
      ],
      [
        "করি",
        "য়া"
      ],
      [
        "বছ",
        "রে"
      ],
      [
        "বর্ত",
        "মানে"
      ],
      [
        "ফা",
        "ঁ"
      ],
      [
        "খো",
        "লা"
      ],
      [
        "দর্",
        "শন"
      ],
      [
        "পরা",
        "মর্"
      ],
      [
        "যাত্র",
        "া"
      ],
      [
        "যাত্র",
        "ী"
      ],
      [
        "আদা",
        "ল"
      ],
      [
        "চৌধুর",
        "ী"
      ],
      [
        "ইত্যা",
        "দি"
      ],
      [
        "অ",
        "থ"
      ],
      [
        "আ",
        "গু"
      ],
      [
        "আ",
        "চরণ"
      ],
      [
        "গ",
        "তি"
      ],
      [
        "গ",
        "ভীর"
      ],
      [
        "জ",
        "োট"
      ],
      [
        "দ",
        "প্ত"
      ],
      [
        "ধ",
        "রা"
      ],
      [
        "ধ",
        "ন্য"
      ],
      [
        "ন",
        "দ"
      ],
      [
        "ন",
        "ৌ"
      ],
      [
        "ভ",
        "ী"
      ],
      [
        "ম",
        "স"
      ],
      [
        "ম",
        "্য"
      ],
      [
        "শ",
        "ুর"
      ],
      [
        "স",
        "ঠিক"
      ],
      [
        "স",
        "চিব"
      ],
      [
        "স",
        "প্তা"
      ],
      [
        "হ",
        "ক"
      ],
      [
        "হ",
        "ৃ"
      ],
      [
        "ি",
        "য়া"
      ],
      [
        "নি",
        "ষ"
      ],
      [
        "বা",
        "সা"
      ],
      [
        "কা",
        "ঁ"
      ],
      [
        "প্র",
        "মাণ"
      ],
      [
        "পর",
        "ের"
      ],
      [
        "তো",
        "মরা"
      ],
      [
        "জা",
        "মা"
      ],
      [
        "মু",
        "ভি"
      ],
      [
        "জন্য",
        "ে"
      ],
      [
        "উপ",
        "জেলা"
      ],
      [
        "মো",
        "বাই"
      ],
      [
        "ঢা",
        "কার"
      ],
      [
        "সো",
        "নার"
      ],
      [
        "বৃ",
        "ষ্টি"
      ],
      [
        "বর্ত",
        "মান"
      ],
      [
        "নির্বাচ",
        "নে"
      ],
      [
        "তোমা",
        "দের"
      ],
      [
        "তৃ",
        "তীয়"
      ],
      [
        "পের",
        "ে"
      ],
      [
        "এলা",
        "কা"
      ],
      [
        "কেন্দ্র",
        "ীয়"
      ],
      [
        "শহ",
        "র"
      ],
      [
        "শহ",
        "রের"
      ],
      [
        "পক্ষ",
        "ের"
      ],
      [
        "ভিত",
        "্ত"
      ],
      [
        "ভু",
        "লে"
      ],
      [
        "মন্ত",
        "ব্য"
      ],
      [
        "তরু",
        "ণ"
      ],
      [
        "উ",
        "পরে"
      ],
      [
        "এ",
        "গুলো"
      ],
      [
        "এ",
        "সো"
      ],
      [
        "ঙ",
        "া"
      ],
      [
        "ঝ",
        "ড়"
      ],
      [
        "প",
        "য়েন্"
      ],
      [
        "য",
        "ন্ত্র"
      ],
      [
        "র",
        "ক্ষা"
      ],
      [
        "কা",
        "পড়"
      ],
      [
        "মা",
        "ছ"
      ],
      [
        "মা",
        "থায়"
      ],
      [
        "প্র",
        "ার্থ"
      ],
      [
        "প্র",
        "ত্যা"
      ],
      [
        "ড়",
        "ার"
      ],
      [
        "রে",
        "ল"
      ],
      [
        "চা",
        "প"
      ],
      [
        "চা",
        "করি"
      ],
      [
        "দু",
        "টো"
      ],
      [
        "বর",
        "ণ"
      ],
      [
        "মো",
        "হাম্মদ"
      ],
      [
        "পৌঁ",
        "ছে"
      ],
      [
        "চিকিৎ",
        "সা"
      ],
      [
        "শান্ত",
        "ি"
      ],
      [
        "ফুট",
        "বল"
      ],
      [
        "অ",
        "ক্"
      ],
      [
        "আ",
        "ক্রম"
      ],
      [
        "আ",
        "ল্লাহ"
      ],
      [
        "ঘ",
        "রের"
      ],
      [
        "ঙ",
        "ে"
      ],
      [
        "দ",
        "ৌ"
      ],
      [
        "ল",
        "ড়াই"
      ],
      [
        "্",
        "স"
      ],
      [
        "বা",
        "তা"
      ],
      [
        "বা",
        "সে"
      ],
      [
        "কা",
        "টা"
      ],
      [
        "প্র",
        "কল্প"
      ],
      [
        "মি",
        "ল"
      ],
      [
        "ভা",
        "ড়া"
      ],
      [
        "জন",
        "ক"
      ],
      [
        "বল",
        "লাম"
      ],
      [
        "কো",
        "ম্প"
      ],
      [
        "িত",
        "্র"
      ],
      [
        "সি",
        "ক"
      ],
      [
        "সি",
        "টি"
      ],
      [
        "জান",
        "ুয়ারি"
      ],
      [
        "সং",
        "স্"
      ],
      [
        "অন",
        "্যান"
      ],
      [
        "শা",
        "হ"
      ],
      [
        "প্রতি",
        "টি"
      ],
      [
        "দেখ",
        "ো"
      ],
      [
        "উপ",
        "ায়"
      ],
      [
        "শী",
        "ত"
      ],
      [
        "উদ্",
        "দেশ"
      ],
      [
        "ডা",
        "ক্তার"
      ],
      [
        "মুক্তি",
        "যুদ্ধ"
      ],
      [
        "দো",
        "ষ"
      ],
      [
        "স্থায়",
        "ী"
      ],
      [
        "ভূমি",
        "কা"
      ],
      [
        "মিনি",
        "ট"
      ],
      [
        "পরিস্থি",
        "তি"
      ],
      [
        "আন্ত",
        "র্জা"
      ],
      [
        "বিদ্য",
        "ু"
      ],
      [
        "নিরাপত্ত",
        "া"
      ],
      [
        "সংখ",
        "্য"
      ],
      [
        "পরামর্",
        "শ"
      ],
      [
        "আন্তর্জা",
        "তিক"
      ],
      [
        "আ",
        "র্"
      ],
      [
        "আ",
        "য়ো"
      ],
      [
        "আ",
        "গ্রহ"
      ],
      [
        "আ",
        "বেদন"
      ],
      [
        "ই",
        "ল"
      ],
      [
        "এ",
        "ক্স"
      ],
      [
        "ও",
        "ঠ"
      ],
      [
        "ক",
        "ান"
      ],
      [
        "ক",
        "দের"
      ],
      [
        "ছ",
        "ড়িয়ে"
      ],
      [
        "ট",
        "ন"
      ],
      [
        "ম",
        "েনে"
      ],
      [
        "হ",
        "তা"
      ],
      [
        "ি",
        "কা"
      ],
      [
        "কর",
        "তেন"
      ],
      [
        "বি",
        "জয়"
      ],
      [
        "মা",
        "য়ের"
      ],
      [
        "মা",
        "লিক"
      ],
      [
        "নে",
        "ওয়ার"
      ],
      [
        "সা",
        "হ"
      ],
      [
        "পা",
        "বে"
      ],
      [
        "বল",
        "ছে"
      ],
      [
        "মে",
        "ঘ"
      ],
      [
        "মে",
        "লা"
      ],
      [
        "জান",
        "েন"
      ],
      [
        "পরি",
        "ষ্কার"
      ],
      [
        "জি",
        "র"
      ],
      [
        "দিয়ে",
        "ছি"
      ],
      [
        "ব্যা",
        "ট"
      ],
      [
        "ধার",
        "ণা"
      ],
      [
        "প্রথ",
        "মে"
      ],
      [
        "অভি",
        "নয়"
      ],
      [
        "আজ",
        "কে"
      ],
      [
        "পূ",
        "র্ব"
      ],
      [
        "সমা",
        "লো"
      ],
      [
        "ভে",
        "ত"
      ],
      [
        "গর",
        "ম"
      ],
      [
        "ক্রি",
        "কেট"
      ],
      [
        "চু",
        "ক্তি"
      ],
      [
        "পাঠ",
        "ানো"
      ],
      [
        "অনুষ্ঠ",
        "ান"
      ],
      [
        "কমি",
        "টির"
      ],
      [
        "সন্",
        "ধ্য"
      ],
      [
        "দৃ",
        "শ্য"
      ],
      [
        "সম্মে",
        "লনে"
      ],
      [
        "জনগণ",
        "ের"
      ],
      [
        "শতা",
        "ংশ"
      ],
      [
        "ফেব্র",
        "ুয়ারি"
      ],
      [
        "সভ",
        "ায়"
      ],
      [
        "অধ্যা",
        "পক"
      ],
      [
        "সামা",
        "জিক"
      ],
      [
        "ধন্য",
        "বাদ"
      ],
      [
        "ই",
        "নি"
      ],
      [
        "ই",
        "য়া"
      ],
      [
        "এ",
        "লো"
      ],
      [
        "ঘ",
        "ুরে"
      ],
      [
        "জ",
        "মি"
      ],
      [
        "ত",
        "ত্ত"
      ],
      [
        "র",
        "য়ে"
      ],
      [
        "ী",
        "তে"
      ],
      [
        "বে",
        "গ"
      ],
      [
        "ছে",
        "লের"
      ],
      [
        "মা",
        "দ"
      ],
      [
        "প্র",
        "কা"
      ],
      [
        "দে",
        "ব"
      ],
      [
        "মি",
        "থ"
      ],
      [
        "পা",
        "শের"
      ],
      [
        "জন",
        "কে"
      ],
      [
        "জান",
        "ানো"
      ],
      [
        "ক্ত",
        "ির"
      ],
      [
        "খে",
        "য়ে"
      ],
      [
        "খে",
        "লার"
      ],
      [
        "জে",
        "লায়"
      ],
      [
        "মু",
        "হ"
      ],
      [
        "সময়",
        "ের"
      ],
      [
        "অব",
        "্যা"
      ],
      [
        "পুর",
        "ি"
      ],
      [
        "উপ",
        "ল"
      ],
      [
        "মো",
        "ট"
      ],
      [
        "পু",
        "ন"
      ],
      [
        "সো",
        "না"
      ],
      [
        "রাষ্ট্র",
        "পতি"
      ],
      [
        "দার",
        "ুণ"
      ],
      [
        "হই",
        "য়া"
      ],
      [
        "আলো",
        "চ"
      ],
      [
        "জানিয়ে",
        "ছে"
      ],
      [
        "জায়",
        "গায়"
      ],
      [
        "সম্পর্",
        "ক"
      ],
      [
        "নেতা",
        "কর্ম"
      ],
      [
        "পৌঁ",
        "ছ"
      ],
      [
        "ইং",
        "রে"
      ],
      [
        "বাস্ত",
        "বায়"
      ],
      [
        "ূর",
        "্ত"
      ],
      [
        "পরিকল্প",
        "না"
      ],
      [
        "প্রতিনি",
        "ধি"
      ],
      [
        "মোবাই",
        "ল"
      ],
      [
        "ঁ",
        "কি"
      ],
      [
        "আ",
        "গ"
      ],
      [
        "এ",
        "ফ"
      ],
      [
        "ন",
        "ান"
      ],
      [
        "ন",
        "ভে"
      ],
      [
        "প",
        "ী"
      ],
      [
        "য",
        "ার"
      ],
      [
        "শ",
        "ত্র"
      ],
      [
        "্র",
        "ি"
      ],
      [
        "না",
        "ল"
      ],
      [
        "লে",
        "ও"
      ],
      [
        "কা",
        "লো"
      ],
      [
        "মা",
        "মা"
      ],
      [
        "প্র",
        "বেশ"
      ],
      [
        "নে",
        "মে"
      ],
      [
        "এক",
        "দিন"
      ],
      [
        "বল",
        "ব"
      ],
      [
        "লি",
        "ম"
      ],
      [
        "পার",
        "ো"
      ],
      [
        "চা",
        "লিয়ে"
      ],
      [
        "খা",
        "ওয়া"
      ],
      [
        "সব",
        "কিছু"
      ],
      [
        "ব্য",
        "স্ত"
      ],
      [
        "পরি",
        "ষ"
      ],
      [
        "পরি",
        "চয়"
      ],
      [
        "জি",
        "জ্ঞা"
      ],
      [
        "প্রতি",
        "বেদ"
      ],
      [
        "যায়",
        "নি"
      ],
      [
        "বাস",
        "ের"
      ],
      [
        "চল",
        "তে"
      ],
      [
        "ধার",
        "া"
      ],
      [
        "প্রধান",
        "মন্ত্রীর"
      ],
      [
        "ডা",
        "ক"
      ],
      [
        "নির্বা",
        "চিত"
      ],
      [
        "ক্রি",
        "য়া"
      ],
      [
        "মূল",
        "ক"
      ],
      [
        "দূ",
        "রে"
      ],
      [
        "নিশ্",
        "চয়"
      ],
      [
        "কলে",
        "জ"
      ],
      [
        "প্রস্ত",
        "ুত"
      ],
      [
        "শিক্ষার্থ",
        "ী"
      ],
      [
        "চর",
        "িত্র"
      ],
      [
        "চেয়ার",
        "ম্যান"
      ],
      [
        "কৃষ",
        "ি"
      ],
      [
        "বোর্",
        "ড"
      ],
      [
        "অন্যান",
        "্য"
      ],
      [
        "জিজ্ঞা",
        "সা"
      ],
      [
        "অ",
        "্যান্ড"
      ],
      [
        "আ",
        "কাশ"
      ],
      [
        "উ",
        "ল"
      ],
      [
        "ও",
        "ভার"
      ],
      [
        "ধ",
        "িক"
      ],
      [
        "ধ",
        "ানে"
      ],
      [
        "প",
        "দ্ধ"
      ],
      [
        "ব",
        "স্ত"
      ],
      [
        "ব",
        "হন"
      ],
      [
        "য",
        "থে"
      ],
      [
        "র",
        "ক্ষ"
      ],
      [
        "শ",
        "োর"
      ],
      [
        "হ",
        "লেন"
      ],
      [
        "হ",
        "ঠা"
      ],
      [
        "ে",
        "স"
      ],
      [
        "য়",
        "ায়"
      ],
      [
        "ান",
        "ির"
      ],
      [
        "না",
        "কে"
      ],
      [
        "বা",
        "ক"
      ],
      [
        "বে",
        "ল"
      ],
      [
        "কা",
        "ট"
      ],
      [
        "মা",
        "য়"
      ],
      [
        "মা",
        "তা"
      ],
      [
        "মি",
        "লে"
      ],
      [
        "সা",
        "দা"
      ],
      [
        "সা",
        "হিত"
      ],
      [
        "পা",
        "ওয়ার"
      ],
      [
        "হা",
        "ড়"
      ],
      [
        "গে",
        "ছি"
      ],
      [
        "পার",
        "বো"
      ],
      [
        "চা",
        "ঁ"
      ],
      [
        "সব",
        "ু"
      ],
      [
        "সব",
        "সময়"
      ],
      [
        "মু",
        "ল"
      ],
      [
        "ব্য",
        "থা"
      ],
      [
        "পরি",
        "বার"
      ],
      [
        "ভি",
        "ডিও"
      ],
      [
        "সং",
        "গঠন"
      ],
      [
        "হি",
        "সাবে"
      ],
      [
        "কিছু",
        "টা"
      ],
      [
        "আস",
        "ছি"
      ],
      [
        "পি",
        "ঠা"
      ],
      [
        "নির্",
        "দি"
      ],
      [
        "উপ",
        "দে"
      ],
      [
        "হার",
        "া"
      ],
      [
        "গুলো",
        "তে"
      ],
      [
        "যু",
        "গ"
      ],
      [
        "এসে",
        "ছি"
      ],
      [
        "সদ",
        "র"
      ],
      [
        "লাগ",
        "ল"
      ],
      [
        "সূ",
        "ত্র"
      ],
      [
        "অনুষ্ঠ",
        "িত"
      ],
      [
        "জু",
        "ড়ে"
      ],
      [
        "চো",
        "খে"
      ],
      [
        "আল",
        "ম"
      ],
      [
        "সহায়",
        "তা"
      ],
      [
        "থান",
        "ার"
      ],
      [
        "পৃথি",
        "বী"
      ],
      [
        "গণত",
        "ন্ত্র"
      ],
      [
        "ঘণ্",
        "টা"
      ],
      [
        "অপরা",
        "ধ"
      ],
      [
        "কাউ",
        "কে"
      ],
      [
        "নদ",
        "ীর"
      ],
      [
        "পয়েন্",
        "ট"
      ],
      [
        "বিদ্যু",
        "ৎ"
      ],
      [
        "ভেত",
        "রে"
      ],
      [
        "যথে",
        "ষ্ট"
      ],
      [
        "হঠা",
        "ৎ"
      ],
      [
        "এ",
        "রা"
      ],
      [
        "এ",
        "প্রি"
      ],
      [
        "ও",
        "খানে"
      ],
      [
        "খ",
        "ায়"
      ],
      [
        "জ",
        "ড়"
      ],
      [
        "থ",
        "ার"
      ],
      [
        "ন",
        "ব"
      ],
      [
        "ভ",
        "্র"
      ],
      [
        "ল",
        "নের"
      ],
      [
        "স",
        "ান"
      ],
      [
        "স",
        "রে"
      ],
      [
        "স",
        "ফল"
      ],
      [
        "হ",
        "তো"
      ],
      [
        "বি",
        "পক্ষে"
      ],
      [
        "কা",
        "দের"
      ],
      [
        "মা",
        "ঠ"
      ],
      [
        "মা",
        "তে"
      ],
      [
        "রা",
        "ম"
      ],
      [
        "টি",
        "ভি"
      ],
      [
        "ায়",
        "া"
      ],
      [
        "পর",
        "বর্তী"
      ],
      [
        "বল",
        "বে"
      ],
      [
        "গে",
        "লেন"
      ],
      [
        "লি",
        "র"
      ],
      [
        "পার",
        "ব"
      ],
      [
        "পার",
        "বেন"
      ],
      [
        "আমি",
        "ও"
      ],
      [
        "সি",
        "য়া"
      ],
      [
        "ঙ্",
        "কা"
      ],
      [
        "মু",
        "দ"
      ],
      [
        "গ্র",
        "ি"
      ],
      [
        "সু",
        "খ"
      ],
      [
        "প্রতি",
        "দিন"
      ],
      [
        "বো",
        "ঝা"
      ],
      [
        "পে",
        "শা"
      ],
      [
        "পুর",
        "ুষ"
      ],
      [
        "ওয়ার",
        "্"
      ],
      [
        "রো",
        "কে"
      ],
      [
        "মানুষ",
        "কে"
      ],
      [
        "মের",
        "ে"
      ],
      [
        "জীব",
        "নের"
      ],
      [
        "শী",
        "র্ষ"
      ],
      [
        "পূ",
        "রণ"
      ],
      [
        "নায়",
        "ক"
      ],
      [
        "চাল",
        "ু"
      ],
      [
        "বের",
        "িয়ে"
      ],
      [
        "হু",
        "ম"
      ],
      [
        "নির্বাচ",
        "নের"
      ],
      [
        "হই",
        "তে"
      ],
      [
        "বিষয়",
        "ক"
      ],
      [
        "কর্ত",
        "ৃ"
      ],
      [
        "ম্যা",
        "চ"
      ],
      [
        "প্রে",
        "স"
      ],
      [
        "হাম",
        "লা"
      ],
      [
        "খ্যা",
        "ত"
      ],
      [
        "ঘু",
        "ম"
      ],
      [
        "আদা",
        "লতে"
      ],
      [
        "লক্ষ",
        "্য"
      ],
      [
        "উদ্য",
        "ো"
      ],
      [
        "সৈ",
        "য়"
      ],
      [
        "বিশ্বকা",
        "প"
      ],
      [
        "রাজধান",
        "ীর"
      ],
      [
        "কৌ",
        "শ"
      ],
      [
        "পেছ",
        "নে"
      ],
      [
        "প্রকা",
        "শিত"
      ],
      [
        "নির্দি",
        "ষ্ট"
      ],
      [
        "অ",
        "সুস্থ"
      ],
      [
        "উ",
        "র"
      ],
      [
        "উ",
        "পাদ"
      ],
      [
        "চ",
        "ির"
      ],
      [
        "জ",
        "োর"
      ],
      [
        "ন",
        "ম্বর"
      ],
      [
        "ফ",
        "্"
      ],
      [
        "ব",
        "নে"
      ],
      [
        "ব",
        "দ্ধ"
      ],
      [
        "ম",
        "ুর"
      ],
      [
        "ল",
        "্যা"
      ],
      [
        "শ",
        "ৈ"
      ],
      [
        "ু",
        "তি"
      ],
      [
        "বি",
        "স্"
      ],
      [
        "বি",
        "য়ের"
      ],
      [
        "দি",
        "চ্ছে"
      ],
      [
        "দের",
        "ি"
      ],
      [
        "সা",
        "হে"
      ],
      [
        "পা",
        "চার"
      ],
      [
        "করে",
        "ছ"
      ],
      [
        "য়া",
        "ত"
      ],
      [
        "য়া",
        "ড়"
      ],
      [
        "ন্",
        "থ"
      ],
      [
        "তো",
        "কে"
      ],
      [
        "বল",
        "লে"
      ],
      [
        "হা",
        "ল"
      ],
      [
        "শি",
        "খ"
      ],
      [
        "ষ্",
        "টির"
      ],
      [
        "হয়ে",
        "ছেন"
      ],
      [
        "চা",
        "ও"
      ],
      [
        "খে",
        "লো"
      ],
      [
        "খে",
        "লতে"
      ],
      [
        "ত্র",
        "ি"
      ],
      [
        "সং",
        "স্থা"
      ],
      [
        "প্রতি",
        "যোগি"
      ],
      [
        "এর",
        "কম"
      ],
      [
        "মধ্যে",
        "ই"
      ],
      [
        "ত্ত",
        "ি"
      ],
      [
        "ভার",
        "তীয়"
      ],
      [
        "ঙ্গ",
        "ি"
      ],
      [
        "ক্ষে",
        "প"
      ],
      [
        "স্বা",
        "মী"
      ],
      [
        "টো",
        "বর"
      ],
      [
        "ঘট",
        "নার"
      ],
      [
        "শ্র",
        "মিক"
      ],
      [
        "পূ",
        "র্"
      ],
      [
        "সমা",
        "বেশ"
      ],
      [
        "প্",
        "টে"
      ],
      [
        "আপনার",
        "া"
      ],
      [
        "ইউ",
        "রো"
      ],
      [
        "ইউ",
        "নিয়"
      ],
      [
        "হই",
        "বে"
      ],
      [
        "অংশ",
        "গ্রহণ"
      ],
      [
        "উৎ",
        "পাদ"
      ],
      [
        "বিশ্ববিদ্যাল",
        "য়"
      ],
      [
        "প্রস্ত",
        "া"
      ],
      [
        "দশ",
        "মিক"
      ],
      [
        "পাকিস্ত",
        "ান"
      ],
      [
        "উই",
        "কেট"
      ],
      [
        "স্বাধীন",
        "তা"
      ],
      [
        "ল্যান্ড",
        "ের"
      ],
      [
        "উদ্বোধ",
        "ন"
      ],
      [
        "রাস্ত",
        "া"
      ],
      [
        "বঙ্গ",
        "বন্ধু"
      ],
      [
        "বিভা",
        "গের"
      ],
      [
        "আলা",
        "দা"
      ],
      [
        "গাঁ",
        "ও"
      ],
      [
        "অক্",
        "টোবর"
      ],
      [
        "উপল",
        "ক্ষে"
      ],
      [
        "সৈয়",
        "দ"
      ],
      [
        "অ",
        "ঞ্"
      ],
      [
        "আ",
        "বু"
      ],
      [
        "ক",
        "ন"
      ],
      [
        "গ",
        "ঞ্"
      ],
      [
        "গ",
        "ানের"
      ],
      [
        "চ",
        "্যা"
      ],
      [
        "ন",
        "র"
      ],
      [
        "ন",
        "জর"
      ],
      [
        "ব",
        "ুল"
      ],
      [
        "য",
        "থা"
      ],
      [
        "হ",
        "ও"
      ],
      [
        "ি",
        "ল"
      ],
      [
        "ার",
        "ি"
      ],
      [
        "কর",
        "ছ"
      ],
      [
        "কর",
        "ল"
      ],
      [
        "নি",
        "য়া"
      ],
      [
        "বা",
        "ধ্য"
      ],
      [
        "বি",
        "প"
      ],
      [
        "বি",
        "কে"
      ],
      [
        "বি",
        "বে"
      ],
      [
        "বি",
        "ধান"
      ],
      [
        "মা",
        "তার"
      ],
      [
        "মা",
        "টিতে"
      ],
      [
        "তা",
        "ড়া"
      ],
      [
        "রা",
        "জি"
      ],
      [
        "মি",
        "য়া"
      ],
      [
        "নে",
        "তাদের"
      ],
      [
        "দি",
        "ও"
      ],
      [
        "সে",
        "টি"
      ],
      [
        "সে",
        "প্টে"
      ],
      [
        "ক্",
        "কা"
      ],
      [
        "বল",
        "ুন"
      ],
      [
        "হা",
        "তি"
      ],
      [
        "গে",
        "ছেন"
      ],
      [
        "কো",
        "র্"
      ],
      [
        "পার",
        "ছি"
      ],
      [
        "জি",
        "য়ার"
      ],
      [
        "খু",
        "লে"
      ],
      [
        "পুর",
        "ের"
      ],
      [
        "হার",
        "িয়ে"
      ],
      [
        "টু",
        "কু"
      ],
      [
        "শী",
        "তের"
      ],
      [
        "বাদ",
        "ী"
      ],
      [
        "ফা",
        "ই"
      ],
      [
        "তৈ",
        "র"
      ],
      [
        "ম্যা",
        "চে"
      ],
      [
        "ম্",
[...]
