{
  "version": "1.0",
  "truncation": null,
  "padding": null,
  "added_tokens": [],
  "normalizer": null,
  "pre_tokenizer": {
    "type": "Whitespace"
  },
  "post_processor": null,
  "decoder": null,
  "model": {
    "type": "BPE",
    "dropout": null,
    "unk_token": null,
    "continuing_subword_prefix": null,
    "end_of_word_suffix": null,
    "fuse_unk": false,
    "byte_fallback": false,
    "ignore_merges": false,
    "vocab": {
      "!": 0,
      "\"": 1,
      "%": 2,
      "'": 3,
      "(": 4,
      ")": 5,
      ",": 6,
      "-": 7,
      ".": 8,
      "/": 9,
      "1": 10,
      ":": 11,
      ";": 12,
      "?": 13,
      "[": 14,
      "]": 15,
      "a": 16,
      "c": 17,
      "d": 18,
      "e": 19,
      "f": 20,
      "g": 21,
      "h": 22,
      "i": 23,
      "j": 24,
      "k": 25,
      "l": 26,
      "m": 27,
      "n": 28,
      "o": 29,
      "p": 30,
      "r": 31,
      "s": 32,
      "t": 33,
      "u": 34,
      "v": 35,
      "w": 36,
      "x": 37,
      "y": 38,
      "।": 39,
      "ঁ": 40,
      "ং": 41,
      "ঃ": 42,
      "অ": 43,
      "আ": 44,
      "ই": 45,
      "ঈ": 46,
      "উ": 47,
      "ঊ": 48,
      "ঋ": 49,
      "এ": 50,
      "ঐ": 51,
      "ও": 52,
      "ঔ": 53,
      "ক": 54,
      "খ": 55,
      "গ": 56,
      "ঘ": 57,
      "ঙ": 58,
      "চ": 59,
      "ছ": 60,
      "জ": 61,
      "ঝ": 62,
      "ঞ": 63,
      "ট": 64,
      "ঠ": 65,
      "ড": 66,
      "ঢ": 67,
      "ণ": 68,
      "ত": 69,
      "থ": 70,
      "দ": 71,
      "ধ": 72,
      "ন": 73,
      "প": 74,
      "ফ": 75,
      "ব": 76,
      "ভ": 77,
      "ম": 78,
      "য": 79,
      "র": 80,
      "ল": 81,
      "শ": 82,
      "ষ": 83,
      "স": 84,
      "হ": 85,
      "়": 86,
      "া": 87,
      "ি": 88,
      "ী": 89,
      "ু": 90,
      "ূ": 91,
      "ৃ": 92,
      "ে": 93,
      "ৈ": 94,
      "ো": 95,
      "ৌ": 96,
      "্": 97,
      "ৎ": 98,
      "০": 99,
      "১": 100,
      "২": 101,
      "৩": 102,
      "৪": 103,
      "৫": 104,
      "৬": 105,
      "৭": 106,
      "৮": 107,
      "৯": 108,
      "√": 109,
      "য়": 110,
      "ার": 111,
      "ের": 112,
      "্র": 113,
      "্য": 114,
      "ান": 115,
      "কর": 116,
      "েন": 117,
      "য়ে": 118,
      "নি": 119,
      "কে": 120,
      "্ত": 121,
      "না": 122,
      "বা": 123,
      "তে": 124,
      "বে": 125,
      "বি": 126,
      "ছে": 127,
      "লে": 128,
      "কা": 129,
      "মা": 130,
      "তি": 131,
      "তা": 132,
      "প্র": 133,
      "লা": 134,
      "ড়": 135,
      "রা": 136,
      "দে": 137,
      "মি": 138,
      "টি": 139,
      "নে": 140,
      "দি": 141,
      "টা": 142,
      "র্": 143,
      "স্": 144,
      "সে": 145,
      "কি": 146,
      "ায়": 147,
      "দের": 148,
      "ছি": 149,
      "পর": 150,
      "সা": 151,
      "ক্": 152,
      "্যা": 153,
      "ভা": 154,
      "থা": 155,
      "লো": 156,
      "এক": 157,
      "পা": 158,
      "করে": 159,
      "জন": 160,
      "য়া": 161,
      "কার": 162,
      "ন্": 163,
      "ক্ষ": 164,
      "তো": 165,
      "ুর": 166,
      "ন্ত": 167,
      "মার": 168,
      "বল": 169,
      "সম": 170,
      "হা": 171,
      "গে": 172,
      "বার": 173,
      "শি": 174,
      "লি": 175,
      "রে": 176,
      "তার": 177,
      "ষ্": 178,
      "কো": 179,
      "পার": 180,
      "যা": 181,
      "িত": 182,
      "থে": 183,
      "মে": 184,
      "হয়ে": 185,
      "আমি": 186,
      "হয়": 187,
      "সি": 188,
      "মান": 189,
      "আর": 190,
      "ছিল": 191,
      "শে": 192,
      "চ্": 193,
      "তিনি": 194,
      "দ্": 195,
      "তু": 196,
      "দা": 197,
      "চা": 198,
      "দু": 199,
      "িক": 200,
      "খা": 201,
      "জান": 202,
      "এই": 203,
      "খন": 204,
      "্ব": 205,
      "ক্ত": 206,
      "খে": 207,
      "ঙ্": 208,
      "য়ার": 209,
      "হবে": 210,
      "জা": 211,
      "থেকে": 212,
      "সব": 213,
      "ছেন": 214,
      "নের": 215,
      "আমা": 216,
      "আমার": 217,
      "যে": 218,
      "িয়ে": 219,
      "করা": 220,
      "ওয়া": 221,
      "জে": 222,
      "মু": 223,
      "দেশ": 224,
      "ব্য": 225,
      "ত্র": 226,
      "ানে": 227,
      "পরি": 228,
      "ছু": 229,
      "োগ": 230,
      "ভি": 231,
      "আছে": 232,
      "স্ত": 233,
      "জন্য": 234,
      "গ্র": 235,
      "জি": 236,
      "সং": 237,
      "স্থ": 238,
      "ড়া": 239,
      "অন": 240,
      "সু": 241,
      "কথা": 242,
      "গু": 243,
      "কোন": 244,
      "ডি": 245,
      "চে": 246,
      "কী": 247,
      "্প": 248,
      "নিয়ে": 249,
      "করতে": 250,
      "লের": 251,
      "গা": 252,
      "টে": 253,
      "শা": 254,
      "ধ্য": 255,
      "প্রতি": 256,
      "ির": 257,
      "বো": 258,
      "শু": 259,
      "হয়েছে": 260,
      "বলে": 261,
      "এটা": 262,
      "ছা": 263,
      "নার": 264,
      "ীর": 265,
      "্ম": 266,
      "েন্": 267,
      "আম": 268,
      "খু": 269,
      "হি": 270,
      "কিছু": 271,
      "দ্ধ": 272,
      "মন": 273,
      "দিয়ে": 274,
      "পে": 275,
      "সর": 276,
      "করেন": 277,
      "আপ": 278,
      "ড়ে": 279,
      "ীয়": 280,
      "আমাদের": 281,
      "আস": 282,
      "দিন": 283,
      "এর": 284,
      "কাজ": 285,
      "সময়": 286,
      "ন্ত্র": 287,
      "যোগ": 288,
      "চি": 289,
      "অনে": 290,
      "বর": 291,
      "ক্র": 292,
      "চ্ছে": 293,
      "পি": 294,
      "ুল": 295,
      "এখন": 296,
      "বলেন": 297,
      "ধান": 298,
      "যায়": 299,
      "আমরা": 300,
      "দেখ": 301,
      "শ্": 302,
      "খানে": 303,
      "ন্তু": 304,
      "অব": 305,
      "ট্র": 306,
      "কম": 307,
      "নির্": 308,
      "শেষ": 309,
      "অনেক": 310,
      "তুমি": 311,
      "লেন": 312,
      "নয়": 313,
      "লাম": 314,
      "কিন্তু": 315,
      "চার": 316,
      "মনে": 317,
      "ভালো": 318,
      "সঙ্": 319,
      "পুর": 320,
      "কোনো": 321,
      "োর": 322,
      "ড়ি": 323,
      "বাং": 324,
      "থাক": 325,
      "ষ্ঠ": 326,
      "বং": 327,
      "রি": 328,
      "ভাবে": 329,
      "নেই": 330,
      "উপ": 331,
      "এবং": 332,
      "ন্দ": 333,
      "বু": 334,
      "সহ": 335,
      "একটি": 336,
      "শিক্ষ": 337,
      "ন্ধ": 338,
      "বাংলা": 339,
      "ওয়ার": 340,
      "সরকার": 341,
      "্ড": 342,
      "সঙ্গে": 343,
      "মো": 344,
      "রো": 345,
      "মধ্য": 346,
      "হার": 347,
      "তাদের": 348,
      "ক্তি": 349,
      "স্য": 350,
      "ুরু": 351,
      "গুলো": 352,
      "তাঁ": 353,
      "ুষ": 354,
      "য়ের": 355,
      "একটা": 356,
      "ছিলেন": 357,
      "চিত": 358,
      "জ্": 359,
      "জার": 360,
      "ঞ্": 361,
      "টার": 362,
      "মন্ত্র": 363,
      "পু": 364,
      "যু": 365,
      "ব্যা": 366,
      "সম্": 367,
      "কের": 368,
      "বাই": 369,
      "মধ্যে": 370,
      "দেশের": 371,
      "অনু": 372,
      "বাস": 373,
      "করি": 374,
      "পারে": 375,
      "ত্য": 376,
      "ত্ত": 377,
      "ঠিক": 378,
      "তারা": 379,
      "বছ": 380,
      "মানুষ": 381,
      "লার": 382,
      "হলে": 383,
      "বন্ধ": 384,
      "ান্ত": 385,
      "তোমার": 386,
      "দ্র": 387,
      "ল্প": 388,
      "্যান": 389,
      "কর্ম": 390,
      "ফি": 391,
      "কেন": 392,
      "বড়": 393,
      "কু": 394,
      "চল": 395,
      "গত": 396,
      "ঢা": 397,
      "বিষ": 398,
      "বেন": 399,
      "শ্ব": 400,
      "োট": 401,
      "বেশ": 402,
      "ব্যব": 403,
      "মী": 404,
      "বছর": 405,
      "হচ্ছে": 406,
      "টু": 407,
      "লী": 408,
      "ধার": 409,
      "গো": 410,
      "ভার": 411,
      "জী": 412,
      "ল্": 413,
      "দেখা": 414,
      "নী": 415,
      "সো": 416,
      "সাথে": 417,
      "শুরু": 418,
      "এসে": 419,
      "র্থ": 420,
      "প্রধান": 421,
      "সার": 422,
      "খুব": 423,
      "নাম": 424,
      "ন্ন": 425,
      "আগে": 426,
      "প্ত": 427,
      "বিশ্ব": 428,
      "ানি": 429,
      "্যাল": 430,
      "ফে": 431,
      "কাল": 432,
      "দল": 433,
      "বিদ": 434,
      "প্রথ": 435,
      "সের": 436,
      "ঙ্গ": 437,
      "আই": 438,
      "স্থা": 439,
      "মন্ত্রী": 440,
      "ঢাকা": 441,
      "জের": 442,
      "অভি": 443,
      "রু": 444,
      "দিকে": 445,
      "এখানে": 446,
      "মের": 447,
      "ক্ষে": 448,
      "টির": 449,
      "গিয়ে": 450,
      "ধি": 451,
      "স্বা": 452,
      "ণা": 453,
      "জীব": 454,
      "টো": 455,
      "ানা": 456,
      "দুই": 457,
      "কাছে": 458,
      "গেছে": 459,
      "ঘট": 460,
      "তের": 461,
      "ানের": 462,
      "করার": 463,
      "তীয়": 464,
      "শী": 465,
      "চাই": 466,
      "ষ্ট": 467,
      "আমাকে": 468,
      "গ্রা": 469,
      "তাই": 470,
      "ধু": 471,
      "মতো": 472,
      "জ্ঞ": 473,
      "সদ": 474,
      "হত": 475,
      "প্রা": 476,
      "কারণ": 477,
      "প্রথম": 478,
      "রাজ": 479,
      "সেই": 480,
      "শ্র": 481,
      "পরে": 482,
      "বৃ": 483,
      "য়েছে": 484,
      "বাবা": 485,
      "অন্য": 486,
      "আজ": 487,
      "উদ্": 488,
      "ঠে": 489,
      "পতি": 490,
      "ডা": 491,
      "পূ": 492,
      "পড়": 493,
      "বাদ": 494,
      "তাকে": 495,
      "সমা": 496,
      "বেশি": 497,
      "দেশে": 498,
      "স্ব": 499,
      "নির্বা": 500,
      "প্": 501,
      "তিন": 502,
      "ভাব": 503,
      "গের": 504,
      "ধী": 505,
      "ানো": 506,
      "রের": 507,
      "বাড়ি": 508,
      "ভাই": 509,
      "তবে": 510,
      "হে": 511,
      "হলো": 512,
      "য়েন্": 513,
      "কৃ": 514,
      "এন": 515,
      "পর্য": 516,
      "চলে": 517,
      "সেন": 518,
      "য়ো": 519,
      "রাখ": 520,
      "তুন": 521,
      "হো": 522,
      "নায়": 523,
      "যাবে": 524,
      "গ্রহ": 525,
      "দেওয়া": 526,
      "বর্ত": 527,
      "স্যার": 528,
      "তাঁর": 529,
      "চাল": 530,
      "আপনার": 531,
      "ংশ": 532,
      "নতুন": 533,
      "ফা": 534,
      "বই": 535,
      "ছোট": 536,
      "ভে": 537,
      "ধর": 538,
      "পড়ে": 539,
      "এমন": 540,
      "গর": 541,
      "শো": 542,
      "ারা": 543,
      "সম্প": 544,
      "ক্রি": 545,
      "বের": 546,
      "তখন": 547,
      "ব্": 548,
      "কাশ": 549,
      "হাস": 550,
      "আরও": 551,
      "গণ": 552,
      "দী": 553,
      "নিউ": 554,
      "ম্ব": 555,
      "রয়েছে": 556,
      "সবাই": 557,
      "করেছে": 558,
      "ব্র": 559,
      "ঠা": 560,
      "শন": 561,
      "তিক": 562,
      "আপনি": 563,
      "দিতে": 564,
      "ধা": 565,
      "দেখে": 566,
      "র্ণ": 567,
      "ভিন্ন": 568,
      "লাগ": 569,
      "লায়": 570,
      "টাকা": 571,
      "ূল": 572,
      "নিয়": 573,
      "থাকে": 574,
      "হন": 575,
      "লিশ": 576,
      "চু": 577,
      "তির": 578,
      "ক্ষা": 579,
      "লোক": 580,
      "ওই": 581,
      "জানান": 582,
      "থায়": 583,
      "একজন": 584,
      "্থ": 585,
      "রাষ্": 586,
      "স্ট": 587,
      "রাষ্ট্র": 588,
      "আবার": 589,
      "ত্ব": 590,
      "সূ": 591,
      "বিদ্যাল": 592,
      "ইউ": 593,
      "কেউ": 594,
      "ফোর": 595,
      "করো": 596,
      "শিক্ষা": 597,
      "দায়": 598,
      "হু": 599,
      "হতে": 600,
      "ছাড়া": 601,
      "দার": 602,
      "রণ": 603,
      "পারি": 604,
      "ইস": 605,
      "ুন": 606,
      "করছে": 607,
      "নির্বাচ": 608,
      "ভব": 609,
      "চেয়ে": 610,
      "পুলিশ": 611,
      "আহ": 612,
      "এস": 613,
      "যান": 614,
      "করবে": 615,
      "সেটা": 616,
      "বলা": 617,
      "শুধু": 618,
      "সী": 619,
      "করেছেন": 620,
      "মুখ": 621,
      "আরে": 622,
      "দর": 623,
      "আন": 624,
      "ীদের": 625,
      "বিডি": 626,
      "ষ্টি": 627,
      "য়েন্টি": 628,
      "মূল": 629,
      "হই": 630,
      "তোমা": 631,
      "হাসি": 632,
      "বিভিন্ন": 633,
      "ডট": 634,
      "উত্ত": 635,
      "কখন": 636,
      "একটু": 637,
      "হাজার": 638,
      "যেতে": 639,
      "ধারণ": 640,
      "নিউজ": 641,
      "অধি": 642,
      "ষ্টা": 643,
      "ডটকম": 644,
      "আলো": 645,
      "উন্": 646,
      "টের": 647,
      "বিএন": 648,
      "শেখ": 649,
      "দুর্": 650,
      "প্রতিষ্ঠ": 651,
      "ছাত্র": 652,
      "বিডিনিউজ": 653,
      "দেন": 654,
      "য়েন্টিফোর": 655,
      "বিষয়": 656,
      "ন্দর": 657,
      "নাই": 658,
      "তৈ": 659,
      "দ্য": 660,
      "পো": 661,
      "যদি": 662,
      "লন": 663,
      "য়েক": 664,
      "রহ": 665,
      "নিজে": 666,
      "স্থান": 667,
      "পর্যন্ত": 668,
      "য়োজন": 669,
      "হী": 670,
      "করছি": 671,
      "মিক": 672,
      "জানা": 673,
      "বুঝ": 674,
      "অংশ": 675,
      "এম": 676,
      "দলের": 677,
      "ফু": 678,
      "ভূ": 679,
      "বাড়": 680,
      "হিসে": 681,
      "এসব": 682,
      "কয়েক": 683,
      "কর্ত": 684,
      "পাঠ": 685,
      "দাও": 686,
      "অর্থ": 687,
      "ফো": 688,
      "প্রকাশ": 689,
      "জানিয়ে": 690,
      "ডে": 691,
      "শ্য": 692,
      "দেখতে": 693,
      "টোয়েন্টিফোর": 694,
      "হিসেবে": 695,
      "কায়": 696,
      "কালে": 697,
      "প্রধানমন্ত্রী": 698,
      "খান": 699,
      "ছবি": 700,
      "জায়": 701,
      "ধরে": 702,
      "ফল": 703,
      "ম্যা": 704,
      "বাংলাদেশ": 705,
      "ওকে": 706,
      "খো": 707,
      "বিশেষ": 708,
      "গেল": 709,
      "মুক্তি": 710,
      "কল": 711,
      "ম্": 712,
      "কত": 713,
      "লু": 714,
      "আওয়া": 715,
      "তৃ": 716,
      "ার্থ": 717,
      "মাত্র": 718,
      "বলতে": 719,
      "মানে": 720,
      "বাংলাদেশের": 721,
      "অনুষ্ঠ": 722,
      "উৎ": 723,
      "দূ": 724,
      "মতা": 725,
      "মাধ্য": 726,
      "রাজন": 727,
      "যাও": 728,
      "সুন্দর": 729,
      "কমি": 730,
      "জু": 731,
      "মৃ": 732,
      "ছেলে": 733,
      "সাধারণ": 734,
      "ভাষ": 735,
      "গ্রহণ": 736,
      "ওর": 737,
      "মত": 738,
      "দিক": 739,
      "পাদ": 740,
      "েন্দ্র": 741,
      "বন্ধু": 742,
      "ইসলাম": 743,
      "সদস্য": 744,
      "বী": 745,
      "নিজের": 746,
      "লেখ": 747,
      "যুক্ত": 748,
      "ধরনের": 749,
      "হ্যা": 750,
      "প্রি": 751,
      "প্রে": 752,
      "ড়িয়ে": 753,
      "গঠ": 754,
      "দাঁ": 755,
      "রহমান": 756,
      "দর্": 757,
      "পারেন": 758,
      "মেয়ে": 759,
      "ঘটনা": 760,
      "ম্বর": 761,
      "অর্": 762,
      "প্রশ্": 763,
      "মানুষের": 764,
      "ঁচ": 765,
      "ধর্": 766,
      "করলে": 767,
      "দাবি": 768,
      "জীবন": 769,
      "দো": 770,
      "ভর": 771,
      "ভয়": 772,
      "্ট": 773,
      "পরী": 774,
      "হয়নি": 775,
      "চ্ছা": 776,
      "পের": 777,
      "ুত": 778,
      "ান্": 779,
      "ক্স": 780,
      "ব্যবস্থা": 781,
      "সম্পর্": 782,
      "আওয়ামী": 783,
      "আব": 784,
      "ত্যা": 785,
      "বৈ": 786,
      "বেদ": 787,
      "কোথায়": 788,
      "চ্ছি": 789,
      "ণ্ড": 790,
      "পৌ": 791,
      "যেন": 792,
      "বিষয়ে": 793,
      "ঘা": 794,
      "ঠি": 795,
      "সভা": 796,
      "মাণ": 797,
      "সরকারি": 798,
      "সরকারের": 799,
      "বিশ্ববিদ্যাল": 800,
      "কারণে": 801,
      "তৈরি": 802,
      "এতে": 803,
      "চনা": 804,
      "পদ": 805,
      "নেতা": 806,
      "খেলা": 807,
      "আপনা": 808,
      "ফিরে": 809,
      "উচিত": 810,
      "বস": 811,
      "মর": 812,
      "প্রায়": 813,
      "সেখানে": 814,
      "থাকবে": 815,
      "পরা": 816,
      "সত্য": 817,
      "দেয়": 818,
      "করেছি": 819,
      "মারা": 820,
      "বলি": 821,
      "কখনো": 822,
      "এলা": 823,
      "তাহলে": 824,
      "লাই": 825,
      "র্ব": 826,
      "সালে": 827,
      "গামী": 828,
      "পেয়ে": 829,
      "ঞ্চ": 830,
      "যুদ্ধ": 831,
      "এবার": 832,
      "ত্": 833,
      "থ্য": 834,
      "ৈতিক": 835,
      "নিশ্": 836,
      "বির": 837,
      "চেষ্টা": 838,
      "একা": 839,
      "বক্ত": 840,
      "িতে": 841,
      "হাম": 842,
      "জাতীয়": 843,
      "ত্রে": 844,
      "্যান্ড": 845,
      "তোমাকে": 846,
      "ওপর": 847,
      "ঘো": 848,
      "নানা": 849,
      "মহ": 850,
      "হাতে": 851,
      "পূর্ণ": 852,
      "কেন্দ্র": 853,
      "জয়": 854,
      "মাম": 855,
      "র্ষ": 856,
      "পাতা": 857,
      "জেলা": 858,
      "বোধ": 859,
      "চিত্র": 860,
      "সাং": 861,
      "রেখে": 862,
      "খালে": 863,
      "খ্যা": 864,
      "গল্প": 865,
      "ঘু": 866,
      "চো": 867,
      "ন্য": 868,
      "শহ": 869,
      "হাত": 870,
      "শ্বাস": 871,
      "মাধ্যমে": 872,
      "এটি": 873,
      "গুরু": 874,
      "নো": 875,
      "করব": 876,
      "বিচার": 877,
      "যাত্র": 878,
      "কলে": 879,
      "তথ্য": 880,
      "থি": 881,
      "বিক": 882,
      "প্রয়োজন": 883,
      "টিতে": 884,
      "পক্ষ": 885,
      "েনে": 886,
      "বিরো": 887,
      "ভাগ": 888,
      "শিশু": 889,
      "জিয়া": 890,
      "স্থায়": 891,
      "ছো": 892,
      "একই": 893,
      "মার্": 894,
      "আরো": 895,
      "েন্ট": 896,
      "বয়": 897,
      "ীরা": 898,
      "কেট": 899,
      "আইন": 900,
      "মৃত্য": 901,
      "পানি": 902,
      "বলো": 903,
      "হওয়ার": 904,
      "নিতে": 905,
      "পাওয়া": 906,
      "িত্ব": 907,
      "তুলে": 908,
      "চিন্ত": 909,
      "উত্তর": 910,
      "ক্যা": 911,
      "যখন": 912,
      "ুয়ার": 913,
      "সামনে": 914,
      "হোসেন": 915,
      "অ্যা": 916,
      "এত": 917,
      "সন্ত": 918,
      "নিক": 919,
      "বায়": 920,
      "অবশ্য": 921,
      "আয়": 922,
      "আসা": 923,
      "উঠ": 924,
      "পান": 925,
      "করবেন": 926,
      "নির": 927,
      "ল্লা": 928,
      "খালেদা": 929,
      "জল": 930,
      "ভিত": 931,
      "স্যা": 932,
      "্যে": 933,
      "নামে": 934,
      "বাঁ": 935,
      "বাজার": 936,
      "সাহা": 937,
      "কিছুই": 938,
      "সম্ভব": 939,
      "আগামী": 940,
      "উঠে": 941,
      "পথ": 942,
      "ভু": 943,
      "কেমন": 944,
      "সাই": 945,
      "ক্ষণ": 946,
      "পরিচাল": 947,
      "আসলে": 948,
      "পৌঁ": 949,
      "রকম": 950,
      "ানোর": 951,
      "তায়": 952,
      "প্রস্ত": 953,
      "রাতে": 954,
      "শিল্প": 955,
      "জানি": 956,
      "ব্যবহার": 957,
      "বাড়িতে": 958,
      "হ্যাঁ": 959,
      "খি": 960,
      "তী": 961,
      "ময়": 962,
      "নাকি": 963,
      "রাত": 964,
      "বারের": 965,
      "যাচ্ছে": 966,
      "গুলি": 967,
      "ঘরে": 968,
      "ষণা": 969,
      "স্ক": 970,
      "বিএনপি": 971,
      "প্রশ্ন": 972,
      "দশ": 973,
      "ধে": 974,
      "দিনের": 975,
      "বললেন": 976,
      "শেষে": 977,
      "ধীন": 978,
      "বক্তব্য": 979,
      "তম": 980,
      "পির": 981,
      "ম্প": 982,
      "সন্": 983,
      "হের": 984,
      "পাই": 985,
      "লিয়ে": 986,
      "যাই": 987,
      "জানতে": 988,
      "চিকি": 989,
      "এখনো": 990,
      "আসে": 991,
      "তেন": 992,
      "য্য": 993,
      "লতে": 994,
      "সমস্যা": 995,
      "স্ত্র": 996,
      "শিক্ষার্থ": 997,
      "ক্ষেত্রে": 998,
      "গ্রাম": 999,
      "চিকিৎ": 1000,
      "ওরা": 1001,
      "ঝা": 1002,
      "ভুল": 1003,
      "শর": 1004,
      "দ্বি": 1005,
      "গাছ": 1006,
      "ক্রম": 1007,
      "বাইরে": 1008,
      "বছরের": 1009,
      "আট": 1010,
      "চর": 1011,
      "হল": 1012,
      "স্টে": 1013,
      "কিস্ত": 1014,
      "সালের": 1015,
      "ক্ষমতা": 1016,
      "ব্যক্তি": 1017,
      "থাকতে": 1018,
      "ঞ্জ": 1019,
      "নির্বাচন": 1020,
      "দরকার": 1021,
      "হাসিনা": 1022,
      "ফোন": 1023,
      "গান": 1024,
      "পক্ষে": 1025,
      "বান": 1026,
      "পাকিস্ত": 1027,
      "জন্ম": 1028,
      "গেলে": 1029,
      "শুন": 1030,
      "কর্মকর্ত": 1031,
      "এসেছে": 1032,
      "উন্নয়": 1033,
      "ইতি": 1034,
      "পৃ": 1035,
      "সকাল": 1036,
      "বিশ্বাস": 1037,
      "গাড়ি": 1038,
      "রুদ্ধ": 1039,
      "হত্যা": 1040,
      "সেনা": 1041,
      "খবর": 1042,
      "ীতি": 1043,
      "মাঝ": 1044,
      "পাঁচ": 1045,
      "কোটি": 1046,
      "পুরো": 1047,
      "সাহায্য": 1048,
      "ওয়": 1049,
      "শান্ত": 1050,
      "সৃ": 1051,
      "লাখ": 1052,
      "ছিলাম": 1053,
      "সাবে": 1054,
      "ুরে": 1055,
      "হাসপাতা": 1056,
      "আল": 1057,
      "দান": 1058,
      "পড়া": 1059,
      "্যের": 1060,
      "লাগে": 1061,
      "সিদ্ধ": 1062,
      "চেয়ার": 1063,
      "ব্যাং": 1064,
      "ঙ্গল": 1065,
      "দর্শ": 1066,
      "সভাপতি": 1067,
      "বিরোধী": 1068,
      "দৃ": 1069,
      "ূপ": 1070,
      "বাহি": 1071,
      "লেখা": 1072,
      "জনের": 1073,
      "সিনে": 1074,
      "দুল": 1075,
      "সংবাদ": 1076,
      "স্থি": 1077,
      "শিক্ষক": 1078,
      "গুলোর": 1079,
      "লীগের": 1080,
      "জ্ঞান": 1081,
      "প্রতিষ্ঠান": 1082,
      "উই": 1083,
      "চায়": 1084,
      "ণ্": 1085,
      "শার": 1086,
      "বিরুদ্ধ": 1087,
      "দেওয়ার": 1088,
      "পাশে": 1089,
      "পারবে": 1090,
      "সুযোগ": 1091,
      "লীগ": 1092,
      "দায়িত্ব": 1093,
      "বিরুদ্ধে": 1094,
      "অতি": 1095,
      "আছি": 1096,
      "আদা": 1097,
      "তর": 1098,
      "বসে": 1099,
      "শনি": 1100,
      "সবার": 1101,
      "হিত": 1102,
      "তেই": 1103,
      "স্কু": 1104,
      "সবচেয়ে": 1105,
      "সম্মে": 1106,
      "ফেলে": 1107,
      "ওদের": 1108,
      "জর": 1109,
      "ছিলো": 1110,
      "পার্": 1111,
      "দুঃ": 1112,
      "খুঁ": 1113,
      "দেখি": 1114,
      "অধিকার": 1115,
      "প্রিয়": 1116,
      "ধর্ম": 1117,
      "গুরুত্ব": 1118,
      "ইন": 1119,
      "ইন্": 1120,
      "গার": 1121,
      "চলো": 1122,
      "ত্ম": 1123,
      "লক্ষ": 1124,
      "সকালে": 1125,
      "াযোগ": 1126,
      "খুশি": 1127,
      "যোগাযোগ": 1128,
      "গতকাল": 1129,
      "সারা": 1130,
      "ভূমি": 1131,
      "সম্পর্কে": 1132,
      "ুয়ারি": 1133,
      "শনিবার": 1134,
      "ংস": 1135,
      "উল্": 1136,
      "ণে": 1137,
      "তন": 1138,
      "মহা": 1139,
      "যো": 1140,
      "্তি": 1141,
      "বিত": 1142,
      "বিয়ে": 1143,
      "মাল": 1144,
      "য়াল": 1145,
      "তোর": 1146,
      "চ্চ": 1147,
      "দুটি": 1148,
      "আসছে": 1149,
      "এরপর": 1150,
      "ট্রো": 1151,
      "থাকলে": 1152,
      "স্বাধীন": 1153,
      "মৃত্যু": 1154,
      "সিদ্ধান্ত": 1155,
      "ওটা": 1156,
      "খারা": 1157,
      "ছয়": 1158,
      "মঙ্গল": 1159,
      "শের": 1160,
      "সন": 1161,
      "টায়": 1162,
      "ুরি": 1163,
      "জেলার": 1164,
      "পরিবেশ": 1165,
      "পরিবর্ত": 1166,
      "কীভাবে": 1167,
      "খুন": 1168,
      "অবস্থা": 1169,
      "ব্যাপার": 1170,
      "সম্পাদ": 1171,
      "আরেক": 1172,
      "আপনাকে": 1173,
      "সাংবা": 1174,
      "কবি": 1175,
      "চয়": 1176,
      "ফের": 1177,
      "বীর": 1178,
      "২০": 1179,
      "নিরা": 1180,
      "নাও": 1181,
      "কাজে": 1182,
      "রাজা": 1183,
      "সময়ে": 1184,
      "গ্রে": 1185,
      "দিয়েছে": 1186,
      "আসবে": 1187,
      "নীতি": 1188,
      "বৃহ": 1189,
      "চোখ": 1190,
      "আছেন": 1191,
      "ইং": 1192,
      "ণের": 1193,
      "ফুল": 1194,
      "যারা": 1195,
      "বেঁ": 1196,
      "মিনি": 1197,
      "নেওয়া": 1198,
      "থাকা": 1199,
      "পাখি": 1200,
      "কারী": 1201,
      "কার্য": 1202,
      "ড়াই": 1203,
      "যোগ্য": 1204,
      "কর্মসূ": 1205,
      "দলীয়": 1206,
      "দ্বিতীয়": 1207,
      "খারাপ": 1208,
      "পত্র": 1209,
      "ফ্র": 1210,
      "ল্যান্ড": 1211,
      "করছেন": 1212,
      "কেটে": 1213,
      "যাওয়ার": 1214,
      "যেমন": 1215,
      "জ্ঞা": 1216,
      "হোক": 1217,
      "জায়গা": 1218,
      "অধ": 1219,
      "ফির": 1220,
      "সড়": 1221,
      "হওয়া": 1222,
      "১৯": 1223,
      "ছেড়ে": 1224,
      "স্কার": 1225,
      "কোথা": 1226,
      "যাওয়া": 1227,
      "দাম": 1228,
      "মুখে": 1229,
      "উদ্দিন": 1230,
      "ঘোষণা": 1231,
      "মহান": 1232,
      "সাংবাদিক": 1233,
      "উদ্য": 1234,
      "জিত": 1235,
      "নেন": 1236,
      "মৌ": 1237,
      "সক": 1238,
      "করবো": 1239,
      "লিক": 1240,
      "ষ্কার": 1241,
      "হয়েছিল": 1242,
      "থেকেই": 1243,
      "স্থিত": 1244,
      "বিএনপির": 1245,
      "রাজনৈতিক": 1246,
      "চিন্তা": 1247,
      "পরিচালক": 1248,
      "মঙ্গলবার": 1249,
      "এগিয়ে": 1250,
      "চের": 1251,
      "জো": 1252,
      "ডার": 1253,
      "দক্ষ": 1254,
      "নদী": 1255,
      "পক": 1256,
      "পন": 1257,
      "ম্যান": 1258,
      "রোগ": 1259,
      "শক্তি": 1260,
      "বাব": 1261,
      "পর্যা": 1262,
      "তারপর": 1263,
      "তুই": 1264,
      "খাবার": 1265,
      "পরিস্থি": 1266,
      "আসতে": 1267,
      "ট্রা": 1268,
      "ব্যাপারে": 1269,
      "গ্রামের": 1270,
      "ল্লাহ": 1271,
      "সিনেমা": 1272,
      "।\"": 1273,
      "উপর": 1274,
      "কমে": 1275,
      "ঘর": 1276,
      "দুর": 1277,
      "ধুর": 1278,
      "ন্যা": 1279,
      "ফলে": 1280,
      "সৈ": 1281,
      "বাচ্": 1282,
      "বেড়ে": 1283,
      "দিনে": 1284,
      "মেট্রো": 1285,
      "তুল": 1286,
      "খেতে": 1287,
      "ছুটি": 1288,
      "বলেছেন": 1289,
      "সহায়": 1290,
      "রোব": 1291,
      "যুক্তি": 1292,
      "অভিযোগ": 1293,
      "লাগবে": 1294,
      "বেদন": 1295,
      "উল্লেখ": 1296,
      "সম্পাদক": 1297,
      "ওহ": 1298,
      "থান": 1299,
      "পায়": 1300,
      "করুন": 1301,
      "কেল": 1302,
      "তাম": 1303,
      "স্টার": 1304,
      "স্পতি": 1305,
      "জনগণ": 1306,
      "জিনি": 1307,
      "সহজ": 1308,
      "তাঁদের": 1309,
      "সোম": 1310,
      "খুবই": 1311,
      "ফুট": 1312,
      "গঠন": 1313,
      "বিশ্ববিদ্যালয়ের": 1314,
      "নিশ্চিত": 1315,
      "বৃহস্পতি": 1316,
      "আশা": 1317,
      "আগের": 1318,
      "একে": 1319,
      "এভাবে": 1320,
      "এছাড়া": 1321,
      "ভো": 1322,
      "বাস্ত": 1323,
      "মিত": 1324,
      "নেতৃ": 1325,
      "পাশা": 1326,
      "পালন": 1327,
      "বলল": 1328,
      "লিত": 1329,
      "ন্দো": 1330,
      "জ্জা": 1331,
      "স্বাস্থ": 1332,
      "শ্রে": 1333,
      "পৃথি": 1334,
      "বৃহস্পতিবার": 1335,
      "অপে": 1336,
      "আচ্ছা": 1337,
      "কহি": 1338,
      "ঘটে": 1339,
      "মর্": 1340,
      "রান": 1341,
      "নিচে": 1342,
      "র্ঘ": 1343,
      "যেখানে": 1344,
      "চিব": 1345,
      "বিশ্বকা": 1346,
      "গ্রামে": 1347,
      "রাখতে": 1348,
      "চুপ": 1349,
      "মামলা": 1350,
      "অবশ্যই": 1351,
      "দুঃখ": 1352,
      "আশ": 1353,
      "আব্": 1354,
      "চৌ": 1355,
      "তদ": 1356,
      "যত": 1357,
      "ূর": 1358,
      "নিজ": 1359,
      "বাহ": 1360,
      "বিল": 1361,
      "লাভ": 1362,
      "দেয়া": 1363,
      "টাই": 1364,
      "স্টি": 1365,
      "সাম": 1366,
      "ক্লা": 1367,
      "হয়তো": 1368,
      "চ্ছেন": 1369,
      "সুবি": 1370,
      "বোন": 1371,
      "পিতা": 1372,
      "যায়ী": 1373,
      "রাজধান": 1374,
      "কৃষ": 1375,
      "আলোচনা": 1376,
      "উৎসব": 1377,
      "কর্মকর্তা": 1378,
      "রোববার": 1379,
      "চট": 1380,
      "বন": 1381,
      "লনে": 1382,
      "ষণ": 1383,
      "সর্ব": 1384,
      "েক": 1385,
      "জানো": 1386,
      "তাঁরা": 1387,
      "দ্রুত": 1388,
      "সত্যি": 1389,
      "তদন্ত": 1390,
      "ওয়ে": 1391,
      "গি": 1392,
      "গ্": 1393,
      "গড়ে": 1394,
      "সায়": 1395,
      "মাস": 1396,
      "মাহ": 1397,
      "মাসে": 1398,
      "মির": 1399,
      "পাশি": 1400,
      "সমর্থ": 1401,
      "যাবো": 1402,
      "্মদ": 1403,
      "অনুযায়ী": 1404,
      "ঘটনায়": 1405,
      "উদ্বোধ": 1406,
      "পরীক্ষা": 1407,
      "কোথাও": 1408,
      "এল": 1409,
      "কল্প": 1410,
      "চলা": 1411,
      "পথে": 1412,
      "মহি": 1413,
      "কেই": 1414,
      "বাল": 1415,
      "বেলা": 1416,
      "মাঠে": 1417,
      "তিতে": 1418,
      "প্রত্য": 1419,
      "রাস্ত": 1420,
      "ক্ষতি": 1421,
      "মেদ": 1422,
      "স্থানে": 1423,
      "শুক্র": 1424,
      "দ্ধা": 1425,
      "তাঁকে": 1426,
      "মন্ত্রণা": 1427,
      "প্তা": 1428,
      "প্রাণ": 1429,
      "তিনটি": 1430,
      "রাজনীতি": 1431,
      "সৃষ্টি": 1432,
      "কর্মসূচি": 1433,
      "পাশাপাশি": 1434,
      "স্বাস্থ্য": 1435,
      "অফি": 1436,
      "আন্দো": 1437,
      "চক": 1438,
      "দলে": 1439,
      "পত্ত": 1440,
      "বঙ্গ": 1441,
      "ুক": 1442,
      "্রা": 1443,
      "মাথা": 1444,
      "তাতে": 1445,
      "রায়": 1446,
      "একবার": 1447,
      "স্তি": 1448,
      "ডিসে": 1449,
      "আসো": 1450,
      "হলেও": 1451,
      "গণত": 1452,
      "জানিয়েছেন": 1453,
      "অনুষ্ঠানে": 1454,
      "পরীক্ষ": 1455,
      "মাঝে": 1456,
      "চট্ট": 1457,
      "মন্ত্রণাল": 1458,
      "উদ্ধ": 1459,
      "ক্য": 1460,
      "কুর": 1461,
      "পছ": 1462,
      "বহু": 1463,
      "মজা": 1464,
      "কিন": 1465,
      "পরিক": 1466,
      "সাত": 1467,
      "হাই": 1468,
      "যাব": 1469,
      "চ্চিত্র": 1470,
      "দুপুর": 1471,
      "জানে": 1472,
      "মুক্ত": 1473,
      "শুনে": 1474,
      "নারী": 1475,
      "যোগি": 1476,
      "এখনও": 1477,
      "অবস্থায়": 1478,
      "বুধ": 1479,
      "মন্ত্রীর": 1480,
      "চলচ্চিত্র": 1481,
      "ফেল": 1482,
      "প্রাথ": 1483,
      "স্বপ্": 1484,
      "কৃত": 1485,
      "আহ্ব": 1486,
      "নিজেদের": 1487,
      "ভর্তি": 1488,
      "বৈঠ": 1489,
      "গুরুত্বপূর্ণ": 1490,
      "সোমবার": 1491,
      "শুক্রবার": 1492,
      "অন্ত": 1493,
      "আন্ত": 1494,
      "আসি": 1495,
      "গল": 1496,
      "চী": 1497,
      "টক": 1498,
      "ফার": 1499,
      "ৎকার": 1500,
      "বাকি": 1501,
      "তাল": 1502,
      "পাল": 1503,
      "কার্যাল": 1504,
      "বলার": 1505,
      "বলছি": 1506,
      "বার্": 1507,
      "লিখ": 1508,
      "লিজ": 1509,
      "খাদ্য": 1510,
      "ডিও": 1511,
      "বাংলাদেশে": 1512,
      "চলছে": 1513,
      "গোল": 1514,
      "আগেই": 1515,
      "শীল": 1516,
      "ব্দ": 1517,
      "মূল্য": 1518,
      "বুঝতে": 1519,
      "গবে": 1520,
      "রঙ": 1521,
      "শতা": 1522,
      "হর": 1523,
      "োধ": 1524,
      "রাখা": 1525,
      "স্ট্র": 1526,
      "ক্ষু": 1527,
      "হাঁ": 1528,
      "ঙ্গা": 1529,
      "জাহা": 1530,
      "সুস্থ": 1531,
      "দ্ধি": 1532,
      "ক্রান্ত": 1533,
      "ফেব্র": 1534,
      "চাইলে": 1535,
      "দীর্ঘ": 1536,
      "লাগছে": 1537,
      "এলাকায়": 1538,
      "সন্তান": 1539,
      "উন্নয়ন": 1540,
      "হাসপাতালে": 1541,
      "দক্ষি": 1542,
      "প্রাথমিক": 1543,
      "আত্ম": 1544,
      "গী": 1545,
      "ঘণ্": 1546,
      "চম": 1547,
      "চান": 1548,
      "তত": 1549,
      "ফর": 1550,
      "মতি": 1551,
      "মরা": 1552,
      "রত": 1553,
      "রূপ": 1554,
      "শত": 1555,
      "সর্": 1556,
      "নিহত": 1557,
      "বিমান": 1558,
      "ন্ড": 1559,
      "লিখে": 1560,
      "সংসদ": 1561,
      "বোর্": 1562,
      "এটাই": 1563,
      "থাকেন": 1564,
      "উপস্থিত": 1565,
      "ভারত": 1566,
      "ভারতের": 1567,
      "প্তার": 1568,
      "আহমেদ": 1569,
      "স্থানীয়": 1570,
      "যুক্তরাষ্ট্র": 1571,
      "দাঁড়া": 1572,
      "ত্বে": 1573,
      "স্কুলে": 1574,
      "বাচ্চা": 1575,
      "চৌধুর": 1576,
      "উদ্ধার": 1577,
      "বুধবার": 1578,
      "অপরা": 1579,
      "কষ্ট": 1580,
      "কঠি": 1581,
      "গায়": 1582,
      "নই": 1583,
      "নৈতিক": 1584,
      "বর্ষ": 1585,
      "ভ্যা": 1586,
      "মন্ত": 1587,
      "সভ": 1588,
      "বিভা": 1589,
      "র্জা": 1590,
      "সাব": 1591,
      "করেছিলেন": 1592,
      "যাক": 1593,
      "যাতে": 1594,
      "চ্ছ": 1595,
      "সংখ্যা": 1596,
      "অবস্থান": 1597,
      "সম্মান": 1598,
      "বর্তী": 1599,
      "ব্রা": 1600,
      "ভাষা": 1601,
      "হাম্মদ": 1602,
      "স্কুল": 1603,
      "খুঁজে": 1604,
      "পরিবর্তন": 1605,
      "গ্রেপ্তার": 1606,
      "সাংবাদিকদের": 1607,
      "শ্রেণ": 1608,
      "পরিকল্প": 1609,
      "আহ্বান": 1610,
      "কঠিন": 1611,
      "অপ": 1612,
      "আলা": 1613,
      "আলী": 1614,
      "আহত": 1615,
      "উনি": 1616,
      "এনে": 1617,
      "ধ্ব": 1618,
      "নীর": 1619,
      "পণ": 1620,
      "পর্": 1621,
      "ভোগ": 1622,
      "ভোট": 1623,
      "রং": 1624,
      "শনের": 1625,
      "সকল": 1626,
      "ীকে": 1627,
      "করলেন": 1628,
      "তেমন": 1629,
      "প্রযুক্তি": 1630,
      "থাকার": 1631,
      "পাস": 1632,
      "এইচ": 1633,
      "গাঁ": 1634,
      "আসেন": 1635,
      "শ্চি": 1636,
      "ট্রেন": 1637,
      "সার্": 1638,
      "স্বাভা": 1639,
      "কৃতি": 1640,
      "আনন্দ": 1641,
      "দূর": 1642,
      "আপনাদের": 1643,
      "সাবেক": 1644,
      "ব্যাংক": 1645,
      "অধ্যা": 1646,
      "পর্যায়ে": 1647,
      "সুবিধা": 1648,
      "আসব": 1649,
      "আয়োজন": 1650,
      "কৌ": 1651,
      "খর": 1652,
      "চরণ": 1653,
      "জিক": 1654,
      "টেন": 1655,
      "ভীর": 1656,
      "শনে": 1657,
      "সল": 1658,
      "ান্ড": 1659,
      "প্রভাব": 1660,
      "দেহ": 1661,
      "দেবে": 1662,
      "পরিবারের": 1663,
      "ডিয়া": 1664,
      "দিয়েছেন": 1665,
      "পেছ": 1666,
      "নির্দেশ": 1667,
      "বিদ্য": 1668,
      "স্বী": 1669,
      "ডটকমকে": 1670,
      "বিষয়টি": 1671,
      "কয়েকটি": 1672,
      "নিরাপত্ত": 1673,
      "অপেক্ষা": 1674,
      "পছন্দ": 1675,
      "স্বপ্ন": 1676,
      "উচ্চ": 1677,
      "গঞ্জ": 1678,
      "জনে": 1679,
      "ঝু": 1680,
      "দম": 1681,
      "পশ্চি": 1682,
      "শব্দ": 1683,
      "নাগর": 1684,
      "প্রচার": 1685,
      "মিন": 1686,
      "টিং": 1687,
      "কিং": 1688,
      "ভাল": 1689,
      "ন্দি": 1690,
      "বারে": 1691,
      "সিং": 1692,
      "সংখ": 1693,
      "বলেছে": 1694,
      "মনো": 1695,
      "চিঠি": 1696,
      "কেরা": 1697,
      "বাসায়": 1698,
      "প্লিজ": 1699,
      "বাহিনী": 1700,
      "জিনিস": 1701,
      "ডিসেম্বর": 1702,
      "দক্ষিণ": 1703,
      "স্বাভাবিক": 1704,
      "নাগরিক": 1705,
      "ইচ্ছা": 1706,
      "চুর": 1707,
      "টর": 1708,
      "নষ্ট": 1709,
      "নগর": 1710,
      "সুর": 1711,
      "ুণ": 1712,
      "কর্": 1713,
      "কেবল": 1714,
      "বিক্রি": 1715,
      "কাঠ": 1716,
      "তালি": 1717,
      "লাল": 1718,
      "ড়ায়": 1719,
      "দেশি": 1720,
      "ন্দু": 1721,
      "সমান": 1722,
      "লিয়া": 1723,
      "পরিচিত": 1724,
      "সংঘ": 1725,
      "শাল": 1726,
      "কাজের": 1727,
      "গোষ্ঠ": 1728,
      "জীবনে": 1729,
      "প্রাপ্ত": 1730,
      "অন্যতম": 1731,
      "পড়েছে": 1732,
      "শোধ": 1733,
      "শোনা": 1734,
      "নিয়োগ": 1735,
      "হীন": 1736,
      "বাড়ির": 1737,
      "সন্তানের": 1738,
      "বেঁচে": 1739,
      "কহিল": 1740,
      "চট্টগ্রাম": 1741,
      "ইত্যা": 1742,
      "ওঠে": 1743,
      "জ্য": 1744,
      "ডো": 1745,
      "বরা": 1746,
      "বর্": 1747,
      "মনি": 1748,
      "মহাস": 1749,
      "ূর্ণ": 1750,
      "য়ন": 1751,
      "য়ান": 1752,
      "বিজ্ঞান": 1753,
      "লেই": 1754,
      "কাউ": 1755,
      "কাণ্ড": 1756,
      "লাশ": 1757,
      "নেয়": 1758,
      "দিল": 1759,
      "পালা": 1760,
      "যাচ্ছি": 1761,
      "মেয়ের": 1762,
      "সির": 1763,
      "জানায়": 1764,
      "ক্তার": 1765,
      "আসার": 1766,
      "পুরস্কার": 1767,
      "উপজেলার": 1768,
      "সেরা": 1769,
      "ঢাকায়": 1770,
      "পড়তে": 1771,
      "সমাজ": 1772,
      "ভাবনা": 1773,
      "সবাইকে": 1774,
      "নিয়ন্ত্র": 1775,
      "নিজেকে": 1776,
      "দাঁড়িয়ে": 1777,
      "মার্চ": 1778,
      "ওয়ায়": 1779,
      "অবর": 1780,
      "এদের": 1781,
      "এদিকে": 1782,
      "ণি": 1783,
      "তরু": 1784,
      "ফিক": 1785,
      "বাবার": 1786,
      "কাছ": 1787,
      "তাহার": 1788,
      "প্রতিনি": 1789,
      "প্রশা": 1790,
      "টিয়ে": 1791,
      "টাকার": 1792,
      "র্ক": 1793,
      "র্ট": 1794,
      "কিয়ে": 1795,
      "সামা": 1796,
      "সাড়ে": 1797,
      "কারা": 1798,
      "কারো": 1799,
      "শিত": 1800,
      "সিড": 1801,
      "সিরি": 1802,
      "জাতি": 1803,
      "স্থার": 1804,
      "টেলি": 1805,
      "নির্মাণ": 1806,
      "ন্দ্র": 1807,
      "করিয়া": 1808,
      "বছরে": 1809,
      "বর্তমানে": 1810,
      "ফাঁ": 1811,
      "খোলা": 1812,
      "দর্শন": 1813,
      "পরামর্": 1814,
      "যাত্রা": 1815,
      "যাত্রী": 1816,
      "আদাল": 1817,
      "চৌধুরী": 1818,
      "ইত্যাদি": 1819,
      "অথ": 1820,
      "আগু": 1821,
      "আচরণ": 1822,
      "গতি": 1823,
      "গভীর": 1824,
      "জোট": 1825,
      "দপ্ত": 1826,
      "ধরা": 1827,
      "ধন্য": 1828,
      "নদ": 1829,
      "নৌ": 1830,
      "ভী": 1831,
      "মস": 1832,
      "ম্য": 1833,
      "শুর": 1834,
      "সঠিক": 1835,
      "সচিব": 1836,
      "সপ্তা": 1837,
      "হক": 1838,
      "হৃ": 1839,
      "িয়া": 1840,
      "নিষ": 1841,
      "বাসা": 1842,
      "কাঁ": 1843,
      "প্রমাণ": 1844,
      "পরের": 1845,
      "তোমরা": 1846,
      "জামা": 1847,
      "মুভি": 1848,
      "জন্যে": 1849,
      "উপজেলা": 1850,
      "মোবাই": 1851,
      "ঢাকার": 1852,
      "সোনার": 1853,
      "বৃষ্টি": 1854,
      "বর্তমান": 1855,
      "নির্বাচনে": 1856,
      "তোমাদের": 1857,
      "তৃতীয়": 1858,
      "পেরে": 1859,
      "এলাকা": 1860,
      "কেন্দ্রীয়": 1861,
      "শহর": 1862,
      "শহরের": 1863,
      "পক্ষের": 1864,
      "ভিত্ত": 1865,
      "ভুলে": 1866,
      "মন্তব্য": 1867,
      "তরুণ": 1868,
      "উপরে": 1869,
      "এগুলো": 1870,
      "এসো": 1871,
      "ঙা": 1872,
      "ঝড়": 1873,
      "পয়েন্": 1874,
      "যন্ত্র": 1875,
      "রক্ষা": 1876,
      "কাপড়": 1877,
      "মাছ": 1878,
      "মাথায়": 1879,
      "প্রার্থ": 1880,
      "প্রত্যা": 1881,
      "ড়ার": 1882,
      "রেল": 1883,
      "চাপ": 1884,
      "চাকরি": 1885,
      "দুটো": 1886,
      "বরণ": 1887,
      "মোহাম্মদ": 1888,
      "পৌঁছে": 1889,
      "চিকিৎসা": 1890,
      "শান্তি": 1891,
      "ফুটবল": 1892,
      "অক্": 1893,
      "আক্রম": 1894,
      "আল্লাহ": 1895,
      "ঘরের": 1896,
      "ঙে": 1897,
      "দৌ": 1898,
      "লড়াই": 1899,
      "্স": 1900,
      "বাতা": 1901,
      "বাসে": 1902,
      "কাটা": 1903,
      "প্রকল্প": 1904,
      "মিল": 1905,
      "ভাড়া": 1906,
      "জনক": 1907,
      "বললাম": 1908,
      "কোম্প": 1909,
      "িত্র": 1910,
      "সিক": 1911,
      "সিটি": 1912,
      "জানুয়ারি": 1913,
      "সংস্": 1914,
      "অন্যান": 1915,
      "শাহ": 1916,
      "প্রতিটি": 1917,
      "দেখো": 1918,
      "উপায়": 1919,
      "শীত": 1920,
      "উদ্দেশ": 1921,
      "ডাক্তার": 1922,
      "মুক্তিযুদ্ধ": 1923,
      "দোষ": 1924,
      "স্থায়ী": 1925,
      "ভূমিকা": 1926,
      "মিনিট": 1927,
      "পরিস্থিতি": 1928,
      "আন্তর্জা": 1929,
      "বিদ্যু": 1930,
      "নিরাপত্তা": 1931,
      "সংখ্য": 1932,
      "পরামর্শ": 1933,
      "আন্তর্জাতিক": 1934,
      "আর্": 1935,
      "আয়ো": 1936,
      "আগ্রহ": 1937,
      "আবেদন": 1938,
      "ইল": 1939,
      "এক্স": 1940,
      "ওঠ": 1941,
      "কান": 1942,
      "কদের": 1943,
      "ছড়িয়ে": 1944,
      "টন": 1945,
      "মেনে": 1946,
      "হতা": 1947,
      "িকা": 1948,
      "করতেন": 1949,
      "বিজয়": 1950,
      "মায়ের": 1951,
      "মালিক": 1952,
      "নেওয়ার": 1953,
      "সাহ": 1954,
      "পাবে": 1955,
      "বলছে": 1956,
      "মেঘ": 1957,
      "মেলা": 1958,
      "জানেন": 1959,
      "পরিষ্কার": 1960,
      "জির": 1961,
      "দিয়েছি": 1962,
      "ব্যাট": 1963,
      "ধারণা": 1964,
      "প্রথমে": 1965,
      "অভিনয়": 1966,
      "আজকে": 1967,
      "পূর্ব": 1968,
      "সমালো": 1969,
      "ভেত": 1970,
      "গরম": 1971,
      "ক্রিকেট": 1972,
      "চুক্তি": 1973,
      "পাঠানো": 1974,
      "অনুষ্ঠান": 1975,
      "কমিটির": 1976,
      "সন্ধ্য": 1977,
      "দৃশ্য": 1978,
      "সম্মেলনে": 1979,
      "জনগণের": 1980,
      "শতাংশ": 1981,
      "ফেব্রুয়ারি": 1982,
      "সভায়": 1983,
      "অধ্যাপক": 1984,
      "সামাজিক": 1985,
      "ধন্যবাদ": 1986,
      "ইনি": 1987,
      "ইয়া": 1988,
      "এলো": 1989,
      "ঘুরে": 1990,
      "জমি": 1991,
      "তত্ত": 1992,
      "রয়ে": 1993,
      "ীতে": 1994,
      "বেগ": 1995,
      "ছেলের": 1996,
      "মাদ": 1997,
      "প্রকা": 1998,
      "দেব": 1999
    },
    "merges": [
      [
        "য",
        "়"
      ],
      [
        "া",
        "র"
      ],
      [
        "ে",
        "র"
      ],
      [
        "্",
        "র"
      ],
      [
        "্",
        "য"
      ],
      [
        "া",
        "ন"
      ],
      [
        "ক",
        "র"
      ],
      [
        "ে",
        "ন"
      ],
      [
        "য়",
        "ে"
      ],
      [
        "ন",
        "ি"
      ],
      [
        "ক",
        "ে"
      ],
      [
        "্",
        "ত"
      ],
      [
        "ন",
        "া"
      ],
      [
        "ব",
        "া"
      ],
      [
        "ত",
        "ে"
      ],
      [
        "ব",
        "ে"
      ],
      [
        "ব",
        "ি"
      ],
      [
        "ছ",
        "ে"
      ],
      [
        "ল",
        "ে"
      ],
      [
        "ক",
        "া"
      ],
      [
        "ম",
        "া"
      ],
      [
        "ত",
        "ি"
      ],
      [
        "ত",
        "া"
      ],
      [
        "প",
        "্র"
      ],
      [
        "ল",
        "া"
      ],
      [
        "ড",
        "়"
      ],
      [
        "র",
        "া"
      ],
      [
        "দ",
        "ে"
      ],
      [
        "ম",
        "ি"
      ],
      [
        "ট",
        "ি"
      ],
      [
        "ন",
        "ে"
      ],
      [
        "দ",
        "ি"
      ],
      [
        "ট",
        "া"
      ],
      [
        "র",
        "্"
      ],
      [
        "স",
        "্"
      ],
      [
        "স",
        "ে"
      ],
      [
        "ক",
        "ি"
      ],
      [
        "া",
        "য়"
      ],
      [
        "দ",
        "ের"
      ],
      [
        "ছ",
        "ি"
      ],
      [
        "প",
        "র"
      ],
      [
        "স",
        "া"
      ],
      [
        "ক",
        "্"
      ],
      [
        "্য",
        "া"
      ],
      [
        "ভ",
        "া"
      ],
      [
        "থ",
        "া"
      ],
      [
        "ল",
        "ো"
      ],
      [
        "এ",
        "ক"
      ],
      [
        "প",
        "া"
      ],
      [
        "কর",
        "ে"
      ],
      [
        "জ",
        "ন"
      ],
      [
        "য়",
        "া"
      ],
      [
        "ক",
        "ার"
      ],
      [
        "ন",
        "্"
      ],
      [
        "ক্",
        "ষ"
      ],
      [
        "ত",
        "ো"
      ],
      [
        "ু",
        "র"
      ],
      [
        "ন",
        "্ত"
      ],
      [
        "ম",
        "ার"
      ],
      [
        "ব",
        "ল"
      ],
      [
        "স",
        "ম"
      ],
      [
        "হ",
        "া"
      ],
      [
        "গ",
        "ে"
      ],
      [
        "ব",
        "ার"
      ],
      [
        "শ",
        "ি"
      ],
      [
        "ল",
        "ি"
      ],
      [
        "র",
        "ে"
      ],
      [
        "ত",
        "ার"
      ],
      [
        "ষ",
        "্"
      ],
      [
        "ক",
        "ো"
      ],
      [
        "প",
        "ার"
      ],
      [
        "য",
        "া"
      ],
      [
        "ি",
        "ত"
      ],
      [
        "থ",
        "ে"
      ],
      [
        "ম",
        "ে"
      ],
      [
        "হ",
        "য়ে"
      ],
      [
        "আ",
        "মি"
      ],
      [
        "হ",
        "য়"
      ],
      [
        "স",
        "ি"
      ],
      [
        "ম",
        "ান"
      ],
      [
        "আ",
        "র"
      ],
      [
        "ছি",
        "ল"
      ],
      [
        "শ",
        "ে"
      ],
      [
        "চ",
        "্"
      ],
      [
        "তি",
        "নি"
      ],
      [
        "দ",
        "্"
      ],
      [
        "ত",
        "ু"
      ],
      [
        "দ",
        "া"
      ],
      [
        "চ",
        "া"
      ],
      [
        "দ",
        "ু"
      ],
      [
        "ি",
        "ক"
      ],
      [
        "খ",
        "া"
      ],
      [
        "জ",
        "ান"
      ],
      [
        "এ",
        "ই"
      ],
      [
        "খ",
        "ন"
      ],
      [
        "্",
        "ব"
      ],
      [
        "ক",
        "্ত"
      ],
      [
        "খ",
        "ে"
      ],
      [
        "ঙ",
        "্"
      ],
      [
        "য়",
        "ার"
      ],
      [
        "হ",
        "বে"
      ],
      [
        "জ",
        "া"
      ],
      [
        "থে",
        "কে"
      ],
      [
        "স",
        "ব"
      ],
      [
        "ছ",
        "েন"
      ],
      [
        "ন",
        "ের"
      ],
      [
        "আ",
        "মা"
      ],
      [
        "আ",
        "মার"
      ],
      [
        "য",
        "ে"
      ],
      [
        "ি",
        "য়ে"
      ],
      [
        "কর",
        "া"
      ],
      [
        "ও",
        "য়া"
      ],
      [
        "জ",
        "ে"
      ],
      [
        "ম",
        "ু"
      ],
      [
        "দে",
        "শ"
      ],
      [
        "ব",
        "্য"
      ],
      [
        "ত",
        "্র"
      ],
      [
        "ান",
        "ে"
      ],
      [
        "পর",
        "ি"
      ],
      [
        "ছ",
        "ু"
      ],
      [
        "ো",
        "গ"
      ],
      [
        "ভ",
        "ি"
      ],
      [
        "আ",
        "ছে"
      ],
      [
        "স",
        "্ত"
      ],
      [
        "জন",
        "্য"
      ],
      [
        "গ",
        "্র"
      ],
      [
        "জ",
        "ি"
      ],
      [
        "স",
        "ং"
      ],
      [
        "স্",
        "থ"
      ],
      [
        "ড়",
        "া"
      ],
      [
        "অ",
        "ন"
      ],
      [
        "স",
        "ু"
      ],
      [
        "ক",
        "থা"
      ],
      [
        "গ",
        "ু"
      ],
      [
        "কো",
        "ন"
      ],
      [
        "ড",
        "ি"
      ],
      [
        "চ",
        "ে"
      ],
      [
        "ক",
        "ী"
      ],
      [
        "্",
        "প"
      ],
      [
        "নি",
        "য়ে"
      ],
      [
        "কর",
        "তে"
      ],
      [
        "ল",
        "ের"
      ],
      [
        "গ",
        "া"
      ],
      [
        "ট",
        "ে"
      ],
      [
        "শ",
        "া"
      ],
      [
        "ধ",
        "্য"
      ],
      [
        "প্র",
        "তি"
      ],
      [
        "ি",
        "র"
      ],
      [
        "ব",
        "ো"
      ],
      [
        "শ",
        "ু"
      ],
      [
        "হয়ে",
        "ছে"
      ],
      [
        "ব",
        "লে"
      ],
      [
        "এ",
        "টা"
      ],
      [
        "ছ",
        "া"
      ],
      [
        "ন",
        "ার"
      ],
      [
        "ী",
        "র"
      ],
      [
        "্",
        "ম"
      ],
      [
        "েন",
        "্"
      ],
      [
        "আ",
        "ম"
      ],
      [
        "খ",
        "ু"
      ],
      [
        "হ",
        "ি"
      ],
      [
        "কি",
        "ছু"
      ],
      [
        "দ্",
        "ধ"
      ],
      [
        "ম",
        "ন"
      ],
      [
        "দি",
        "য়ে"
      ],
      [
        "প",
        "ে"
      ],
      [
        "স",
        "র"
      ],
      [
        "কর",
        "েন"
      ],
      [
        "আ",
        "প"
      ],
      [
        "ড়",
        "ে"
      ],
      [
        "ী",
        "য়"
      ],
      [
        "আমা",
        "দের"
      ],
      [
        "আ",
        "স"
      ],
      [
        "দি",
        "ন"
      ],
      [
        "এ",
        "র"
      ],
      [
        "কা",
        "জ"
      ],
      [
        "সম",
        "য়"
      ],
      [
        "ন্ত",
        "্র"
      ],
      [
        "য",
        "োগ"
      ],
      [
        "চ",
        "ি"
      ],
      [
        "অ",
        "নে"
      ],
      [
        "ব",
        "র"
      ],
      [
        "ক",
        "্র"
      ],
      [
        "চ্",
        "ছে"
      ],
      [
        "প",
        "ি"
      ],
      [
        "ু",
        "ল"
      ],
      [
        "এ",
        "খন"
      ],
      [
        "বল",
        "েন"
      ],
      [
        "ধ",
        "ান"
      ],
      [
        "য",
        "ায়"
      ],
      [
        "আম",
        "রা"
      ],
      [
        "দে",
        "খ"
      ],
      [
        "শ",
        "্"
      ],
      [
        "খ",
        "ানে"
      ],
      [
        "ন্ত",
        "ু"
      ],
      [
        "অ",
        "ব"
      ],
      [
        "ট",
        "্র"
      ],
      [
        "ক",
        "ম"
      ],
      [
        "নি",
        "র্"
      ],
      [
        "শে",
        "ষ"
      ],
      [
        "অনে",
        "ক"
      ],
      [
        "তু",
        "মি"
      ],
      [
        "ল",
        "েন"
      ],
      [
        "ন",
        "য়"
      ],
      [
        "লা",
        "ম"
      ],
      [
        "কি",
        "ন্তু"
      ],
      [
        "চ",
        "ার"
      ],
      [
        "ম",
        "নে"
      ],
      [
        "ভা",
        "লো"
      ],
      [
        "স",
        "ঙ্"
      ],
      [
        "প",
        "ুর"
      ],
      [
        "কোন",
        "ো"
      ],
      [
        "ো",
        "র"
      ],
      [
        "ড়",
        "ি"
      ],
      [
        "বা",
        "ং"
      ],
      [
        "থা",
        "ক"
      ],
      [
        "ষ্",
        "ঠ"
      ],
      [
        "ব",
        "ং"
      ],
      [
        "র",
        "ি"
      ],
      [
        "ভা",
        "বে"
      ],
      [
        "নে",
        "ই"
      ],
      [
        "উ",
        "প"
      ],
      [
        "এ",
        "বং"
      ],
      [
        "ন্",
        "দ"
      ],
      [
        "ব",
        "ু"
      ],
      [
        "স",
        "হ"
      ],
      [
        "এক",
        "টি"
      ],
      [
        "শি",
        "ক্ষ"
      ],
      [
        "ন্",
        "ধ"
      ],
      [
        "বাং",
        "লা"
      ],
      [
        "ও",
        "য়ার"
      ],
      [
        "সর",
        "কার"
      ],
      [
        "্",
        "ড"
      ],
      [
        "সঙ্",
        "গে"
      ],
      [
        "ম",
        "ো"
      ],
      [
        "র",
        "ো"
      ],
      [
        "ম",
        "ধ্য"
      ],
      [
        "হ",
        "ার"
      ],
      [
        "তা",
        "দের"
      ],
      [
        "ক্ত",
        "ি"
      ],
      [
        "স",
        "্য"
      ],
      [
        "ুর",
        "ু"
      ],
      [
        "গু",
        "লো"
      ],
      [
        "তা",
        "ঁ"
      ],
      [
        "ু",
        "ষ"
      ],
      [
        "য়",
        "ের"
      ],
      [
        "এক",
        "টা"
      ],
      [
        "ছিল",
        "েন"
      ],
      [
        "চ",
        "িত"
      ],
      [
        "জ",
        "্"
      ],
      [
        "জ",
        "ার"
      ],
      [
        "ঞ",
        "্"
      ],
      [
        "ট",
        "ার"
      ],
      [
        "ম",
        "ন্ত্র"
      ],
      [
        "প",
        "ু"
      ],
      [
        "য",
        "ু"
      ],
      [
        "ব",
        "্যা"
      ],
      [
        "সম",
        "্"
      ],
      [
        "ক",
        "ের"
      ],
      [
        "বা",
        "ই"
      ],
      [
        "মধ্য",
        "ে"
      ],
      [
        "দেশ",
        "ের"
      ],
      [
        "অন",
        "ু"
      ],
      [
        "বা",
        "স"
      ],
      [
        "কর",
        "ি"
      ],
      [
        "পার",
        "ে"
      ],
      [
        "ত",
        "্য"
      ],
      [
        "ত",
        "্ত"
      ],
      [
        "ঠ",
        "িক"
      ],
      [
        "তার",
        "া"
      ],
      [
        "ব",
        "ছ"
      ],
      [
        "মান",
        "ুষ"
      ],
      [
        "ল",
        "ার"
      ],
      [
        "হ",
        "লে"
      ],
      [
        "ব",
        "ন্ধ"
      ],
      [
        "ান",
        "্ত"
      ],
      [
        "তো",
        "মার"
      ],
      [
        "দ",
        "্র"
      ],
      [
        "ল",
        "্প"
      ],
      [
        "্য",
        "ান"
      ],
      [
        "কর",
        "্ম"
      ],
      [
        "ফ",
        "ি"
      ],
      [
        "ক",
        "েন"
      ],
      [
        "ব",
        "ড়"
      ],
      [
        "ক",
        "ু"
      ],
      [
        "চ",
        "ল"
      ],
      [
        "গ",
        "ত"
      ],
      [
        "ঢ",
        "া"
      ],
      [
        "বি",
        "ষ"
      ],
      [
        "ব",
        "েন"
      ],
      [
        "শ",
        "্ব"
      ],
      [
        "ো",
        "ট"
      ],
      [
        "বে",
        "শ"
      ],
      [
        "ব্য",
        "ব"
      ],
      [
        "ম",
        "ী"
      ],
      [
        "বছ",
        "র"
      ],
      [
        "হ",
        "চ্ছে"
      ],
      [
        "ট",
        "ু"
      ],
      [
        "ল",
        "ী"
      ],
      [
        "ধ",
        "ার"
      ],
      [
        "গ",
        "ো"
      ],
      [
        "ভ",
        "ার"
      ],
      [
        "জ",
        "ী"
      ],
      [
        "ল",
        "্"
      ],
      [
        "দে",
        "খা"
      ],
      [
        "ন",
        "ী"
      ],
      [
        "স",
        "ো"
      ],
      [
        "সা",
        "থে"
      ],
      [
        "শ",
        "ুরু"
      ],
      [
        "এ",
        "সে"
      ],
      [
        "র্",
        "থ"
      ],
      [
        "প্র",
        "ধান"
      ],
      [
        "স",
        "ার"
      ],
      [
        "খু",
        "ব"
      ],
      [
        "না",
        "ম"
      ],
      [
        "ন্",
        "ন"
      ],
      [
        "আ",
        "গে"
      ],
      [
        "প",
        "্ত"
      ],
      [
        "বি",
        "শ্ব"
      ],
      [
        "ান",
        "ি"
      ],
      [
        "্যা",
        "ল"
      ],
      [
        "ফ",
        "ে"
      ],
      [
        "কা",
        "ল"
      ],
      [
        "দ",
        "ল"
      ],
      [
        "বি",
        "দ"
      ],
      [
        "প্র",
        "থ"
      ],
      [
        "স",
        "ের"
      ],
      [
        "ঙ্",
        "গ"
      ],
      [
        "আ",
        "ই"
      ],
      [
        "স্",
        "থা"
      ],
      [
        "মন্ত্র",
        "ী"
      ],
      [
        "ঢা",
        "কা"
      ],
      [
        "জ",
        "ের"
      ],
      [
        "অ",
        "ভি"
      ],
      [
        "র",
        "ু"
      ],
      [
        "দি",
        "কে"
      ],
      [
        "এ",
        "খানে"
      ],
      [
        "ম",
        "ের"
      ],
      [
        "ক্ষ",
        "ে"
      ],
      [
        "টি",
        "র"
      ],
      [
        "গ",
        "িয়ে"
      ],
      [
        "ধ",
        "ি"
      ],
      [
        "স্",
        "বা"
      ],
      [
        "ণ",
        "া"
      ],
      [
        "জী",
        "ব"
      ],
      [
        "ট",
        "ো"
      ],
      [
        "ান",
        "া"
      ],
      [
        "দু",
        "ই"
      ],
      [
        "কা",
        "ছে"
      ],
      [
        "গে",
        "ছে"
      ],
      [
        "ঘ",
        "ট"
      ],
      [
        "ত",
        "ের"
      ],
      [
        "ান",
        "ের"
      ],
      [
        "কর",
        "ার"
      ],
      [
        "ত",
        "ীয়"
      ],
      [
        "শ",
        "ী"
      ],
      [
        "চা",
        "ই"
      ],
      [
        "ষ্",
        "ট"
      ],
      [
        "আমা",
        "কে"
      ],
      [
        "গ্র",
        "া"
      ],
      [
        "তা",
        "ই"
      ],
      [
        "ধ",
        "ু"
      ],
      [
        "ম",
        "তো"
      ],
      [
        "জ্",
        "ঞ"
      ],
      [
        "স",
        "দ"
      ],
      [
        "হ",
        "ত"
      ],
      [
        "প্র",
        "া"
      ],
      [
        "কার",
        "ণ"
      ],
      [
        "প্রথ",
        "ম"
      ],
      [
        "রা",
        "জ"
      ],
      [
        "সে",
        "ই"
      ],
      [
        "শ",
        "্র"
      ],
      [
        "পর",
        "ে"
      ],
      [
        "ব",
        "ৃ"
      ],
      [
        "য়ে",
        "ছে"
      ],
      [
        "বা",
        "বা"
      ],
      [
        "অন",
        "্য"
      ],
      [
        "আ",
        "জ"
      ],
      [
        "উ",
        "দ্"
      ],
      [
        "ঠ",
        "ে"
      ],
      [
        "প",
        "তি"
      ],
      [
        "ড",
        "া"
      ],
      [
        "প",
        "ূ"
      ],
      [
        "প",
        "ড়"
      ],
      [
        "বা",
        "দ"
      ],
      [
        "তা",
        "কে"
      ],
      [
        "স",
        "মা"
      ],
      [
        "বে",
        "শি"
      ],
      [
        "দে",
        "শে"
      ],
      [
        "স্",
        "ব"
      ],
      [
        "নির্",
        "বা"
      ],
      [
        "প",
        "্"
      ],
      [
        "তি",
        "ন"
      ],
      [
        "ভা",
        "ব"
      ],
      [
        "গ",
        "ের"
      ],
      [
        "ধ",
        "ী"
      ],
      [
        "ান",
        "ো"
      ],
      [
        "র",
        "ের"
      ],
      [
        "বা",
        "ড়ি"
      ],
      [
        "ভা",
        "ই"
      ],
      [
        "ত",
        "বে"
      ],
      [
        "হ",
        "ে"
      ],
      [
        "হ",
        "লো"
      ],
      [
        "য়",
        "েন্"
      ],
      [
        "ক",
        "ৃ"
      ],
      [
        "এ",
        "ন"
      ],
      [
        "পর",
        "্য"
      ],
      [
        "চ",
        "লে"
      ],
      [
        "স",
        "েন"
      ],
      [
        "য়",
        "ো"
      ],
      [
        "রা",
        "খ"
      ],
      [
        "তু",
        "ন"
      ],
      [
        "হ",
        "ো"
      ],
      [
        "না",
        "য়"
      ],
      [
        "যা",
        "বে"
      ],
      [
        "গ্র",
        "হ"
      ],
      [
        "দে",
        "ওয়া"
      ],
      [
        "বর",
        "্ত"
      ],
      [
        "স্য",
        "ার"
      ],
      [
        "তাঁ",
        "র"
      ],
      [
        "চা",
        "ল"
      ],
      [
        "আপ",
        "নার"
      ],
      [
        "ং",
        "শ"
      ],
      [
        "ন",
        "তুন"
      ],
      [
        "ফ",
        "া"
      ],
      [
        "ব",
        "ই"
      ],
      [
        "ছ",
        "োট"
      ],
      [
        "ভ",
        "ে"
      ],
      [
        "ধ",
        "র"
      ],
      [
        "প",
        "ড়ে"
      ],
      [
        "এ",
        "মন"
      ],
      [
        "গ",
        "র"
      ],
      [
        "শ",
        "ো"
      ],
      [
        "ার",
        "া"
      ],
      [
        "সম",
        "্প"
      ],
      [
        "ক্র",
        "ি"
      ],
      [
        "ব",
        "ের"
      ],
      [
        "ত",
        "খন"
      ],
      [
        "ব",
        "্"
      ],
      [
        "কা",
        "শ"
      ],
      [
        "হা",
        "স"
      ],
      [
        "আর",
        "ও"
      ],
      [
        "গ",
        "ণ"
      ],
      [
        "দ",
        "ী"
      ],
      [
        "নি",
        "উ"
      ],
      [
        "ম",
        "্ব"
      ],
      [
        "র",
        "য়েছে"
      ],
      [
        "স",
        "বাই"
      ],
      [
        "করে",
        "ছে"
      ],
      [
        "ব",
        "্র"
      ],
      [
        "ঠ",
        "া"
      ],
      [
        "শ",
        "ন"
      ],
      [
        "তি",
        "ক"
      ],
      [
        "আপ",
        "নি"
      ],
      [
        "দি",
        "তে"
      ],
      [
        "ধ",
        "া"
      ],
      [
        "দে",
        "খে"
      ],
      [
        "র্",
        "ণ"
      ],
      [
        "ভি",
        "ন্ন"
      ],
      [
        "লা",
        "গ"
      ],
      [
        "লা",
        "য়"
      ],
      [
        "টা",
        "কা"
      ],
      [
        "ূ",
        "ল"
      ],
      [
        "নি",
        "য়"
      ],
      [
        "থা",
        "কে"
      ],
      [
        "হ",
        "ন"
      ],
      [
        "লি",
        "শ"
      ],
      [
        "চ",
        "ু"
      ],
      [
        "তি",
        "র"
      ],
      [
        "ক্ষ",
        "া"
      ],
      [
        "লো",
        "ক"
      ],
      [
        "ও",
        "ই"
      ],
      [
        "জান",
        "ান"
      ],
      [
        "থ",
        "ায়"
      ],
      [
        "এক",
        "জন"
      ],
      [
        "্",
        "থ"
      ],
      [
        "রা",
        "ষ্"
      ],
      [
        "স্",
        "ট"
      ],
      [
        "রাষ্",
        "ট্র"
      ],
      [
        "আ",
        "বার"
      ],
      [
        "ত",
        "্ব"
      ],
      [
        "স",
        "ূ"
      ],
      [
        "বিদ",
        "্যাল"
      ],
      [
        "ই",
        "উ"
      ],
      [
        "কে",
        "উ"
      ],
      [
        "ফ",
        "োর"
      ],
      [
        "কর",
        "ো"
      ],
      [
        "শিক্ষ",
        "া"
      ],
      [
        "দ",
        "ায়"
      ],
      [
        "হ",
        "ু"
      ],
      [
        "হ",
        "তে"
      ],
      [
        "ছা",
        "ড়া"
      ],
      [
        "দ",
        "ার"
      ],
      [
        "র",
        "ণ"
      ],
      [
        "পার",
        "ি"
      ],
      [
        "ই",
        "স"
      ],
      [
        "ু",
        "ন"
      ],
      [
        "কর",
        "ছে"
      ],
      [
        "নির্বা",
        "চ"
      ],
      [
        "ভ",
        "ব"
      ],
      [
        "চে",
        "য়ে"
      ],
      [
        "পু",
        "লিশ"
      ],
      [
        "আ",
        "হ"
      ],
      [
        "এ",
        "স"
      ],
      [
        "য",
        "ান"
      ],
      [
        "কর",
        "বে"
      ],
      [
        "সে",
        "টা"
      ],
      [
        "ব",
        "লা"
      ],
      [
        "শু",
        "ধু"
      ],
      [
        "স",
        "ী"
      ],
      [
        "করে",
        "ছেন"
      ],
      [
        "মু",
        "খ"
      ],
      [
        "আ",
        "রে"
      ],
      [
        "দ",
        "র"
      ],
      [
        "আ",
        "ন"
      ],
      [
        "ী",
        "দের"
      ],
      [
        "বি",
        "ডি"
      ],
      [
        "ষ্",
        "টি"
      ],
      [
        "য়েন্",
        "টি"
      ],
      [
        "ম",
        "ূল"
      ],
      [
        "হ",
        "ই"
      ],
      [
        "তো",
        "মা"
      ],
      [
        "হা",
        "সি"
      ],
      [
        "বি",
        "ভিন্ন"
      ],
      [
        "ড",
        "ট"
      ],
      [
        "উ",
        "ত্ত"
      ],
      [
        "ক",
        "খন"
      ],
      [
        "এক",
        "টু"
      ],
      [
        "হা",
        "জার"
      ],
      [
        "যে",
        "তে"
      ],
      [
        "ধার",
        "ণ"
      ],
      [
        "নিউ",
        "জ"
      ],
      [
        "অ",
        "ধি"
      ],
      [
        "ষ্",
        "টা"
      ],
      [
        "ডট",
        "কম"
      ],
      [
        "আ",
        "লো"
      ],
      [
        "উ",
        "ন্"
      ],
      [
        "ট",
        "ের"
      ],
      [
        "বি",
        "এন"
      ],
      [
        "শে",
        "খ"
      ],
      [
        "দু",
        "র্"
      ],
      [
        "প্রতি",
        "ষ্ঠ"
      ],
      [
        "ছা",
        "ত্র"
      ],
      [
        "বিডি",
        "নিউজ"
      ],
      [
        "দ",
        "েন"
      ],
      [
        "য়েন্টি",
        "ফোর"
      ],
      [
        "বিষ",
        "য়"
      ],
      [
        "ন্দ",
        "র"
      ],
      [
        "না",
        "ই"
      ],
      [
        "ত",
        "ৈ"
      ],
      [
        "দ",
        "্য"
      ],
      [
        "প",
        "ো"
      ],
      [
        "য",
        "দি"
      ],
      [
        "ল",
        "ন"
      ],
      [
        "য়ে",
        "ক"
      ],
      [
        "র",
        "হ"
      ],
      [
        "নি",
        "জে"
      ],
      [
        "স্থ",
        "ান"
      ],
      [
        "পর্য",
        "ন্ত"
      ],
      [
        "য়ো",
        "জন"
      ],
      [
        "হ",
        "ী"
      ],
      [
        "কর",
        "ছি"
      ],
      [
        "মি",
        "ক"
      ],
      [
        "জান",
        "া"
      ],
      [
        "বু",
        "ঝ"
      ],
      [
        "অ",
        "ংশ"
      ],
      [
        "এ",
        "ম"
      ],
      [
        "দ",
        "লের"
      ],
      [
        "ফ",
        "ু"
      ],
      [
        "ভ",
        "ূ"
      ],
      [
        "বা",
        "ড়"
      ],
      [
        "হি",
        "সে"
      ],
      [
        "এ",
        "সব"
      ],
      [
        "ক",
        "য়েক"
      ],
      [
        "কর",
        "্ত"
      ],
      [
        "পা",
        "ঠ"
      ],
      [
        "দা",
        "ও"
      ],
      [
        "অ",
        "র্থ"
      ],
      [
        "ফ",
        "ো"
      ],
      [
        "প্র",
        "কাশ"
      ],
      [
        "জান",
        "িয়ে"
      ],
      [
        "ড",
        "ে"
      ],
      [
        "শ",
        "্য"
      ],
      [
        "দেখ",
        "তে"
      ],
      [
        "টো",
        "য়েন্টিফোর"
      ],
      [
        "হিসে",
        "বে"
      ],
      [
        "কা",
        "য়"
      ],
      [
        "কা",
        "লে"
      ],
      [
        "প্রধান",
        "মন্ত্রী"
      ],
      [
        "খ",
        "ান"
      ],
      [
        "ছ",
        "বি"
      ],
      [
        "জ",
        "ায়"
      ],
      [
        "ধ",
        "রে"
      ],
      [
        "ফ",
        "ল"
      ],
      [
        "ম",
        "্যা"
      ],
      [
        "বাংলা",
        "দেশ"
      ],
      [
        "ও",
        "কে"
      ],
      [
        "খ",
        "ো"
      ],
      [
        "বি",
        "শেষ"
      ],
      [
        "গে",
        "ল"
      ],
      [
        "মু",
        "ক্তি"
      ],
      [
        "ক",
        "ল"
      ],
      [
        "ম",
        "্"
      ],
      [
        "ক",
        "ত"
      ],
      [
        "ল",
        "ু"
      ],
      [
        "আ",
        "ওয়া"
      ],
      [
        "ত",
        "ৃ"
      ],
      [
        "ার",
        "্থ"
      ],
      [
        "মা",
        "ত্র"
      ],
      [
        "বল",
        "তে"
      ],
      [
        "মান",
        "ে"
      ],
      [
        "বাংলা",
        "দেশের"
      ],
      [
        "অনু",
        "ষ্ঠ"
      ],
      [
        "উ",
        "ৎ"
      ],
      [
        "দ",
        "ূ"
      ],
      [
        "ম",
        "তা"
      ],
      [
        "মা",
        "ধ্য"
      ],
      [
        "রা",
        "জন"
      ],
      [
        "যা",
        "ও"
      ],
      [
        "সু",
        "ন্দর"
      ],
      [
        "ক",
        "মি"
      ],
      [
        "জ",
        "ু"
      ],
      [
        "ম",
        "ৃ"
      ],
      [
        "ছে",
        "লে"
      ],
      [
        "সা",
        "ধারণ"
      ],
      [
        "ভা",
        "ষ"
      ],
      [
        "গ্রহ",
        "ণ"
      ],
      [
        "ও",
        "র"
      ],
      [
        "ম",
        "ত"
      ],
      [
        "দি",
        "ক"
      ],
      [
        "পা",
        "দ"
      ],
      [
        "েন্",
        "দ্র"
      ],
      [
        "বন্ধ",
        "ু"
      ],
      [
        "ইস",
        "লাম"
      ],
      [
        "সদ",
        "স্য"
      ],
      [
        "ব",
        "ী"
      ],
      [
        "নি",
        "জের"
      ],
      [
        "লে",
        "খ"
      ],
      [
        "যু",
        "ক্ত"
      ],
      [
        "ধর",
        "নের"
      ],
      [
        "হ",
        "্যা"
      ],
      [
        "প্র",
        "ি"
      ],
      [
        "প্র",
        "ে"
      ],
      [
        "ড়",
        "িয়ে"
      ],
      [
        "গ",
        "ঠ"
      ],
      [
        "দা",
        "ঁ"
      ],
      [
        "রহ",
        "মান"
      ],
      [
        "দ",
        "র্"
      ],
      [
        "পার",
        "েন"
      ],
      [
        "মে",
        "য়ে"
      ],
      [
        "ঘট",
        "না"
      ],
      [
        "ম্ব",
        "র"
      ],
      [
        "অ",
        "র্"
      ],
      [
        "প্র",
        "শ্"
      ],
      [
        "মানুষ",
        "ের"
      ],
      [
        "ঁ",
        "চ"
      ],
      [
        "ধ",
        "র্"
      ],
      [
        "কর",
        "লে"
      ],
      [
        "দা",
        "বি"
      ],
      [
        "জীব",
        "ন"
      ],
      [
        "দ",
        "ো"
      ],
      [
        "ভ",
        "র"
      ],
      [
        "ভ",
        "য়"
      ],
      [
        "্",
        "ট"
      ],
      [
        "পর",
        "ী"
      ],
      [
        "হয়",
        "নি"
      ],
      [
        "চ্",
        "ছা"
      ],
      [
        "প",
        "ের"
      ],
      [
        "ু",
        "ত"
      ],
      [
        "ান",
        "্"
      ],
      [
        "ক্",
        "স"
      ],
      [
        "ব্যব",
        "স্থা"
      ],
      [
        "সম্প",
        "র্"
      ],
      [
        "আওয়া",
        "মী"
      ],
      [
        "আ",
        "ব"
      ],
      [
        "ত",
        "্যা"
      ],
      [
        "ব",
        "ৈ"
      ],
      [
        "বে",
        "দ"
      ],
      [
        "কো",
        "থায়"
      ],
      [
        "চ্",
        "ছি"
      ],
      [
        "ণ",
        "্ড"
      ],
      [
        "প",
        "ৌ"
      ],
      [
        "য",
        "েন"
      ],
      [
        "বিষ",
        "য়ে"
      ],
      [
        "ঘ",
        "া"
      ],
      [
        "ঠ",
        "ি"
      ],
      [
        "স",
        "ভা"
      ],
      [
        "মা",
        "ণ"
      ],
      [
        "সরকার",
        "ি"
      ],
      [
        "সরকার",
        "ের"
      ],
      [
        "বিশ্ব",
        "বিদ্যাল"
      ],
      [
        "কারণ",
        "ে"
      ],
      [
        "তৈ",
        "রি"
      ],
      [
        "এ",
        "তে"
      ],
      [
        "চ",
        "না"
      ],
      [
        "প",
        "দ"
      ],
      [
        "নে",
        "তা"
      ],
      [
        "খে",
        "লা"
      ],
      [
        "আপ",
        "না"
      ],
      [
        "ফি",
        "রে"
      ],
      [
        "উ",
        "চিত"
      ],
      [
        "ব",
        "স"
      ],
      [
        "ম",
        "র"
      ],
      [
        "প্র",
        "ায়"
      ],
      [
        "সে",
        "খানে"
      ],
      [
        "থাক",
        "বে"
      ],
      [
        "প",
        "রা"
      ],
      [
        "স",
        "ত্য"
      ],
      [
        "দে",
        "য়"
      ],
      [
        "করে",
        "ছি"
      ],
      [
        "মার",
        "া"
      ],
      [
        "বল",
        "ি"
      ],
      [
        "কখন",
        "ো"
      ],
      [
        "এ",
        "লা"
      ],
      [
        "তা",
        "হলে"
      ],
      [
        "লা",
        "ই"
      ],
      [
        "র্",
        "ব"
      ],
      [
        "সা",
        "লে"
      ],
      [
        "গা",
        "মী"
      ],
      [
        "পে",
        "য়ে"
      ],
      [
        "ঞ্",
        "চ"
      ],
      [
        "যু",
        "দ্ধ"
      ],
      [
        "এ",
        "বার"
      ],
      [
        "ত",
        "্"
      ],
      [
        "থ",
        "্য"
      ],
      [
        "ৈ",
        "তিক"
      ],
      [
        "নি",
        "শ্"
      ],
      [
        "বি",
        "র"
      ],
      [
        "চে",
        "ষ্টা"
      ],
      [
        "এ",
        "কা"
      ],
      [
        "ব",
        "ক্ত"
      ],
      [
        "ি",
        "তে"
      ],
      [
        "হা",
        "ম"
      ],
      [
        "জা",
        "তীয়"
      ],
      [
        "ত্র",
        "ে"
      ],
      [
        "্যান",
        "্ড"
      ],
      [
        "তোমা",
        "কে"
      ],
      [
        "ও",
        "পর"
      ],
      [
        "ঘ",
        "ো"
      ],
      [
        "ন",
        "ানা"
      ],
      [
        "ম",
        "হ"
      ],
      [
        "হা",
        "তে"
      ],
      [
        "পূ",
        "র্ণ"
      ],
      [
        "ক",
        "েন্দ্র"
      ],
      [
        "জ",
        "য়"
      ],
      [
        "মা",
        "ম"
      ],
      [
        "র্",
        "ষ"
      ],
      [
        "পা",
        "তা"
      ],
      [
        "জে",
        "লা"
      ],
      [
        "বো",
        "ধ"
      ],
      [
        "চিত",
        "্র"
      ],
      [
        "সা",
        "ং"
      ],
      [
        "রে",
        "খে"
      ],
      [
        "খা",
        "লে"
      ],
      [
        "খ",
        "্যা"
      ],
      [
        "গ",
        "ল্প"
      ],
      [
        "ঘ",
        "ু"
      ],
      [
        "চ",
        "ো"
      ],
      [
        "ন",
        "্য"
      ],
      [
        "শ",
        "হ"
      ],
      [
        "হা",
        "ত"
      ],
      [
        "শ্",
        "বাস"
      ],
      [
        "মাধ্য",
        "মে"
      ],
      [
        "এ",
        "টি"
      ],
      [
        "গ",
        "ুরু"
      ],
      [
        "ন",
        "ো"
      ],
      [
        "কর",
        "ব"
      ],
      [
        "বি",
        "চার"
      ],
      [
        "যা",
        "ত্র"
      ],
      [
        "ক",
        "লে"
      ],
      [
        "ত",
        "থ্য"
      ],
      [
        "থ",
        "ি"
      ],
      [
        "বি",
        "ক"
      ],
      [
        "প্র",
        "য়োজন"
      ],
      [
        "টি",
        "তে"
      ],
      [
        "প",
        "ক্ষ"
      ],
      [
        "েন",
        "ে"
      ],
      [
        "বি",
        "রো"
      ],
      [
        "ভা",
        "গ"
      ],
      [
        "শি",
        "শু"
      ],
      [
        "জি",
        "য়া"
      ],
      [
        "স্থ",
        "ায়"
      ],
      [
        "ছ",
        "ো"
      ],
      [
        "এক",
        "ই"
      ],
      [
        "মার",
        "্"
      ],
      [
        "আর",
        "ো"
      ],
      [
        "েন্",
        "ট"
      ],
      [
        "ব",
        "য়"
      ],
      [
        "ী",
        "রা"
      ],
      [
        "কে",
        "ট"
      ],
      [
        "আই",
        "ন"
      ],
      [
        "মৃ",
        "ত্য"
      ],
      [
        "প",
        "ানি"
      ],
      [
        "ব",
        "লো"
      ],
      [
        "হ",
        "ওয়ার"
      ],
      [
        "নি",
        "তে"
      ],
      [
        "পা",
        "ওয়া"
      ],
      [
        "িত",
        "্ব"
      ],
      [
        "তু",
        "লে"
      ],
      [
        "চি",
        "ন্ত"
      ],
      [
        "উত্ত",
        "র"
      ],
      [
        "ক",
        "্যা"
      ],
      [
        "য",
        "খন"
      ],
      [
        "ু",
        "য়ার"
      ],
      [
        "সা",
        "মনে"
      ],
      [
        "হো",
        "সেন"
      ],
      [
        "অ",
        "্যা"
      ],
      [
        "এ",
        "ত"
      ],
      [
        "স",
        "ন্ত"
      ],
      [
        "নি",
        "ক"
      ],
      [
        "বা",
        "য়"
      ],
      [
        "অব",
        "শ্য"
      ],
      [
        "আ",
        "য়"
      ],
      [
        "আ",
        "সা"
      ],
      [
        "উ",
        "ঠ"
      ],
      [
        "প",
        "ান"
      ],
      [
        "কর",
        "বেন"
      ],
      [
        "নি",
        "র"
      ],
      [
        "ল্",
        "লা"
      ],
      [
        "খালে",
        "দা"
      ],
      [
        "জ",
        "ল"
      ],
      [
        "ভ",
        "িত"
      ],
      [
        "স",
        "্যা"
      ],
      [
        "্য",
        "ে"
      ],
      [
        "না",
        "মে"
      ],
      [
        "বা",
        "ঁ"
      ],
      [
        "বা",
        "জার"
      ],
      [
        "সা",
        "হা"
      ],
      [
        "কিছু",
        "ই"
      ],
      [
        "সম্",
        "ভব"
      ],
      [
        "আ",
        "গামী"
      ],
      [
        "উ",
        "ঠে"
      ],
      [
        "প",
        "থ"
      ],
      [
        "ভ",
        "ু"
      ],
      [
        "কে",
        "মন"
      ],
      [
        "সা",
        "ই"
      ],
      [
        "ক্ষ",
        "ণ"
      ],
      [
        "পরি",
        "চাল"
      ],
      [
        "আস",
        "লে"
      ],
      [
        "পৌ",
        "ঁ"
      ],
      [
        "র",
        "কম"
      ],
      [
        "ান",
        "োর"
      ],
      [
        "তা",
        "য়"
      ],
      [
        "প্র",
        "স্ত"
      ],
      [
        "রা",
        "তে"
      ],
      [
        "শি",
        "ল্প"
      ],
      [
        "জান",
        "ি"
      ],
      [
        "ব্যব",
        "হার"
      ],
      [
        "বাড়ি",
        "তে"
      ],
      [
        "হ্যা",
        "ঁ"
      ],
      [
        "খ",
        "ি"
      ],
      [
        "ত",
        "ী"
      ],
      [
        "ম",
        "য়"
      ],
      [
        "না",
        "কি"
      ],
      [
        "রা",
        "ত"
      ],
      [
        "বার",
        "ের"
      ],
      [
        "যা",
        "চ্ছে"
      ],
      [
        "গু",
        "লি"
      ],
      [
        "ঘ",
        "রে"
      ],
      [
        "ষ",
        "ণা"
      ],
      [
        "স্",
        "ক"
      ],
      [
        "বিএন",
        "পি"
      ],
      [
        "প্রশ্",
        "ন"
      ],
      [
        "দ",
        "শ"
      ],
      [
        "ধ",
        "ে"
      ],
      [
        "দি",
        "নের"
      ],
      [
        "বল",
        "লেন"
      ],
      [
        "শেষ",
        "ে"
      ],
      [
        "ধী",
        "ন"
      ],
      [
        "বক্ত",
        "ব্য"
      ],
      [
        "ত",
        "ম"
      ],
      [
        "প",
        "ির"
      ],
      [
        "ম",
        "্প"
      ],
      [
        "স",
        "ন্"
      ],
      [
        "হ",
        "ের"
      ],
      [
        "পা",
        "ই"
      ],
      [
        "লি",
        "য়ে"
      ],
      [
        "যা",
        "ই"
      ],
      [
        "জান",
        "তে"
      ],
      [
        "চি",
        "কি"
      ],
      [
        "এখন",
        "ো"
      ],
      [
        "আ",
        "সে"
      ],
      [
        "ত",
        "েন"
      ],
      [
        "য",
        "্য"
      ],
      [
        "ল",
        "তে"
      ],
      [
        "সম",
        "স্যা"
      ],
      [
        "স্ত",
        "্র"
      ],
      [
        "শিক্ষ",
        "ার্থ"
      ],
      [
        "ক্ষে",
        "ত্রে"
      ],
      [
        "গ্রা",
        "ম"
      ],
      [
        "চিকি",
        "ৎ"
      ],
      [
        "ও",
        "রা"
      ],
      [
        "ঝ",
        "া"
      ],
      [
        "ভ",
        "ুল"
      ],
      [
        "শ",
        "র"
      ],
      [
        "দ্",
        "বি"
      ],
      [
        "গা",
        "ছ"
      ],
      [
        "ক্র",
        "ম"
      ],
      [
        "বাই",
        "রে"
      ],
      [
        "বছর",
        "ের"
      ],
      [
        "আ",
        "ট"
      ],
      [
        "চ",
        "র"
      ],
      [
        "হ",
        "ল"
      ],
      [
        "স্",
        "টে"
      ],
      [
        "কি",
        "স্ত"
      ],
      [
        "সা",
        "লের"
      ],
      [
        "ক্ষ",
        "মতা"
      ],
      [
        "ব্য",
        "ক্তি"
      ],
      [
        "থাক",
        "তে"
      ],
      [
        "ঞ্",
        "জ"
      ],
      [
        "নির্বাচ",
        "ন"
      ],
      [
        "দর",
        "কার"
      ],
      [
        "হাসি",
        "না"
      ],
      [
        "ফো",
        "ন"
      ],
      [
        "গ",
        "ান"
      ],
      [
        "প",
        "ক্ষে"
      ],
      [
        "ব",
        "ান"
      ],
      [
        "পা",
        "কিস্ত"
      ],
      [
        "জন",
        "্ম"
      ],
      [
        "গে",
        "লে"
      ],
      [
        "শু",
        "ন"
      ],
      [
        "কর্ম",
        "কর্ত"
      ],
      [
        "এসে",
        "ছে"
      ],
      [
        "উন্",
        "নয়"
      ],
      [
        "ই",
        "তি"
      ],
      [
        "প",
        "ৃ"
      ],
      [
        "স",
        "কাল"
      ],
      [
        "বি",
        "শ্বাস"
      ],
      [
        "গা",
        "ড়ি"
      ],
      [
        "রু",
        "দ্ধ"
      ],
      [
        "হত",
        "্যা"
      ],
      [
        "সেন",
        "া"
      ],
      [
        "খ",
        "বর"
      ],
      [
        "ী",
        "তি"
      ],
      [
        "মা",
        "ঝ"
      ],
      [
        "পা",
        "ঁচ"
      ],
      [
        "কো",
        "টি"
      ],
      [
        "পুর",
        "ো"
      ],
      [
        "সাহা",
        "য্য"
      ],
      [
        "ও",
        "য়"
      ],
      [
        "শ",
        "ান্ত"
      ],
      [
        "স",
        "ৃ"
      ],
      [
        "লা",
        "খ"
      ],
      [
        "ছি",
        "লাম"
      ],
      [
        "সা",
        "বে"
      ],
      [
        "ুর",
        "ে"
      ],
      [
        "হাস",
        "পাতা"
      ],
      [
        "আ",
        "ল"
      ],
      [
        "দ",
        "ান"
      ],
      [
        "প",
        "ড়া"
      ],
      [
        "্য",
        "ের"
      ],
      [
        "লা",
        "গে"
      ],
      [
        "সি",
        "দ্ধ"
      ],
      [
        "চে",
        "য়ার"
      ],
      [
        "ব্যা",
        "ং"
      ],
      [
        "ঙ্গ",
        "ল"
      ],
      [
        "দর্",
        "শ"
      ],
      [
        "সভা",
        "পতি"
      ],
      [
        "বিরো",
        "ধী"
      ],
      [
        "দ",
        "ৃ"
      ],
      [
        "ূ",
        "প"
      ],
      [
        "বা",
        "হি"
      ],
      [
        "লে",
        "খা"
      ],
      [
        "জন",
        "ের"
      ],
      [
        "সি",
        "নে"
      ],
      [
        "দু",
        "ল"
      ],
      [
        "সং",
        "বাদ"
      ],
      [
        "স্থ",
        "ি"
      ],
      [
        "শিক্ষ",
        "ক"
      ],
      [
        "গুলো",
        "র"
      ],
      [
        "লী",
        "গের"
      ],
      [
        "জ্ঞ",
        "ান"
      ],
      [
        "প্রতিষ্ঠ",
        "ান"
      ],
      [
        "উ",
        "ই"
      ],
      [
        "চ",
        "ায়"
      ],
      [
        "ণ",
        "্"
      ],
      [
        "শ",
        "ার"
      ],
      [
        "বি",
        "রুদ্ধ"
      ],
      [
        "দে",
        "ওয়ার"
      ],
      [
        "পা",
        "শে"
      ],
      [
        "পার",
        "বে"
      ],
      [
        "সু",
        "যোগ"
      ],
      [
        "লী",
        "গ"
      ],
      [
        "দায়",
        "িত্ব"
      ],
      [
        "বিরুদ্ধ",
        "ে"
      ],
      [
        "অ",
        "তি"
      ],
      [
        "আ",
        "ছি"
      ],
      [
        "আ",
        "দা"
      ],
      [
        "ত",
        "র"
      ],
      [
        "ব",
        "সে"
      ],
      [
        "শ",
        "নি"
      ],
      [
        "স",
        "বার"
      ],
      [
        "হ",
        "িত"
      ],
      [
        "তে",
        "ই"
      ],
      [
        "স্",
        "কু"
      ],
      [
        "সব",
        "চেয়ে"
      ],
      [
        "সম্",
        "মে"
      ],
      [
        "ফে",
        "লে"
      ],
      [
        "ও",
        "দের"
      ],
      [
        "জ",
        "র"
      ],
      [
        "ছি",
        "লো"
      ],
      [
        "পার",
        "্"
      ],
      [
        "দু",
        "ঃ"
      ],
      [
        "খু",
        "ঁ"
      ],
      [
        "দেখ",
        "ি"
      ],
      [
        "অধি",
        "কার"
      ],
      [
        "প্রি",
        "য়"
      ],
      [
        "ধর্",
        "ম"
      ],
      [
        "গুরু",
        "ত্ব"
      ],
      [
        "ই",
        "ন"
      ],
      [
        "ই",
        "ন্"
      ],
      [
        "গ",
        "ার"
      ],
      [
        "চ",
        "লো"
      ],
      [
        "ত",
        "্ম"
      ],
      [
        "ল",
        "ক্ষ"
      ],
      [
        "স",
        "কালে"
      ],
      [
        "া",
        "যোগ"
      ],
      [
        "খু",
        "শি"
      ],
      [
        "যোগ",
        "াযোগ"
      ],
      [
        "গত",
        "কাল"
      ],
      [
        "সার",
        "া"
      ],
      [
        "ভূ",
        "মি"
      ],
      [
        "সম্পর্",
        "কে"
      ],
      [
        "ুয়ার",
        "ি"
      ],
      [
        "শনি",
        "বার"
      ],
      [
        "ং",
        "স"
      ],
      [
        "উ",
        "ল্"
      ],
      [
        "ণ",
        "ে"
      ],
      [
        "ত",
        "ন"
      ],
      [
        "ম",
        "হা"
      ],
      [
        "য",
        "ো"
      ],
      [
        "্ত",
        "ি"
      ],
      [
        "বি",
        "ত"
      ],
      [
        "বি",
        "য়ে"
      ],
      [
        "মা",
        "ল"
      ],
      [
        "য়া",
        "ল"
      ],
      [
        "তো",
        "র"
      ],
      [
        "চ্",
        "চ"
      ],
      [
        "দু",
        "টি"
      ],
      [
        "আস",
        "ছে"
      ],
      [
        "এর",
        "পর"
      ],
      [
        "ট্র",
        "ো"
      ],
      [
        "থাক",
        "লে"
      ],
      [
        "স্বা",
        "ধীন"
      ],
      [
        "মৃত্য",
        "ু"
      ],
      [
        "সিদ্ধ",
        "ান্ত"
      ],
      [
        "ও",
        "টা"
      ],
      [
        "খ",
        "ারা"
      ],
      [
        "ছ",
        "য়"
      ],
      [
        "ম",
        "ঙ্গল"
      ],
      [
        "শ",
        "ের"
      ],
      [
        "স",
        "ন"
      ],
      [
        "টা",
        "য়"
      ],
      [
        "ুর",
        "ি"
      ],
      [
        "জে",
        "লার"
      ],
      [
        "পরি",
        "বেশ"
      ],
      [
        "পরি",
        "বর্ত"
      ],
      [
        "কী",
        "ভাবে"
      ],
      [
        "খু",
        "ন"
      ],
      [
        "অব",
        "স্থা"
      ],
      [
        "ব্যা",
        "পার"
      ],
      [
        "সম্",
        "পাদ"
      ],
      [
        "আরে",
        "ক"
      ],
      [
        "আপনা",
        "কে"
      ],
      [
        "সাং",
        "বা"
      ],
      [
        "ক",
        "বি"
      ],
      [
        "চ",
        "য়"
      ],
      [
        "ফ",
        "ের"
      ],
      [
        "ব",
        "ীর"
      ],
      [
        "২",
        "০"
      ],
      [
        "নি",
        "রা"
      ],
      [
        "না",
        "ও"
      ],
      [
        "কা",
        "জে"
      ],
      [
        "রা",
        "জা"
      ],
      [
        "সম",
        "য়ে"
      ],
      [
        "গ্র",
        "ে"
      ],
      [
        "দিয়ে",
        "ছে"
      ],
      [
        "আস",
        "বে"
      ],
      [
        "নী",
        "তি"
      ],
      [
        "বৃ",
        "হ"
      ],
      [
        "চো",
        "খ"
      ],
      [
        "আ",
        "ছেন"
      ],
      [
        "ই",
        "ং"
      ],
      [
        "ণ",
        "ের"
      ],
      [
        "ফ",
        "ুল"
      ],
      [
        "য",
        "ারা"
      ],
      [
        "বে",
        "ঁ"
      ],
      [
        "মি",
        "নি"
      ],
      [
        "নে",
        "ওয়া"
      ],
      [
        "থা",
        "কা"
      ],
      [
        "পা",
        "খি"
      ],
      [
        "কার",
        "ী"
      ],
      [
        "কার",
        "্য"
      ],
      [
        "ড়া",
        "ই"
      ],
      [
        "যোগ",
        "্য"
      ],
      [
        "কর্ম",
        "সূ"
      ],
      [
        "দল",
        "ীয়"
      ],
      [
        "দ্বি",
        "তীয়"
      ],
      [
        "খারা",
        "প"
      ],
      [
        "প",
        "ত্র"
      ],
      [
        "ফ",
        "্র"
      ],
      [
        "ল",
        "্যান্ড"
      ],
      [
        "কর",
        "ছেন"
      ],
      [
        "কে",
        "টে"
      ],
      [
        "যা",
        "ওয়ার"
      ],
      [
        "যে",
        "মন"
      ],
      [
        "জ্ঞ",
        "া"
      ],
      [
        "হো",
        "ক"
      ],
      [
        "জায়",
        "গা"
      ],
      [
        "অ",
        "ধ"
      ],
      [
        "ফ",
        "ির"
      ],
      [
        "স",
        "ড়"
      ],
      [
        "হ",
        "ওয়া"
      ],
      [
        "১",
        "৯"
      ],
      [
        "ছে",
        "ড়ে"
      ],
      [
        "স্",
        "কার"
      ],
      [
        "কো",
        "থা"
      ],
      [
        "যা",
        "ওয়া"
      ],
      [
        "দা",
        "ম"
      ],
      [
        "মু",
        "খে"
      ],
      [
        "উদ্",
        "দিন"
      ],
      [
        "ঘো",
        "ষণা"
      ],
      [
        "মহ",
        "ান"
      ],
      [
        "সাংবা",
        "দিক"
      ],
      [
        "উ",
        "দ্য"
      ],
      [
        "জ",
        "িত"
      ],
      [
        "ন",
        "েন"
      ],
      [
        "ম",
        "ৌ"
      ],
      [
        "স",
        "ক"
      ],
      [
        "কর",
        "বো"
      ],
      [
        "লি",
        "ক"
      ],
      [
        "ষ্",
        "কার"
      ],
      [
        "হয়ে",
        "ছিল"
      ],
      [
        "থেকে",
        "ই"
      ],
      [
        "স্থ",
        "িত"
      ],
      [
        "বিএন",
        "পির"
      ],
      [
        "রাজন",
        "ৈতিক"
      ],
      [
        "চিন্ত",
        "া"
      ],
      [
        "পরিচাল",
        "ক"
      ],
      [
        "মঙ্গল",
        "বার"
      ],
      [
        "এ",
        "গিয়ে"
      ],
      [
        "চ",
        "ের"
      ],
      [
        "জ",
        "ো"
      ],
      [
        "ড",
        "ার"
      ],
      [
        "দ",
        "ক্ষ"
      ],
      [
        "ন",
        "দী"
      ],
      [
        "প",
        "ক"
      ],
      [
        "প",
        "ন"
      ],
      [
        "ম",
        "্যান"
      ],
      [
        "র",
        "োগ"
      ],
      [
        "শ",
        "ক্তি"
      ],
      [
        "বা",
        "ব"
      ],
      [
        "পর",
        "্যা"
      ],
      [
        "তার",
        "পর"
      ],
      [
        "তু",
        "ই"
      ],
      [
        "খা",
        "বার"
      ],
      [
        "পরি",
        "স্থি"
      ],
      [
        "আস",
        "তে"
      ],
      [
        "ট্র",
        "া"
      ],
      [
        "ব্যা",
        "পারে"
      ],
      [
        "গ্রা",
        "মের"
      ],
      [
        "ল্লা",
        "হ"
      ],
      [
        "সিনে",
        "মা"
      ],
      [
        "।",
        "\""
      ],
      [
        "উ",
        "পর"
      ],
      [
        "ক",
        "মে"
      ],
      [
        "ঘ",
        "র"
      ],
      [
        "দ",
        "ুর"
      ],
      [
        "ধ",
        "ুর"
      ],
      [
        "ন",
        "্যা"
      ],
      [
        "ফ",
        "লে"
      ],
      [
        "স",
        "ৈ"
      ],
      [
        "বা",
        "চ্"
      ],
      [
        "বে",
        "ড়ে"
      ],
      [
        "দি",
        "নে"
      ],
      [
        "মে",
        "ট্রো"
      ],
      [
        "তু",
        "ল"
      ],
      [
        "খে",
        "তে"
      ],
      [
        "ছু",
        "টি"
      ],
      [
        "বলে",
        "ছেন"
      ],
      [
        "সহ",
        "ায়"
      ],
      [
        "রো",
        "ব"
      ],
      [
        "যু",
        "ক্তি"
      ],
      [
        "অভি",
        "যোগ"
      ],
      [
        "লাগ",
        "বে"
      ],
      [
        "বেদ",
        "ন"
      ],
      [
        "উল্",
        "লেখ"
      ],
      [
        "সম্পাদ",
        "ক"
      ],
      [
        "ও",
        "হ"
      ],
      [
        "থ",
        "ান"
      ],
      [
        "প",
        "ায়"
      ],
      [
        "কর",
        "ুন"
      ],
      [
        "কে",
        "ল"
      ],
      [
        "তা",
        "ম"
      ],
      [
        "স্",
        "টার"
      ],
      [
        "স্",
        "পতি"
      ],
      [
        "জন",
        "গণ"
      ],
      [
        "জি",
        "নি"
      ],
      [
        "সহ",
        "জ"
      ],
      [
        "তাঁ",
        "দের"
      ],
      [
        "সো",
        "ম"
      ],
      [
        "খুব",
        "ই"
      ],
      [
        "ফু",
        "ট"
      ],
      [
        "গঠ",
        "ন"
      ],
      [
        "বিশ্ববিদ্যাল",
        "য়ের"
      ],
      [
        "নিশ্",
        "চিত"
      ],
      [
        "বৃহ",
        "স্পতি"
      ],
      [
        "আ",
        "শা"
      ],
      [
        "আ",
        "গের"
      ],
      [
        "এ",
        "কে"
      ],
      [
        "এ",
        "ভাবে"
      ],
      [
        "এ",
        "ছাড়া"
      ],
      [
        "ভ",
        "ো"
      ],
      [
        "বা",
        "স্ত"
      ],
      [
        "মি",
        "ত"
      ],
      [
        "নে",
        "তৃ"
      ],
      [
        "পা",
        "শা"
      ],
      [
        "পা",
        "লন"
      ],
      [
        "বল",
        "ল"
      ],
      [
        "লি",
        "ত"
      ],
      [
        "ন্দ",
        "ো"
      ],
      [
        "জ্",
        "জা"
      ],
      [
        "স্বা",
        "স্থ"
      ],
      [
        "শ্র",
        "ে"
      ],
      [
        "পৃ",
        "থি"
      ],
      [
        "বৃহস্পতি",
        "বার"
      ],
      [
        "অ",
        "পে"
      ],
      [
        "আ",
        "চ্ছা"
      ],
      [
        "ক",
        "হি"
      ],
      [
        "ঘ",
        "টে"
      ],
      [
        "ম",
        "র্"
      ],
      [
        "র",
        "ান"
      ],
      [
        "নি",
        "চে"
      ],
      [
        "র্",
        "ঘ"
      ],
      [
        "যে",
        "খানে"
      ],
      [
        "চি",
        "ব"
      ],
      [
        "বিশ্ব",
        "কা"
      ],
      [
        "গ্রা",
        "মে"
      ],
      [
        "রাখ",
        "তে"
      ],
      [
        "চু",
        "প"
      ],
      [
        "মাম",
        "লা"
      ],
      [
        "অবশ্য",
        "ই"
      ],
      [
        "দুঃ",
        "খ"
      ],
      [
        "আ",
        "শ"
      ],
      [
        "আ",
        "ব্"
      ],
      [
        "চ",
        "ৌ"
      ],
      [
        "ত",
        "দ"
      ],
      [
        "য",
        "ত"
      ],
      [
        "ূ",
        "র"
      ],
      [
        "নি",
        "জ"
      ],
      [
        "বা",
        "হ"
      ],
      [
        "বি",
        "ল"
      ],
      [
        "লা",
        "ভ"
      ],
      [
        "দে",
        "য়া"
      ],
      [
        "টা",
        "ই"
      ],
      [
        "স্",
        "টি"
      ],
      [
        "সা",
        "ম"
      ],
      [
        "ক্",
        "লা"
      ],
      [
        "হয়",
        "তো"
      ],
      [
        "চ্",
        "ছেন"
      ],
      [
        "সু",
        "বি"
      ],
      [
        "বো",
        "ন"
      ],
      [
        "পি",
        "তা"
      ],
      [
        "যায়",
        "ী"
      ],
      [
        "রাজ",
        "ধান"
      ],
      [
        "কৃ",
        "ষ"
      ],
      [
        "আলো",
        "চনা"
      ],
      [
        "উৎ",
        "সব"
      ],
      [
        "কর্মকর্ত",
        "া"
      ],
      [
        "রোব",
        "বার"
      ],
      [
        "চ",
        "ট"
      ],
      [
        "ব",
        "ন"
      ],
      [
        "ল",
        "নে"
      ],
      [
        "ষ",
        "ণ"
      ],
      [
        "স",
        "র্ব"
      ],
      [
        "ে",
        "ক"
      ],
      [
        "জান",
        "ো"
      ],
      [
        "তাঁ",
        "রা"
      ],
      [
        "দ্র",
        "ুত"
      ],
      [
        "সত্য",
        "ি"
      ],
      [
        "তদ",
        "ন্ত"
      ],
      [
        "ও",
        "য়ে"
      ],
      [
        "গ",
        "ি"
      ],
      [
        "গ",
        "্"
      ],
      [
        "গ",
        "ড়ে"
      ],
      [
        "স",
        "ায়"
      ],
      [
        "মা",
        "স"
      ],
      [
        "মা",
        "হ"
      ],
      [
        "মা",
        "সে"
      ],
      [
        "মি",
        "র"
      ],
      [
        "পা",
        "শি"
      ],
      [
        "সম",
        "র্থ"
      ],
      [
        "যা",
        "বো"
      ],
      [
        "্ম",
        "দ"
      ],
      [
        "অনু",
        "যায়ী"
      ],
      [
        "ঘট",
        "নায়"
      ],
      [
        "উদ্",
        "বোধ"
      ],
      [
        "পরী",
        "ক্ষা"
      ],
      [
        "কোথা",
        "ও"
      ],
      [
        "এ",
        "ল"
      ],
      [
        "ক",
        "ল্প"
      ],
      [
        "চ",
        "লা"
      ],
      [
        "প",
        "থে"
      ],
      [
        "ম",
        "হি"
      ],
      [
        "কে",
        "ই"
      ],
      [
        "বা",
        "ল"
      ],
      [
        "বে",
        "লা"
      ],
      [
        "মা",
        "ঠে"
      ],
      [
        "তি",
        "তে"
      ],
      [
        "প্র",
        "ত্য"
      ],
      [
        "রা",
        "স্ত"
      ],
      [
        "ক্ষ",
        "তি"
      ],
      [
        "মে",
        "দ"
      ],
      [
        "স্থ",
        "ানে"
      ],
      [
        "শু",
        "ক্র"
      ],
      [
        "দ্ধ",
        "া"
      ],
      [
        "তাঁ",
        "কে"
      ],
      [
        "মন্ত্র",
        "ণা"
      ],
      [
        "প্ত",
        "া"
      ],
      [
        "প্রা",
        "ণ"
      ],
      [
        "তিন",
        "টি"
      ],
      [
        "রাজন",
        "ীতি"
      ],
      [
        "সৃ",
        "ষ্টি"
      ],
      [
        "কর্মসূ",
        "চি"
      ],
      [
        "পাশা",
        "পাশি"
      ],
      [
        "স্বাস্থ",
        "্য"
      ],
      [
        "অ",
        "ফি"
      ],
      [
        "আ",
        "ন্দো"
      ],
      [
        "চ",
        "ক"
      ],
      [
        "দ",
        "লে"
      ],
      [
        "প",
        "ত্ত"
      ],
      [
        "ব",
        "ঙ্গ"
      ],
      [
        "ু",
        "ক"
      ],
      [
        "্র",
        "া"
      ],
      [
        "মা",
        "থা"
      ],
      [
        "তা",
        "তে"
      ],
      [
        "রা",
        "য়"
      ],
      [
        "এক",
        "বার"
      ],
      [
        "স্ত",
        "ি"
      ],
      [
        "ডি",
        "সে"
      ],
      [
        "আস",
        "ো"
      ],
      [
        "হলে",
        "ও"
      ],
      [
        "গণ",
        "ত"
      ],
      [
        "জানিয়ে",
        "ছেন"
      ],
      [
        "অনুষ্ঠ",
        "ানে"
      ],
      [
        "পরী",
        "ক্ষ"
      ],
      [
        "মাঝ",
        "ে"
      ],
      [
        "চট",
        "্ট"
      ],
      [
        "মন্ত্রণা",
        "ল"
      ],
      [
        "উ",
        "দ্ধ"
      ],
      [
        "ক",
        "্য"
      ],
      [
        "ক",
        "ুর"
      ],
      [
        "প",
        "ছ"
      ],
      [
        "ব",
        "হু"
      ],
      [
        "ম",
        "জা"
      ],
      [
        "কি",
        "ন"
      ],
      [
        "পর",
        "িক"
      ],
      [
        "সা",
        "ত"
      ],
      [
        "হা",
        "ই"
      ],
      [
        "যা",
        "ব"
      ],
      [
        "চ্",
        "চিত্র"
      ],
      [
        "দু",
        "পুর"
      ],
      [
        "জান",
        "ে"
      ],
      [
        "মু",
        "ক্ত"
      ],
      [
        "শু",
        "নে"
      ],
      [
        "নার",
        "ী"
      ],
      [
        "যোগ",
        "ি"
      ],
      [
        "এখন",
        "ও"
      ],
      [
        "অব",
        "স্থায়"
      ],
      [
        "বু",
        "ধ"
      ],
      [
        "মন্ত্র",
        "ীর"
      ],
      [
        "চল",
        "চ্চিত্র"
      ],
      [
        "ফে",
        "ল"
      ],
      [
        "প্রা",
        "থ"
      ],
      [
        "স্ব",
        "প্"
      ],
      [
        "কৃ",
        "ত"
      ],
      [
        "আহ",
        "্ব"
      ],
      [
        "নিজে",
        "দের"
      ],
      [
        "ভর",
        "্তি"
      ],
      [
        "বৈ",
        "ঠ"
      ],
      [
        "গুরুত্ব",
        "পূর্ণ"
      ],
      [
        "সোম",
        "বার"
      ],
      [
        "শুক্র",
        "বার"
      ],
      [
        "অ",
        "ন্ত"
      ],
      [
        "আ",
        "ন্ত"
      ],
      [
        "আ",
        "সি"
      ],
      [
        "গ",
        "ল"
      ],
      [
        "চ",
        "ী"
      ],
      [
        "ট",
        "ক"
      ],
      [
        "ফ",
        "ার"
      ],
      [
        "ৎ",
        "কার"
      ],
      [
        "বা",
        "কি"
      ],
      [
        "তা",
        "ল"
      ],
      [
        "পা",
        "ল"
      ],
      [
        "কার",
        "্যাল"
      ],
      [
        "বল",
        "ার"
      ],
      [
        "বল",
        "ছি"
      ],
      [
        "বার",
        "্"
      ],
      [
        "লি",
        "খ"
      ],
      [
        "লি",
        "জ"
      ],
      [
        "খা",
        "দ্য"
      ],
      [
        "ডি",
        "ও"
      ],
      [
        "বাংলা",
        "দেশে"
      ],
      [
        "চল",
        "ছে"
      ],
      [
        "গো",
        "ল"
      ],
      [
        "আগে",
        "ই"
      ],
      [
        "শী",
        "ল"
      ],
      [
        "ব্",
        "দ"
      ],
      [
        "মূল",
        "্য"
      ],
      [
        "বুঝ",
        "তে"
      ],
      [
        "গ",
        "বে"
      ],
      [
        "র",
        "ঙ"
      ],
      [
        "শ",
        "তা"
      ],
      [
        "হ",
        "র"
      ],
      [
        "ো",
        "ধ"
      ],
      [
        "রা",
        "খা"
      ],
      [
        "স্",
        "ট্র"
      ],
      [
        "ক্ষ",
        "ু"
      ],
      [
        "হা",
        "ঁ"
      ],
      [
        "ঙ্",
        "গা"
      ],
      [
        "জা",
        "হা"
      ],
      [
        "সু",
        "স্থ"
      ],
      [
        "দ্ধ",
        "ি"
      ],
      [
        "ক্র",
        "ান্ত"
      ],
      [
        "ফে",
        "ব্র"
      ],
      [
        "চাই",
        "লে"
      ],
      [
        "দী",
        "র্ঘ"
      ],
      [
        "লাগ",
        "ছে"
      ],
      [
        "এলা",
        "কায়"
      ],
      [
        "সন্ত",
        "ান"
      ],
      [
        "উন্নয়",
        "ন"
      ],
      [
        "হাসপাতা",
        "লে"
      ],
      [
        "দক্ষ",
        "ি"
      ],
      [
        "প্রাথ",
        "মিক"
      ],
      [
        "আ",
        "ত্ম"
      ],
      [
        "গ",
        "ী"
      ],
      [
        "ঘ",
        "ণ্"
      ],
      [
        "চ",
        "ম"
      ],
      [
        "চ",
        "ান"
      ],
      [
        "ত",
        "ত"
      ],
      [
        "ফ",
        "র"
      ],
      [
        "ম",
        "তি"
      ],
      [
        "ম",
        "রা"
      ],
      [
        "র",
        "ত"
      ],
      [
        "র",
        "ূপ"
      ],
      [
        "শ",
        "ত"
      ],
      [
        "স",
        "র্"
      ],
      [
        "নি",
        "হত"
      ],
      [
        "বি",
        "মান"
      ],
      [
        "ন্",
        "ড"
      ],
      [
        "লি",
        "খে"
      ],
      [
        "সং",
        "সদ"
      ],
      [
        "বো",
        "র্"
      ],
      [
        "এটা",
        "ই"
      ],
      [
        "থাক",
        "েন"
      ],
      [
        "উপ",
        "স্থিত"
      ],
      [
        "ভার",
        "ত"
      ],
      [
        "ভার",
        "তের"
      ],
      [
        "প্ত",
        "ার"
      ],
      [
        "আহ",
        "মেদ"
      ],
      [
        "স্থান",
        "ীয়"
      ],
      [
        "যুক্ত",
        "রাষ্ট্র"
      ],
      [
        "দাঁ",
        "ড়া"
      ],
      [
        "ত্",
        "বে"
      ],
      [
        "স্কু",
        "লে"
      ],
      [
        "বাচ্",
        "চা"
      ],
      [
        "চৌ",
        "ধুর"
      ],
      [
        "উদ্ধ",
        "ার"
      ],
      [
        "বুধ",
        "বার"
      ],
      [
        "অ",
        "পরা"
      ],
      [
        "ক",
        "ষ্ট"
      ],
      [
        "ক",
        "ঠি"
      ],
      [
        "গ",
        "ায়"
      ],
      [
        "ন",
        "ই"
      ],
      [
        "ন",
        "ৈতিক"
      ],
      [
        "ব",
        "র্ষ"
      ],
      [
        "ভ",
        "্যা"
      ],
      [
        "ম",
        "ন্ত"
      ],
      [
        "স",
        "ভ"
      ],
      [
        "বি",
        "ভা"
      ],
      [
        "র্",
        "জা"
      ],
      [
        "সা",
        "ব"
      ],
      [
        "করে",
        "ছিলেন"
      ],
      [
        "যা",
        "ক"
      ],
      [
        "যা",
        "তে"
      ],
      [
        "চ্",
        "ছ"
      ],
      [
        "সং",
        "খ্যা"
      ],
      [
        "অব",
        "স্থান"
      ],
      [
        "সম্",
        "মান"
      ],
      [
        "বর্ত",
        "ী"
      ],
      [
        "ব্র",
        "া"
      ],
      [
        "ভাষ",
        "া"
      ],
      [
        "হাম",
        "্মদ"
      ],
      [
        "স্ক",
        "ুল"
      ],
      [
        "খুঁ",
        "জে"
      ],
      [
        "পরিবর্ত",
        "ন"
      ],
      [
        "গ্রে",
        "প্তার"
      ],
      [
        "সাংবাদিক",
        "দের"
      ],
      [
        "শ্রে",
        "ণ"
      ],
      [
        "পরিক",
        "ল্প"
      ],
      [
        "আহ্ব",
        "ান"
      ],
      [
        "কঠি",
        "ন"
      ],
      [
        "অ",
        "প"
      ],
      [
        "আ",
        "লা"
      ],
      [
        "আ",
        "লী"
      ],
      [
        "আ",
        "হত"
      ],
      [
        "উ",
        "নি"
      ],
      [
        "এ",
        "নে"
      ],
      [
        "ধ",
        "্ব"
      ],
      [
        "ন",
        "ীর"
      ],
      [
        "প",
        "ণ"
      ],
      [
        "প",
        "র্"
      ],
      [
        "ভ",
        "োগ"
      ],
      [
        "ভ",
        "োট"
      ],
      [
        "র",
        "ং"
      ],
      [
        "শ",
        "নের"
      ],
      [
        "স",
        "কল"
      ],
      [
        "ী",
        "কে"
      ],
      [
        "কর",
        "লেন"
      ],
      [
        "তে",
        "মন"
      ],
      [
        "প্র",
        "যুক্তি"
      ],
      [
        "থা",
        "কার"
      ],
      [
        "পা",
        "স"
      ],
      [
        "এই",
        "চ"
      ],
      [
        "গা",
        "ঁ"
      ],
      [
        "আস",
        "েন"
      ],
      [
        "শ্",
        "চি"
      ],
      [
        "ট্র",
        "েন"
      ],
      [
        "সার",
        "্"
      ],
      [
        "স্বা",
        "ভা"
      ],
      [
        "কৃ",
        "তি"
      ],
      [
        "আন",
        "ন্দ"
      ],
      [
        "দূ",
        "র"
      ],
      [
        "আপনা",
        "দের"
      ],
      [
        "সাবে",
        "ক"
      ],
      [
        "ব্যাং",
        "ক"
      ],
      [
        "অধ",
        "্যা"
      ],
      [
        "পর্যা",
        "য়ে"
      ],
      [
        "সুবি",
        "ধা"
      ],
      [
        "আ",
        "সব"
      ],
      [
        "আ",
        "য়োজন"
      ],
      [
        "ক",
        "ৌ"
      ],
      [
        "খ",
        "র"
      ],
      [
        "চ",
        "রণ"
      ],
      [
        "জ",
        "িক"
      ],
      [
        "ট",
        "েন"
      ],
      [
        "ভ",
        "ীর"
      ],
      [
        "শ",
        "নে"
      ],
      [
        "স",
        "ল"
      ],
      [
        "ান",
        "্ড"
      ],
      [
        "প্র",
        "ভাব"
      ],
      [
        "দে",
        "হ"
      ],
      [
        "দে",
        "বে"
      ],
      [
        "পরি",
        "বারের"
      ],
      [
        "ডি",
        "য়া"
      ],
      [
        "দিয়ে",
        "ছেন"
      ],
      [
        "পে",
        "ছ"
      ],
      [
        "নির্",
        "দেশ"
      ],
      [
        "বিদ",
        "্য"
      ],
      [
        "স্ব",
        "ী"
      ],
      [
        "ডটকম",
        "কে"
      ],
      [
        "বিষয়",
        "টি"
      ],
      [
        "কয়েক",
        "টি"
      ],
      [
        "নিরা",
        "পত্ত"
      ],
      [
        "অপে",
        "ক্ষা"
      ],
      [
        "পছ",
        "ন্দ"
      ],
      [
        "স্বপ্",
        "ন"
      ],
      [
        "উ",
        "চ্চ"
      ],
      [
        "গ",
        "ঞ্জ"
      ],
      [
        "জ",
        "নে"
      ],
      [
        "ঝ",
        "ু"
      ],
      [
        "দ",
        "ম"
      ],
      [
        "প",
        "শ্চি"
      ],
      [
        "শ",
        "ব্দ"
      ],
      [
        "না",
        "গর"
      ],
      [
        "প্র",
        "চার"
      ],
      [
        "মি",
        "ন"
      ],
      [
        "টি",
        "ং"
      ],
      [
        "কি",
        "ং"
      ],
      [
        "ভা",
        "ল"
      ],
      [
        "ন্",
        "দি"
      ],
      [
        "বার",
        "ে"
      ],
      [
        "সি",
        "ং"
      ],
      [
        "সং",
        "খ"
      ],
      [
        "বলে",
        "ছে"
      ],
      [
        "মন",
        "ো"
      ],
      [
        "চি",
        "ঠি"
      ],
      [
        "কের",
        "া"
      ],
      [
        "বাস",
        "ায়"
      ],
      [
        "প্",
        "লিজ"
      ],
      [
        "বাহি",
        "নী"
      ],
      [
        "জিনি",
        "স"
      ],
      [
        "ডিসে",
        "ম্বর"
      ],
      [
        "দক্ষি",
        "ণ"
      ],
      [
        "স্বাভা",
        "বিক"
      ],
      [
        "নাগর",
        "িক"
      ],
      [
        "ই",
        "চ্ছা"
      ],
      [
        "চ",
        "ুর"
      ],
      [
        "ট",
        "র"
      ],
      [
        "ন",
        "ষ্ট"
      ],
      [
        "ন",
        "গর"
      ],
      [
        "স",
        "ুর"
      ],
      [
        "ু",
        "ণ"
      ],
      [
        "কর",
        "্"
      ],
      [
        "কে",
        "বল"
      ],
      [
        "বি",
        "ক্রি"
      ],
      [
        "কা",
        "ঠ"
      ],
      [
        "তা",
        "লি"
      ],
      [
        "লা",
        "ল"
      ],
      [
        "ড়",
        "ায়"
      ],
      [
        "দে",
        "শি"
      ],
      [
        "ন্",
        "দু"
      ],
      [
        "সম",
        "ান"
      ],
      [
        "লি",
        "য়া"
      ],
      [
        "পরি",
        "চিত"
      ],
      [
        "সং",
        "ঘ"
      ],
      [
        "শা",
        "ল"
      ],
      [
        "কাজ",
        "ের"
      ],
      [
        "গো",
        "ষ্ঠ"
      ],
      [
        "জীব",
        "নে"
      ],
      [
        "প্রা",
        "প্ত"
      ],
      [
        "অন্য",
        "তম"
      ],
      [
        "পড়ে",
        "ছে"
      ],
      [
        "শো",
        "ধ"
      ],
      [
        "শো",
        "না"
      ],
      [
        "নিয়",
        "োগ"
      ],
      [
        "হী",
        "ন"
      ],
      [
        "বাড়",
        "ির"
      ],
      [
        "সন্ত",
        "ানের"
      ],
      [
        "বেঁ",
        "চে"
      ],
      [
        "কহি",
        "ল"
      ],
      [
        "চট্ট",
        "গ্রাম"
      ],
      [
        "ই",
        "ত্যা"
      ],
      [
        "ও",
        "ঠে"
      ],
      [
        "জ",
        "্য"
      ],
      [
        "ড",
        "ো"
      ],
      [
        "ব",
        "রা"
      ],
      [
        "ব",
        "র্"
      ],
      [
        "ম",
        "নি"
      ],
      [
        "ম",
        "হাস"
      ],
      [
        "ূ",
        "র্ণ"
      ],
      [
        "য়",
        "ন"
      ],
      [
        "য়",
        "ান"
      ],
      [
        "বি",
        "জ্ঞান"
      ],
      [
        "লে",
        "ই"
      ],
      [
        "কা",
        "উ"
      ],
      [
        "কা",
        "ণ্ড"
      ],
      [
        "লা",
        "শ"
      ],
      [
        "নে",
        "য়"
      ],
      [
        "দি",
        "ল"
      ],
      [
        "পা",
        "লা"
      ],
      [
        "যা",
        "চ্ছি"
      ],
      [
        "মে",
        "য়ের"
      ],
      [
        "সি",
        "র"
      ],
      [
        "জান",
        "ায়"
      ],
      [
        "ক্ত",
        "ার"
      ],
      [
        "আস",
        "ার"
      ],
      [
        "পুর",
        "স্কার"
      ],
      [
        "উপ",
        "জেলার"
      ],
      [
        "সের",
        "া"
      ],
      [
        "ঢাকা",
        "য়"
      ],
      [
        "পড়",
        "তে"
      ],
      [
        "সমা",
        "জ"
      ],
      [
        "ভাব",
        "না"
      ],
      [
        "সবাই",
        "কে"
      ],
      [
        "নিয়",
        "ন্ত্র"
      ],
      [
        "নিজে",
        "কে"
      ],
      [
        "দাঁ",
        "ড়িয়ে"
      ],
      [
        "মার্",
        "চ"
      ],
      [
        "ওয়",
        "ায়"
      ],
      [
        "অ",
        "বর"
      ],
      [
        "এ",
        "দের"
      ],
      [
        "এ",
        "দিকে"
      ],
      [
        "ণ",
        "ি"
      ],
      [
        "ত",
        "রু"
      ],
      [
        "ফ",
        "িক"
      ],
      [
        "বা",
        "বার"
      ],
      [
        "কা",
        "ছ"
      ],
      [
        "তা",
        "হার"
      ],
      [
        "প্র",
        "তিনি"
      ],
      [
        "প্র",
        "শা"
      ],
      [
        "টি",
        "য়ে"
      ],
      [
        "টা",
        "কার"
      ],
      [
        "র্",
        "ক"
      ],
      [
        "র্",
        "ট"
      ],
      [
        "কি",
        "য়ে"
      ],
      [
        "সা",
        "মা"
      ],
      [
        "সা",
        "ড়ে"
      ],
      [
        "কার",
        "া"
      ],
      [
        "কার",
        "ো"
      ],
      [
        "শি",
        "ত"
      ],
      [
        "সি",
        "ড"
      ],
      [
        "সি",
        "রি"
      ],
      [
        "জা",
        "তি"
      ],
      [
        "স্থ",
        "ার"
      ],
      [
        "টে",
        "লি"
      ],
      [
        "নির্",
        "মাণ"
      ],
      [
        "ন্দ",
        "্র"
      ],
      [
        "করি",
        "য়া"
      ],
      [
        "বছ",
        "রে"
      ],
      [
        "বর্ত",
        "মানে"
      ],
      [
        "ফা",
        "ঁ"
      ],
      [
        "খো",
        "লা"
      ],
      [
        "দর্",
        "শন"
      ],
      [
        "পরা",
        "মর্"
      ],
      [
        "যাত্র",
        "া"
      ],
      [
        "যাত্র",
        "ী"
      ],
      [
        "আদা",
        "ল"
      ],
      [
        "চৌধুর",
        "ী"
      ],
      [
        "ইত্যা",
        "দি"
      ],
      [
        "অ",
        "থ"
      ],
      [
        "আ",
        "গু"
      ],
      [
        "আ",
        "চরণ"
      ],
      [
        "গ",
        "তি"
      ],
      [
        "গ",
        "ভীর"
      ],
      [
        "জ",
        "োট"
      ],
      [
        "দ",
        "প্ত"
      ],
      [
        "ধ",
        "রা"
      ],
      [
        "ধ",
        "ন্য"
      ],
      [
        "ন",
        "দ"
      ],
      [
        "ন",
        "ৌ"
      ],
      [
        "ভ",
        "ী"
      ],
      [
        "ম",
        "স"
      ],
      [
        "ম",
        "্য"
      ],
      [
        "শ",
        "ুর"
      ],
      [
        "স",
        "ঠিক"
      ],
      [
        "স",
        "চিব"
      ],
      [
        "স",
        "প্তা"
      ],
      [
        "হ",
        "ক"
      ],
      [
        "হ",
        "ৃ"
      ],
      [
        "ি",
        "য়া"
      ],
      [
        "নি",
        "ষ"
      ],
      [
        "বা",
        "সা"
      ],
      [
        "কা",
        "ঁ"
      ],
      [
        "প্র",
        "মাণ"
      ],
      [
        "পর",
        "ের"
      ],
      [
        "তো",
        "মরা"
      ],
      [
        "জা",
        "মা"
      ],
      [
        "মু",
        "ভি"
      ],
      [
        "জন্য",
        "ে"
      ],
      [
        "উপ",
        "জেলা"
      ],
      [
        "মো",
        "বাই"
      ],
      [
        "ঢা",
        "কার"
      ],
      [
        "সো",
        "নার"
      ],
      [
        "বৃ",
        "ষ্টি"
      ],
      [
        "বর্ত",
        "মান"
      ],
      [
        "নির্বাচ",
        "নে"
      ],
      [
        "তোমা",
        "দের"
      ],
      [
        "তৃ",
        "তীয়"
      ],
      [
        "পের",
        "ে"
      ],
      [
        "এলা",
        "কা"
      ],
      [
        "কেন্দ্র",
        "ীয়"
      ],
      [
        "শহ",
        "র"
      ],
      [
        "শহ",
        "রের"
      ],
      [
        "পক্ষ",
        "ের"
      ],
      [
        "ভিত",
        "্ত"
      ],
      [
        "ভু",
        "লে"
      ],
      [
        "মন্ত",
        "ব্য"
      ],
      [
        "তরু",
        "ণ"
      ],
      [
        "উ",
        "পরে"
      ],
      [
        "এ",
        "গুলো"
      ],
      [
        "এ",
        "সো"
      ],
      [
        "ঙ",
        "া"
      ],
      [
        "ঝ",
        "ড়"
      ],
      [
        "প",
        "য়েন্"
      ],
      [
        "য",
        "ন্ত্র"
      ],
      [
        "র",
        "ক্ষা"
      ],
      [
        "কা",
        "পড়"
      ],
      [
        "মা",
        "ছ"
      ],
      [
        "মা",
        "থায়"
      ],
      [
        "প্র",
        "ার্থ"
      ],
      [
        "প্র",
        "ত্যা"
      ],
      [
        "ড়",
        "ার"
      ],
      [
        "রে",
        "ল"
      ],
      [
        "চা",
        "প"
      ],
      [
        "চা",
        "করি"
      ],
      [
        "দু",
        "টো"
      ],
      [
        "বর",
        "ণ"
      ],
      [
        "মো",
        "হাম্মদ"
      ],
      [
        "পৌঁ",
        "ছে"
      ],
      [
        "চিকিৎ",
        "সা"
      ],
      [
        "শান্ত",
        "ি"
      ],
      [
        "ফুট",
        "বল"
      ],
      [
        "অ",
        "ক্"
      ],
      [
        "আ",
        "ক্রম"
      ],
      [
        "আ",
        "ল্লাহ"
      ],
      [
        "ঘ",
        "রের"
      ],
      [
        "ঙ",
        "ে"
      ],
      [
        "দ",
        "ৌ"
      ],
      [
        "ল",
        "ড়াই"
      ],
      [
        "্",
        "স"
      ],
      [
        "বা",
        "তা"
      ],
      [
        "বা",
        "সে"
      ],
      [
        "কা",
        "টা"
      ],
      [
        "প্র",
        "কল্প"
      ],
      [
        "মি",
        "ল"
      ],
      [
        "ভা",
        "ড়া"
      ],
      [
        "জন",
        "ক"
      ],
      [
        "বল",
        "লাম"
      ],
      [
        "কো",
        "ম্প"
      ],
      [
        "িত",
        "্র"
      ],
      [
        "সি",
        "ক"
      ],
      [
        "সি",
        "টি"
      ],
      [
        "জান",
        "ুয়ারি"
      ],
      [
        "সং",
        "স্"
      ],
      [
        "অন",
        "্যান"
      ],
      [
        "শা",
        "হ"
      ],
      [
        "প্রতি",
        "টি"
      ],
      [
        "দেখ",
        "ো"
      ],
      [
        "উপ",
        "ায়"
      ],
      [
        "শী",
        "ত"
      ],
      [
        "উদ্",
        "দেশ"
      ],
      [
        "ডা",
        "ক্তার"
      ],
      [
        "মুক্তি",
        "যুদ্ধ"
      ],
      [
        "দো",
        "ষ"
      ],
      [
        "স্থায়",
        "ী"
      ],
      [
        "ভূমি",
        "কা"
      ],
      [
        "মিনি",
        "ট"
      ],
      [
        "পরিস্থি",
        "তি"
      ],
      [
        "আন্ত",
        "র্জা"
      ],
      [
        "বিদ্য",
        "ু"
      ],
      [
        "নিরাপত্ত",
        "া"
      ],
      [
        "সংখ",
        "্য"
      ],
      [
        "পরামর্",
        "শ"
      ],
      [
        "আন্তর্জা",
        "তিক"
      ],
      [
        "আ",
        "র্"
      ],
      [
        "আ",
        "য়ো"
      ],
      [
        "আ",
        "গ্রহ"
      ],
      [
        "আ",
        "বেদন"
      ],
      [
        "ই",
        "ল"
      ],
      [
        "এ",
        "ক্স"
      ],
      [
        "ও",
        "ঠ"
      ],
      [
        "ক",
        "ান"
      ],
      [
        "ক",
        "দের"
      ],
      [
        "ছ",
        "ড়িয়ে"
      ],
      [
        "ট",
        "ন"
      ],
      [
        "ম",
        "েনে"
      ],
      [
        "হ",
        "তা"
      ],
      [
        "ি",
        "কা"
      ],
      [
        "কর",
        "তেন"
      ],
      [
        "বি",
        "জয়"
      ],
      [
        "মা",
        "য়ের"
      ],
      [
        "মা",
        "লিক"
      ],
      [
        "নে",
        "ওয়ার"
      ],
      [
        "সা",
        "হ"
      ],
      [
        "পা",
        "বে"
      ],
      [
        "বল",
        "ছে"
      ],
      [
        "মে",
        "ঘ"
      ],
      [
        "মে",
        "লা"
      ],
      [
        "জান",
        "েন"
      ],
      [
        "পরি",
        "ষ্কার"
      ],
      [
        "জি",
        "র"
      ],
      [
        "দিয়ে",
        "ছি"
      ],
      [
        "ব্যা",
        "ট"
      ],
      [
        "ধার",
        "ণা"
      ],
      [
        "প্রথ",
        "মে"
      ],
      [
        "অভি",
        "নয়"
      ],
      [
        "আজ",
        "কে"
      ],
      [
        "পূ",
        "র্ব"
      ],
      [
        "সমা",
        "লো"
      ],
      [
        "ভে",
        "ত"
      ],
      [
        "গর",
        "ম"
      ],
      [
        "ক্রি",
        "কেট"
      ],
      [
        "চু",
        "ক্তি"
      ],
      [
        "পাঠ",
        "ানো"
      ],
      [
        "অনুষ্ঠ",
        "ান"
      ],
      [
        "কমি",
        "টির"
      ],
      [
        "সন্",
        "ধ্য"
      ],
      [
        "দৃ",
        "শ্য"
      ],
      [
        "সম্মে",
        "লনে"
      ],
      [
        "জনগণ",
        "ের"
      ],
      [
        "শতা",
        "ংশ"
      ],
      [
        "ফেব্র",
        "ুয়ারি"
      ],
      [
        "সভ",
        "ায়"
      ],
      [
        "অধ্যা",
        "পক"
      ],
      [
        "সামা",
        "জিক"
      ],
      [
        "ধন্য",
        "বাদ"
      ],
      [
        "ই",
        "নি"
      ],
      [
        "ই",
        "য়া"
      ],
      [
        "এ",
        "লো"
      ],
      [
        "ঘ",
        "ুরে"
      ],
      [
        "জ",
        "মি"
      ],
      [
        "ত",
        "ত্ত"
      ],
      [
        "র",
        "য়ে"
      ],
      [
        "ী",
        "তে"
      ],
      [
        "বে",
        "গ"
      ],
      [
        "ছে",
        "লের"
      ],
      [
        "মা",
        "দ"
      ],
      [
        "প্র",
        "কা"
      ],
      [
        "দে",
        "ব"
      ]
    ]
  }
}